#version: 0.2
t h
i n
a n
e r
o n
r e
th e
a t
o r
e n
o u
e s
a l
i s
t o
in g
e d
an d
a r
o f
i t
a s
i c
l e
i on
s t
o m
en t
i l
a c
e l
r o
f or
s e
h e
y ou
v e
c h
b e
a d
a m
o w
l y
i d
o l
a y
i m
i g
e t
v er
i th
at ion
c t
a re
w h
u r
o t
u s
t er
w ith
th at
a b
u n
i r
c e
u t
a g
c om
p ro
c on
T he
l o
u l
er s
t r
a p
e m
al l
il l
o p
re s
n e
m o
s u
i f
d e
p l
f r
es t
e x
er e
es s
ou r
h a
k e
w e
ou t
p e
a in
ig h
s o
at e
s h
w as
m ent
ou n
t s
you r
q u
it y
b y
i v
p er
i es
on e
ar t
o d
fr om
th er
i ve
T h
l d
c an
ha ve
p r
an t
u m
p o
w or
th is
t e
ac t
n ot
is t
2 0
c l
I n
en d
ar d
w ill
an y
i al
f e
i p
u st
om e
c o
g r
u p
g e
in d
d o
or t
el l
g h
igh t
ou ld
i e
u d
in e
m e
g o
ab le
id e
ac k
o k
b ut
a k
e ar
h as
u re
a v
ag e
d er
ic e
al ly
ou gh
ac h
ic h
as t
com p
1 9
t im
for m
ion s
l i
at ed
b o
i re
wor k
s p
d u
ow n
oun d
a ke
c re
a f
u se
f er
is h
i z
s er
on g
the ir
mo re
i a
ou s
as s
f o
i b
an s
ver y
it e
a il
c k
w ay
e v
m y
p ort
wh ich
it s
the y
b er
0 0
d ay
ig n
an ce
o ther
en ce
am e
c r
g et
I t
st r
ac e
s ome
b r
al so
n ow
e p
d is
ar y
con t
n o
tim e
ab out
ic al
C h
h is
p re
ct ion
b l
wh o
el y
y ear
A n
W e
m an
ation s
as e
p art
o ver
Th is
c ess
ne w
S t
i le
ar k
re e
re n
ic k
th ing
ent s
W h
a w
it ion
in ter
f ul
t y
m er
in t
p h
20 1
en s
po s
p res
d r
i an
c or
w ere
at er
pro v
s pe
the m
p le
d es
l ow
or s
be en
h er
wh en
u e
ul t
c ol
c ial
of f
com m
o g
an g
li ke
f ir
l l
th ere
h ad
w o
ne ed
h el
th an
en c
in k
c i
ser v
re at
c ent
il d
v el
ch o
mo st
c a
h ow
w ould
ol d
wh at
j ust
ver s
or y
e f
ad e
in to
t ing
b u
n ing
s y
m in
o b
in cl
) .
ad d
a u
c ur
th r
c us
H e
op le
at es
r y
f in
c oun
pro du
pl ay
m ay
re ad
fir st
w ell
at ing
s a
on ly
Y ou
ro w
at t
re g
hel p
i ed
be t
fo re
j e
b ack
u al
R e
p t
U n
pe ople
m ake
le ct
thr ough
a ir
h igh
o se
lo ok
I f
ap p
ic es
un der
m ed
20 0
l and
i ous
d if
f l
A s
v is
ment s
wh ere
in s
re d
m on
it ies
fe ct
ar ch
su p
c er
k now
m any
se e
o s
) ,
en er
ic t
je ct
t wo
if ic
le t
t ain
the se
com e
c ar
on s
e very
se t
per i
to p
re l
. .
ation al
1 0
the n
l ine
an k
ing s
c al
g u
af ter
a th
res s
ca use
N e
ie w
r it
is e
p ers
us ed
st ud
l es
il y
ur n
as ed
F or
d on
in v
b us
in ess
ib le
A l
to m
incl ud
re qu
if e
c he
st em
ter n
tr y
con s
st and
year s
C om
ul ar
f un
ur ing
h o
t en
m ark
ic s
A r
d own
e ver
su ch
c es
y s
il ity
i o
w ant
d el
ev en
is s
go od
al s
u bl
u ch
le ar
an ge
s el
su re
l ess
con d
ol og
u res
r a
s he
C on
c ed
it ed
c ould
m em
v iew
at ive
en g
form ation
ak ing
m ain
des ign
al th
sh ould
i x
s s
b est
g an
E n
su b
s m
e k
bo ok
b le
h ome
str u
1 8
f ind
T r
u b
em ent
id ent
dif fer
d s
j o
s ur
l ong
s ite
g reat
m a
ex t
b el
c all
ar r
an n
An d
sy stem
vel op
l ar
m ade
p or
it t
e ach
m uch
am p
st art
r ight
de velop
f am
w ard
m s
as h
bus iness
cho ol
pe ct
p ar
pers on
sh ow
S e
n um
gr am
p ol
t ake
s im
be cause
h ere
at ch
v ed
f ol
F r
v en
P ro
be ing
way s
l ed
re t
sa id
S o
sh ip
ou p
i vers
s k
produ ct
c are
in st
in formation
ag es
ro om
s ol
c lo
l ife
v al
Th ere
ch n
pl ace
be fore
O n
ch ar
e as
as k
Ne w
u g
al ity
wor ld
prov id
wh ile
ex peri
n er
c ap
ag ain
d id
h and
f act
es e
v ing
u ally
g l
P r
iv es
p ut
in ce
al k
d et
d ing
th ose
th ough
iz e
ion al
do es
ter s
H ow
ou se
h im
th ink
as on
t on
pr of
f il
we en
we ek
le ad
ow er
a z
p ubl
at a
s ing
iv ing
we b
ic an
E x
us ing
B e
ire ct
o c
A mer
s ay
c our
te am
a x
f ic
s ide
p lo
s ign
differ ent
se arch
ar ound
pl an
bet ween
tr ans
comm un
N o
f ree
l ast
l ot
B o
le g
pro cess
p ur
ren t
mark et
po st
pres ent
v ar
1 2
bo th
i el
r un
B ut
i er
f ound
ch ild
pro gram
i ent
i ver
1 5
ak es
C l
The y
D e
T o
g ener
co ver
at ure
sel f
l ist
sup port
l ight
L e
a ve
de c
i or
3 0
M o
pl ic
av ail
s ame
of fer
he ad
n ess
te chn
iz ed
fol low
to o
C o
id er
all ow
w ater
is ts
ce pt
or der
R o
po int
G r
ire d
im port
includ ing
go ing
pos s
c ut
19 9
b lo
w rit
A d
or gan
bu ild
op er
d uring
serv ice
S h
ish ed
c le
m iss
b re
re ally
comp any
al e
lo c
st ill
et y
i end
in es
g y
ar m
v es
s to
n et
res p
th ree
avail able
p at
ad v
num ber
op en
sm all
re al
in cre
olog y
ap h
am es
Wh en
fe el
part ic
pro ject
b ers
s it
P l
00 0
is su
ust r
W or
it al
A t
fe w
ur al
s chool
u c
cl ass
gr oup
Wh at
p ay
ro ss
lo ve
p ower
J o
spe c
mon th
un t
qu e
per form
le vel
op t
fr iend
c y
he alth
t em
b ased
ic ally
C ol
ab ility
d ata
ke ep
5 0
ex am
a h
ar s
itt le
cont in
lo ad
g g
B r
pres s
m et
fam ily
an ts
u de
inter est
I s
m us
O r
ef fect
p ass
f ac
experi ence
A ll
d irect
w on
h app
b od
re ce
re st
enc es
W ith
serv ices
p op
se cond
ent er
co st
with out
g re
g er
U S
are a
g row
c as
i k
prov ide
t est
v ir
n or
a ther
et s
m ust
import ant
i um
Ch r
pl ac
so ci
al ways
1 1
man ag
qu est
v ent
on t
ivers ity
ut ion
it ch
ap pro
s on
are n
k n
ch ange
b or
for t
c ell
de p
are d
t w
g ot
gr aph
pro per
thing s
cont ro
ne x
con tr
read y
qu ality
f f
spe cial
1 6
C an
b all
igh ts
l ittle
ur y
c ame
ou th
bet ter
ard s
at ely
r ic
su c
a ut
o th
l im
pro ble
on line
with in
S he
plo y
g ame
l aw
N or
1 7
S er
i ents
s ince
O ur
nex t
su m
ful l
h ouse
st ate
. "
comp le
b ro
ap pe
cur rent
an other
ent ial
pr om
b ig
h ist
ac cess
ph o
coun t
day s
h ard
ke y
iv id
tr ain
Amer ican
G o
re le
cons ider
a im
iv ed
lo cal
is m
p ly
g ive
stru ct
work ing
e qu
on d
l a
b al
one y
publ ic
at or
jo y
s of
act iv
A f
add ition
en se
p ed
m ight
L o
prof ess
our s
or d
ch ang
In d
1 4
cus tom
g in
some thing
iel d
M an
pr act
com es
f t
inv est
i but
B l
u es
enc y
D r
e le
w in
el s
s c
se ver
end ed
e lect
19 8
pro te
b en
pho to
m aking
A c
mo ve
ic a
b it
p ain
s al
M y
h old
d i
c ase
R es
1 3
t ed
bod y
n ame
c u
D o
m ill
kn own
suc cess
vis it
to w
P h
u ro
ne ver
re search
Th ese
un d
iv en
go ver
Th at
is tr
C oun
con ne
d em
2 5
M ar
re m
unt il
th or
f ace
look ing
m at
product s
in a
f our
child ren
ev ent
n am
st e
us h
h um
poss ible
ex p
in al
fo od
me et
re cor
if ied
op e
lar ge
on es
end ing
a way
bel ie
stud ents
tr a
al ong
act ion
tr ad
er y
ap plic
l ink
again st
E R
ge ther
of ten
p ing
tr u
to day
is ter
m en
em ploy
le y
I N
h y
Un iversity
st y
n ment
b ed
Chr ist
im e
l ing
b as
p ot
web site
iz ation
under stand
it ions
O ne
che ck
ater ial
ot e
st at
bu y
n ational
w r
em s
is ion
j ob
cour se
. ,
2 4
as ter
t urn
de v
j or
Af ter
p an
r is
ful ly
o re
ab ly
to gether
need s
ne ar
ut e
v ol
m oney
n on
re port
call ed
sh op
ul ts
incl ude
C ar
com ing
d om
mem ber
gr ound
lear n
fe at
ir d
v ide
ex pect
t reat
ap er
k s
eas y
e y
i que
iv ely
n ight
A N
is ed
w om
g en
se ason
or ies
w he
or ig
A p
l ab
! !
How ever
ha ving
mem bers
ill s
id s
ivid ual
if y
ail s
um p
ro p
re f
sever al
h ol
mus ic
tim es
m aterial
en joy
ic le
h ip
p age
u ary
s w
Un ited
contro l
d ed
un ch
c ity
person al
1 00
af f
mo del
commun ity
cer tain
cre ate
M ay
spec ific
le ction
19 7
li k
work s
v i
wo od
T e
h n
con om
fo cus
k ind
d ate
develop ment
le ft
at s
comp an
be come
ed uc
ne y
sh are
h al
cr ip
ind ividual
coun try
v ious
G od
vir on
sh ort
i ke
m ber
be aut
ma jor
l ater
m it
sp ace
it ive
i ans
te ach
ar ing
pos ition
t al
wh y
th od
re cent
f ield
per fect
re view
re am
a ud
tow n
4 0
an ces
ben ef
m ult
ex per
st ep
m il
R E
.. .
f ar
p ast
r on
res ult
p ack
so cial
E uro
S y
an al
var i
g n
F e
me ans
st er
A T
ur ther
P o
pe cial
comp et
port un
6 0
h ot
f lo
requ ire
miss ion
ear ly
en n
oth ers
cor ding
off ic
ro ad
m akes
r ound
u ck
exam ple
in ed
M e
conne ct
d one
G u
cont act
cont ain
re main
char ac
ty p
Jo hn
t ell
c lear
in o
un e
201 8
In tern
ul ation
ust ry
b and
bo ard
ur ch
om et
com b
id es
pr ice
l ive
op portun
d en
c amp
ough t
ret urn
ab l
tr av
n at
in ation
Th ank
r ange
o ve
de al
D es
qu ick
an e
ens ive
, ”
M ed
ate g
is ing
O N
re du
comp let
s l
gover nment
inst all
dep end
b ur
ac ross
w ind
cl aim
f av
partic ular
ith er
d am
ut es
it ing
m ar
ut ure
ac y
v o
viron ment
con f
ag o
p ie
de fin
en ough
m al
d ist
cle an
to ol
t alk
b ar
pro ve
il t
el f
fo ot
crip t
w alk
im es
gr ad
al ready
m ind
pr iv
pur ch
c ing
oun t
inv ol
ph one
build ing
me an
st ory
m p
s our
de f
if ul
re ach
I S
n ers
w w
ct or
g ar
S te
2 2
fr ont
bel ow
s ch
w a
pl ain
for d
ty pe
a id
du e
s ell
re fer
dis tr
c ult
A S
cre d
im p
mill ion
Euro pe
ap s
on ce
stud y
w ide
g iven
start ed
pol it
get ting
val ue
in ts
Wor ld
ser ies
compan ies
ind ustry
str ong
fl u
m ag
follow ing
S outh
ward s
w ar
O f
ure d
st it
sing le
e conom
h ours
bo x
au thor
I T
s top
tr ack
- -
A R
F o
le ast
M on
G er
f uture
ro ll
cur ity
est abl
Y our
iv al
M in
f low
if t
A C
il ities
peri od
g ed
N ot
por ts
ip s
vide o
r al
S p
s cre
off ers
re ason
c ard
br and
do ing
S ome
br ing
N ational
m ot
ul l
2 1
or k
st ay
I I
me thod
a i
t ar
to ok
ab ove
ot s
id ay
ie f
feat ures
A ustr
g est
con cer
le ge
au gh
it er
resp ons
P er
ho st
hal f
E S
il ar
cus s
C al
2 3
be gin
f ast
i ate
m id
t ax
sp ir
profess ional
fil m
re co
ang u
n al
le ase
bre ak
var ious
us es
B y
you n
act ually
add ress
cont ent
Ser v
l at
ut ions
re comm
res ults
proble m
in c
am ong
pos ed
at ic
ak en
f ill
" .
S chool
p ict
s ci
f all
do or
s ound
c ou
comple te
min utes
C ity
techn ology
s ize
Nor th
le x
c op
en vironment
t aking
B ar
tw are
are as
month s
ot t
ch all
f ive
ic y
du ct
w ent
sty le
St ates
w all
ow s
ph ys
f it
sp ort
issu es
train ing
custom ers
sh o
an cial
g ames
hist ory
t able
on y
act ive
dr aw
ac count
hum an
C or
en e
though t
led ge
se lect
J an
perform ance
beaut iful
did n
m om
vers ion
Wh ile
provid es
C r
G e
pr int
in it
fun ction
to mer
se en
id ence
w atch
det er
eng ine
201 7
y et
ent ly
A L
pl es
t our
B u
x im
manag ement
B rit
ass ist
d ig
f urther
mo der
O R
ib ility
it or
Re g
ter m
wor d
A m
, "
ex ist
col or
wom en
re present
does n
ple ase
loc ated
p air
pre t
sim ple
rel ation
proper ty
l iving
im prove
Com p
quest ions
down load
every thing
m un
r ate
Y ork
ch es
ener gy
c ast
g lo
design ed
requ ired
me as
p ick
H is
C he
ne cess
av ing
Can ad
m ing
k ing
m or
er ing
p aper
friend s
e ither
F l
clo se
pop ular
land s
whe ther
res ident
system s
r ad
p aren
in ing
20 19
pecial ly
Q u
S c
ent ion
appro ach
u ter
partic ip
u ation
sign ific
D on
u fact
ou d
P ar
med ia
D is
comm on
H er
do cu
es pecially
Austr al
g es
issu e
dis cuss
c ir
W ill
m ess
A pr
rel ated
ide a
pro b
N ow
ver t
P e
H igh
S u
St ate
ic ation
b ir
bu ilt
h am
th ird
he art
per cent
p en
st aff
nat ural
who le
po se
su gg
ir l
sugg est
P art
s en
E d
off ice
se m
ag ed
writ ing
includ es
m atch
itt ed
provid ed
201 6
vis ion
no v
trav el
s ent
stru ction
T H
su per
ip le
P ol
h ope
g ain
em ail
ent ire
wh ite
say s
bl ack
am ount
J ust
as ing
t it
a ur
19 6
2 8
equ ip
lik ely
I C
cr ib
P ark
res h
et er
part y
m ix
happ en
P lease
ha ir
l angu
ck s
En g
hel d
d y
b ank
s at
o il
ap e
t ext
S un
er al
s ong
id ed
how ever
M ic
cre ated
sit es
u le
m ach
2 7
st ar
a ver
ition al
at ors
sel ves
mo b
n ed
b on
sim ilar
need ed
t aken
ish ing
s un
w er
f ire
ach ie
pot ential
un ique
En gl
ev ents
col lect
contin u
is on
be came
prote ct
add ed
ro le
Engl ish
wor th
some one
cent ury
as soci
W est
C ent
charac ter
sof tware
Fr om
2 6
com fort
won der
d ou
se qu
ific ation
af t
em p
A M
wor ds
J u
b i
ou ch
S ep
en sure
ab les
t re
h om
fe ature
pre vious
reg ard
s ix
us ually
al most
H o
bor n
offic ial
ex c
fin al
st or
qu ite
R ep
i res
signific ant
re et
for ward
quest ion
co ok
cus tomer
belie ve
am a
8 0
an a
ple ment
orig inal
chang es
W ar
D ep
l ic
fin ancial
i am
cho ose
dif fic
res our
Apr il
id ge
sim ply
ur ance
et c
j our
ro du
Con t
we ight
s af
requ est
gener al
fav or
St ud
ve h
h or
us er
so on
an im
te gr
ther n
through out
A ct
for ce
know ledge
rece ived
proble ms
po ints
A P
h ind
youn g
tr ies
ag ing
p et
b ill
produ ction
ac c
moder n
er r
201 5
man ufact
opt ions
is es
I m
se curity
reg ular
play ed
v ia
low er
cl ick
and s
w ish
s ed
de ath
educ ation
applic ation
M ark
includ ed
sub ject
h ar
at tr
p ark
res pect
ag ue
b ad
ay s
us s
O c
M arch
form er
E N
z e
ra ther
ad em
new s
E D
t t
to tal
cor por
ide as
end s
omet imes
lear ning
reco gn
pl ant
scre en
e cut
w el
fe e
appe ar
re ct
h on
cr it
del iver
l er
A ug
w ed
row n
co de
ul es
blo g
relation ship
your self
act ions
an ced
A fr
g ress
b um
F in
H ere
M c
el se
play ers
book s
every one
ast ic
treat ment
A ir
2 9
sto re
ris k
ob ject
A b
fer ence
el t
cover ed
lo g
or ts
Ch ar
m as
l ate
read ing
incre ase
er a
er t
fir m
any thing
um e
c il
stand ard
fam il
ef fic
current ly
201 4
opt ion
S m
loc ation
pr im
s pr
ag re
p s
high er
s le
want ed
f ail
rece ive
O S
su it
se em
priv ate
lo ss
Coun ty
ann oun
t akes
lab or
F ir
am az
co re
f ig
T V
c up
out side
det ails
sk in
pract ice
enc ed
n a
min istr
us ers
cl ients
addition al
g ing
" ,
recor d
H ar
spe ct
int rodu
M us
as es
cent er
b an
Ar t
d rop
mo ved
pl at
par ts
tr an
ent al
. ”
J une
com mer
e e
spe ak
h ib
s ess
ac cording
opportun ity
il le
im age
contin ue
3 5
art ment
G re
U K
main tain
u x
run ning
te e
sal es
ins urance
do g
ap pl
resp on
mat ter
writ ten
4 5
prob ably
D av
d le
b ase
up on
contr ibut
net work
st ant
form s
I D
ac cept
activ ities
au tom
K ing
pre p
ic ated
grow th
diffic ult
long er
cred it
f ix
se ction
E m
inter national
happ y
leg al
in tegr
7 0
s ens
r i
u ge
s es
lo ck
ce ed
9 0
ex tra
be hind
Intern ational
vari ety
show s
Jan uary
M r
spe ed
sof t
tr ue
iz ing
L on
comp uter
f ile
pr ior
project s
necess ary
sk ills
V al
dr ive
201 3
ins ide
be gan
fe ed
s mo
allow s
ren ch
A u
try ing
can not
work ed
lead ing
s il
mo d
serv ed
B er
ail y
g as
set ting
care er
B C
Mo st
201 2
Mo re
eas ily
itch en
ex cell
at ter
mo v
it ems
imp act
S an
st ain
Ad d
link s
H ouse
C O
ap point
ic les
u k
Amer ica
ap an
A re
effect ive
get s
ac ts
flo or
C enter
cho ice
prov ed
Brit ish
tem ber
to ber
se par
Ju ly
he av
u ff
su f
av es
ex plo
ist ic
plac ed
Fir st
mob ile
te le
s qu
to ld
Bl ack
co ol
l ay
s we
qu ar
ex act
D ay
contr act
J e
k ids
langu age
is n
ys is
recomm end
Aug ust
Sep tember
qu al
Oc tober
att ack
cr u
D ev
c am
app ly
in j
av o
lim ited
typ es
oc cur
inst e
cl ub
rele ased
quick ly
ter ms
week s
m ass
lead ers
b ot
sum mer
le ave
m ic
ad es
pret ty
i et
market ing
sa fe
E ar
e es
af fect
ear ch
art icle
room s
med ical
sa ve
19 5
bir th
n ia
201 0
ce le
ens ion
fer ences
pol icy
play er
Bo ok
h it
l in
ict ion
publ ished
l ives
in ary
J apan
n s
cas es
r ain
Thank s
G ener
m ine
la unch
cond itions
b ud
t ies
program s
play ing
material s
Lon don
oun tain
v an
cor rect
coun tries
sch ed
r ing
pre vent
E very
w are
develop ed
ex press
g iving
l if
stud ent
In ter
cele br
E l
a ul
ho od
group s
A D
I P
k ill
dr y
provid ing
r an
pie ce
S al
i qu
at ory
i ence
201 1
col lection
graph y
sour ce
olog ical
S ch
y l
expect ed
sh all
S E
cost s
S T
s is
sol ution
l ines
M any
Se e
im med
ct ions
equip ment
al bum
un g
n es
U p
De ce
level s
i ers
ask ed
S at
s aw
form ed
m is
r out
amaz ing
W ind
c and
Dece mber
r am
ber t
de ep
He alth
200 6
Ind ia
og le
or g
pat ients
go al
ex cept
w ise
ve mber
purch ase
Al so
ubl ic
L et
cou ple
in flu
its elf
cer t
d est
cons ist
s old
hist or
inste ad
No vember
ell ow
lat est
c ross
com pl
se ts
c ul
u el
ans wer
iz es
invol ved
R ed
no thing
it ary
att le
Th en
cond ition
consider ed
he ar
ard en
plac es
ex plain
As soci
cre t
recent ly
Ch ina
ct ure
cript ion
cl us
high ly
lo st
ing ton
mo ving
dev ice
3 1
t ouch
H ome
G reat
d iv
look s
aver age
se ems
a ign
ment ion
chall eng
commer cial
/ /
id ing
any one
docu ment
tool s
end er
gl ass
er ous
f resh
h ous
L a
det ail
gre en
3 6
y al
reg ion
g old
ac qu
n ice
s cal
pl ans
dec ision
aw are
e ase
se c
im plement
em er
P resident
S im
p ath
b ath
h our
tern al
G l
h ab
s ense
i for
t ic
ex ecut
S ci
establ ished
G et
con struction
comm it
g irl
f air
min im
trad itional
f re
O ff
R uss
ag ement
them selves
meet ing
dig ital
ol ution
r ich
ch urch
P at
tr ip
Col lege
a e
ess ential
wr ite
des crib
s ale
re member
tr ust
F rench
mult iple
in ner
comple x
S k
as ons
ro ck
paren ts
enc our
S ince
saf ety
S am
We b
success ful
b ab
de b
an c
sup pl
br uary
direct ly
mor ning
w it
C our
ac es
W ell
t le
m m
resour ces
polit ical
Fe bruary
mom ent
st on
f a
co ach
P C
char ge
5 00
r up
ser ve
ren g
um b
ifor nia
rele ase
or ge
blo ck
at ives
g ives
B el
sol utions
po ol
R ev
excell ent
prom ot
benef its
D irect
t ask
19 4
im m
j ud
Europe an
dec ided
E ast
exper t
sto ck
mo ther
organ ization
bro ad
s ometimes
s am
pre m
d aily
H ist
P re
cour t
es tern
B us
Canad a
ers on
S up
im ate
b ag
dis play
adv ant
pre ci
own ers
em pt
r ights
not e
str ate
P al
th us
ch ance
glo bal
On ce
distr ibut
im ages
R O
t ur
s end
up d
on to
favor ite
n y
lot s
ib r
It al
he at
Go ogle
E ven
ch an
Des ign
ww w
f requ
help s
iv ity
O ver
Ph il
Com mun
h tt
An y
con duct
g ree
att ention
em ents
stand ing
k itchen
ve y
3 2
be y
im ent
M S
Gr oup
in nov
200 5
H ol
anal ysis
at o
camp aign
depend ent
Cal ifornia
k er
K e
rest aur
re pair
require ments
Serv ice
st reng
v ille
200 8
nam ed
D uring
tem per
an ch
id ents
F ree
R om
mach ine
M a
blo od
c ateg
: //
aw ard
n ature
S tr
er c
pr ices
st ream
M od
de part
achie ve
B en
complet ely
L aw
ul ations
st age
Wh y
n ut
s po
n ation
go es
de cor
t ick
ob tain
B est
appro pr
f urn
O T
cre ating
to wards
activ ity
ig ation
gu est
f an
it ation
L E
sur pr
200 9
7 5
ser ious
sy n
cr y
tar get
M em
reg ister
c at
s cr
P S
phys ical
s n
al tern
dr ug
plan ning
k en
An g
ic o
Ind ian
st ation
f ed
b s
init ial
9 9
v ill
cr aft
3 3
R em
foot ball
pop ulation
Austral ia
lar gest
pos itive
amp ion
h uge
eng th
” .
grad u
N et
Dav id
interest ing
o x
pl ate
O ut
res er
p m
r ough
ap t
Al though
part ners
l iter
alth ough
applic ations
es ter
dr ink
U N
veh icle
cl ient
ent ry
ib ly
E ach
start ing
use um
iv il
h aps
car ry
z a
vi ol
grow ing
O ther
w arm
cop y
it es
? ?
econom ic
it ure
school s
sup ply
f ather
200 7
c el
f ish
s us
Pr of
Ch urch
b ul
stor age
C am
individual s
h op
pict ure
C A
re w
think ing
w est
il es
hand s
s ou
ad ministr
ne igh
ab s
pur pose
deter min
pro gress
ur s
st ates
P ort
cult ure
stit ute
ic ip
p ite
if f
my self
Christ mas
m ail
z er
ch air
is ions
Te chn
orig in
sp ot
cons ult
p aid
be ha
G over
trans fer
en h
Ger man
C E
organ iz
i ately
ar ies
produ ced
ind ic
id a
8 8
M ag
Pl ay
let ter
Dep artment
respon se
ven ue
f ab
M P
J es
bl ue
Go od
g ave
report ed
r ace
ass ess
m arr
ig r
chang ed
understand ing
cap t
view s
inst it
tr ade
l ack
T od
str ateg
st one
fr ame
business es
I L
we ar
it ely
en ge
pat tern
In c
T ur
en ing
b ol
photo s
as te
con sum
friend ly
Will iam
ey e
fin ish
interest ed
ar ily
begin ning
de cl
de gree
s low
M id
f ight
M ac
d ark
che m
Sy stem
Comp any
W ash
pres sure
st ress
health y
li er
profess ion
M al
w id
G old
B ro
struct ure
U R
d ol
Ac cording
employ ees
ent y
cap ital
sat is
sur round
ir t
ic ed
anal y
ho sp
tit le
W o
f elt
i very
un it
associ ated
3 4
effect s
im press
o v
Re ferences
F ace
S pe
Fr iday
comp on
ne g
ir ing
b ow
C D
c ash
p ages
nor mal
ad s
sit uation
sur face
W al
d ream
20 00
go als
S ol
dam age
di ag
sp end
r ank
St reet
invest ment
D istr
mean ing
tran sport
incre ased
ad vis
complet ed
H el
ind ustr
differ ence
Pe ople
produ ce
defin itely
dem and
ar ant
wr ong
i ant
post ed
gr ade
mess age
famil ies
f ine
m aster
plat form
Coun cil
exact ly
ef fort
high est
Gener al
br ought
r ates
hol iday
incre asing
coun ts
Bus iness
sp orts
oper ation
D own
3 8
J er
ly ing
ol f
offer ed
opportun ities
benef it
g ency
sci ence
bas is
l ength
D el
num bers
gu ide
particular ly
sh own
ad vert
du c
re li
sp ent
st ick
wa it
v ot
ma xim
ex erc
Wh ite
exist ing
str a
C ur
dem on
wonder ful
g un
as pect
ic ations
pict ures
Cl ub
r or
Re ad
af ford
ak er
com ment
pl us
avo id
resp ond
ac cur
dev ices
announ ced
sy ch
Serv ices
ous ly
pat ient
D an
experi enced
res ist
3 9
gr and
over all
pro ced
i os
S en
of fee
f ant
sle ep
sci ent
im ag
B ank
Gre en
col lege
redu ce
ext rem
offer ing
comfort able
car r
H ot
se ven
sh ot
bud get
o cr
b ound
and er
respons ible
D em
P aul
e at
sm art
appropr iate
or ing
Associ ation
t ag
pres ident
d ress
hot el
s av
t or
S to
3 7
dou ble
E T
f arm
C H
allow ed
pre fer
bas ic
team s
r id
Su per
effic ient
z z
M or
inter net
pre d
B ay
al ing
om en
rel ig
por ary
ist ics
Christ ian
od es
um n
th ous
Eng land
pay ment
re ve
cl in
de ad
Fl or
Res earch
Po st
S w
augh ter
ash ion
con cept
i ation
IN G
spir it
Sun day
C ap
ref lect
lo ved
ant i
v est
Jes us
ann ual
ar gu
Sat ur
W he
ad just
P ho
s outh
follow ed
jo in
ab in
fe et
O b
O h
J ack
fin ished
m itted
Ar ch
regard ing
M et
wom an
mil itary
cap e
st ories
meas ure
turn ed
hom es
stud ies
l am
b row
Cl ass
o st
bey ond
ar a
ch ann
tr ied
4 8
own ed
P ress
cand id
Tr ans
ib er
nor th
ap y
bot tom
E duc
me chan
at ively
S ur
op tim
feel ing
t ren
eas ier
he ard
T ex
continu ed
Wind ows
g ent
p ush
M A
list ed
S ub
ro te
st uff
immed iately
Y ear
enc ies
him self
gener ally
prof it
cent ral
S pr
R iver
S S
ev idence
B al
in come
del ivery
ey es
au to
R ich
F il
elect ric
ap preci
ev al
adv ice
we ather
Ch in
J ames
Intern et
lar ger
al one
ro l
use ful
ron ic
r ules
un k
Tod ay
model s
mov ie
ab ilities
Cour t
g ift
o red
certain ly
was n
T er
col labor
s ort
c ards
y le
gu arant
ment al
suf fer
Dev el
5 5
Face book
Be cause
dis ease
w ife
M iss
Cl ick
prote ction
ship s
back ground
own er
Wash ington
fin ally
ut il
ag er
gre ater
method s
d ied
ide al
comp ared
c it
cap ac
near ly
contro ll
c in
arch ite
im in
ac adem
prim ary
in sp
sur v
Pro gram
iqu es
ag ree
g arden
j u
fil es
exp and
v ant
T O
for ts
br ain
Y es
em ot
M er
Satur day
se lection
ab sol
fr u
i be
oc cas
te en
d at
d ish
w rote
n el
und red
th reat
e th
stra ight
S ing
ad o
f at
s co
ed ge
tru ly
Lo ok
cir c
ident ify
St ar
cy cl
. )
M ake
wed ding
g am
ha el
TH E
mult i
power ful
R et
coun ter
af fic
Le ague
Bl ue
in de
P A
mid dle
u be
str ict
pie ces
extrem ely
be ach
part ner
in struct
win ning
l ights
it ar
establ ish
ear lier
200 4
pt ion
A lex
mic ro
bab y
y n
con ven
on a
plac ement
tr act
plan ts
I V
ex hib
d a
su stain
ele ments
v in
I G
W ed
est ival
direct or
M il
m ir
who se
M art
i us
d ance
V ol
than ks
ul tim
F ound
b atter
quar ter
L ab
Ro ad
advant age
am ent
ear n
describ ed
i ar
d ro
i ance
bill ion
ic ing
step s
olog ies
c ip
spec ies
help ed
scal e
commun ication
An other
C are
n ames
Che ck
re asons
help ing
wind ow
4 4
sec ure
T op
not ice
L ife
ch ain
p ul
est ate
met al
car s
rup t
Q ue
E L
ste ad
S ou
sw itch
ell ing
week end
conne ction
Afr ica
p al
strate gy
ass ign
B ur
F ed
at ically
Devel op
open ed
move ment
no vel
200 2
m ap
t a
open ing
6 5
was h
po or
n ic
Off ice
t ree
est im
F ol
S um
F ind
an cing
chall enge
Chin ese
att empt
than k
lo an
ser ver
sh aring
V is
f em
look ed
say ing
bur g
T y
r ac
U se
pol ice
Bo ard
crit ical
con stant
it em
appro xim
v ac
P M
se y
ke pt
techn ical
) :
may be
b a
Un der
w inter
writ er
cre ative
r om
P ower
h us
An n
br idge
contain s
M ill
C C
pe ace
ra el
Distr ict
M ary
a ult
Tex as
k new
F L
arr ang
ul ated
ul a
requ ires
iel ds
furn iture
c offee
sy m
D iv
h undred
sub s
Mus ic
Mic ro
p a
there fore
clo sed
E lect
re ports
ten ance
T wo
O pen
streng th
det e
review s
B A
ef forts
y a
In stitute
htt p
ro of
keep ing
heav y
see ing
organiz ations
corpor ate
AN D
C all
Lo ve
se a
I M
sess ion
lo se
cl ud
I ts
connect ed
cell s
9 5
r ap
vo ice
lo v
col d
L u
Mic hael
Flor ida
jour ney
ed s
B ig
mem ory
il ing
can cer
val u
fam ous
vir t
rel ax
e ight
al d
g a
part ies
19 0
val ues
un te
b our
H y
mil es
Ger many
L ist
ic ious
sh ared
ree k
C T
exp ensive
Th om
ire ction
Wor k
w ine
or ial
P an
n d
oper ations
N A
but ton
us ion
ma z
mention ed
pass ed
Wh o
charac ters
op h
T om
lead er
t end
bal ance
3 00
s light
s pl
6 4
I R
iver se
ded icated
min ute
P D
is ation
a head
form at
ate ver
f ashion
so le
tr affic
act ual
sho ot
ang er
Is rael
W ater
V er
Mark et
test ing
f lex
manufact ur
en ed
Hist ory
C ons
H ave
M ex
is try
stand ards
R el
sell ing
select ed
spr ing
li br
al ed
Ex ternal
fort un
ly mp
Cent ral
op in
L ou
ste el
L ake
per haps
ig er
compet ition
Pl an
swe et
P et
ord in
H am
S il
stat ement
m ountain
stat us
200 3
tr ial
v it
teach ing
man age
present ed
perform ed
s and
fig ure
chang ing
le ts
O lymp
So ci
Part y
add ing
E r
ro id
sit u
H all
mon itor
Ge orge
Fr ance
_ _
pos es
l ap
ap ers
F am
th ers
es ome
h i
w ild
ex clus
sol id
dr iving
Un ion
Prof ess
develop ing
gu id
ic ine
att ach
ret ail
T or
ain t
A maz
is o
Ro ck
commun ities
cam era
deter mine
fa ith
i est
mo dif
w ants
adv anced
oper ating
ro y
find ing
d aughter
cy cle
Ang el
capac ity
c atch
l s
sk ill
om b
in dependent
experi ences
fill ed
l or
Mon day
small er
squ are
exper ts
m ort
Austral ian
agre ement
Ch o
enter tain
lim it
L ast
sh ape
num erous
separ ate
serv ing
in spir
temper ature
B ill
B re
work ers
mot or
manag er
do ors
t ail
F re
Educ ation
Gr and
con struct
S et
graph ic
con vers
US A
fac ilities
L ike
con su
y ard
Is land
i to
m es
distr ict
Rom an
rele vant
b urn
t ips
prep ared
w ire
ord ers
in ch
re move
dol lar
un its
Man agement
pre par
att end
chem ical
C us
h ur
jo ined
fact ors
dis cover
incre d
Ap ple
i ency
proper ties
So cial
job s
ant a
sc en
hus band
r are
ar i
B S
sour ces
d irection
od y
ol der
B as
| |
in y
cre am
bo y
I ON
Ac adem
Sci ence
challeng es
rad io
soci ety
ic ian
econom y
c ivil
fore ign
up date
class es
sched ule
pass ion
n ur
fun ds
B ack
E as
P ublic
col ors
techn iques
a j
hand le
vis ual
L A
ro t
ound s
res idents
b es
profession als
ot a
be coming
ul ty
remain s
it ors
F A
Or der
fl av
in fr
air s
Ch ild
H um
it ude
sp read
ca used
ann ed
ens es
ter min
New s
call s
pr ay
g one
I A
is l
le an
z y
V e
D ef
shop ping
in stru
C up
clean ing
Pho to
Eng ine
major ity
inter view
be at
aud ience
be comes
S ha
pres ents
main tenance
R ad
Whe ther
dr iver
tele vision
design s
Afr ican
gr ant
run s
con ference
st reet
che ap
L at
dist ance
an cy
trans l
ap ter
d ie
ess ay
ic on
re pe
focus ed
br ight
ear ning
init i
approxim ately
invest ig
200 1
appe ared
or al
aren t
E M
V ir
art ist
Bo th
cre ation
c ities
Sc ott
B et
pain ting
p ow
learn ed
se ctor
W estern
T ake
art ists
adv ance
L in
L ord
y e
fun d
Le g
g ather
ph il
” ,
recor ds
wel come
ac com
port ion
gener ation
jour nal
O F
ic ate
k a
The ir
v ior
ur ation
talk ing
ple as
S how
smo oth
Wh ere
re h
se at
4 7
Wo od
l uck
claim s
T ime
k y
am in
Canad ian
return ed
typ ically
ci ent
appl ied
er n
d ial
ear th
appe ars
pract ices
oc cup
comb ination
D A
p on
m ist
C amp
as su
com ments
v ict
even ing
s core
ant ic
L O
has e
S A
h ang
conf ig
om a
J our
B ra
cour ses
ha ven
was te
p sych
tr ou
ber g
ol ar
fed eral
c row
f ans
C y
previous ly
comp reh
adv ent
introdu ced
H D
S pecial
con cent
M el
comp ar
med ium
om in
refer ence
A ward
W il
W all
ak ers
G ar
most ly
r ail
fil ms
visit ors
Gover nment
fl at
at ures
0 s
col our
az ine
al ign
anim als
process ing
v ic
cent re
big gest
H ill
an o
s now
vent ion
Te am
Soci ety
i as
r ical
M ad
G en
o o
ct ors
4 9
g all
us ual
could n
do ctor
for get
maxim um
Pro ject
other wise
S P
sy mp
ing red
M ain
di et
dom ain
w s
cult ural
r ise
market s
vol unte
ut ely
um in
Com mission
pro of
qu ant
sign ed
in ct
buy ing
altern ative
P ay
manag ed
law s
tru th
ist an
class ic
photo graph
cover age
Direct or
y er
for ces
u gh
ad a
val id
m outh
ph en
neigh bor
exerc ise
c abin
On line
O ld
b ott
M aster
G lo
ul ed
install ation
sh ap
h un
allow ing
t un
ent r
the me
ic ies
pl enty
le aving
the s
M ass
Japan ese
diag no
cit iz
re ality
C ong
f ly
help ful
op s
docu ments
Be fore
me ant
ce p
R A
6 6
as sem
ask et
install ed
R ob
n av
is land
A v
pres ence
event ually
process es
L os
At l
dom in
Th urs
sen ior
shop s
ur ies
M ich
m and
se cret
ip p
b ell
ic ians
pack age
po ly
app ed
guest s
f uel
k m
I r
Se cond
ver se
ent ed
il s
fe es
g ins
in fo
ol ic
b ly
song s
ele ction
out door
r ule
Z e
reach ed
Bu ild
dat ab
y ing
Fr ank
E C
academ ic
d ut
D ata
.. ..
g age
explo re
beaut y
In st
ve get
C ard
teach er
ul ate
f ing
ill ustr
Com mit
err or
vill age
l ux
restaur ant
cont em
teach ers
in form
r ang
w arr
contin ues
wa iting
ag on
7 7
C a
L ight
leaders hip
support ed
demon str
er o
T own
b ac
ad y
thous ands
rem ind
E v
S of
tr ail
ob vious
vide os
loc ations
re ci
fl ight
to ward
b ought
dec ide
pan el
C ath
l it
F ort
pos it
build ings
Russ ian
co ast
T ues
U T
r ating
M at
ill a
iss ion
m el
fun ding
C as
dec isions
industr ial
e ch
t aste
f old
M useum
V an
L L
Re al
comb ined
qu ot
neg ative
hold s
Chr is
w ing
fab ric
not es
b ing
show ing
insp ired
N ote
influ ence
th row
vol ume
r u
to t
En ter
hous es
Develop ment
minim um
Sm ith
fac ility
happen ed
pr oud
r ide
pr ise
fac es
pol icies
N at
hosp ital
re me
199 9
de cre
Fol low
F urther
d im
g ment
Pro duct
W el
Tr ump
est ic
environment al
cor ner
inter nal
P eter
pr inc
dy nam
B ud
se x
d ining
i en
beha vior
pl ug
Thurs day
!! !
Wed nes
8 5
S pan
r at
C P
cept ion
recor ded
cas ino
ap art
Down load
T em
Col or
Th rough
F un
br ief
ro s
at ers
J ose
Ro bert
aud io
Ro yal
clo s
will ing
des k
ger y
proper ly
B each
tre es
suit able
Car ol
depart ment
j ack
comm and
y es
M en
test s
Ch ic
cal cul
art icles
happ ens
el ess
Commun ity
sound s
tr ig
av el
4 6
V ict
assist ance
wh atever
ed om
satis f
4 00
for ced
sc ene
ele ment
web sites
F ire
defin ed
fe ar
l ived
In t
gradu ate
Found ation
show ed
am s
star ts
P erson
veh icles
O per
Val ley
fav our
ck et
N ext
M ot
categ ory
cr is
des pite
Ital ian
b attle
ra ised
le aves
enjoy ed
fun ctions
In formation
marr ied
Ph one
sp ending
detail ed
re cip
d inner
we alth
found ed
Dem ocr
ex change
men u
) ;
un less
co vers
Pro v
recomm ended
ig ence
ag ency
e gg
1 st
compon ents
Ear th
15 0
concer ns
8 00
s ha
prep are
Tues day
Rep ublic
b ass
Or gan
C S
K ore
exc ited
dep ending
top ic
import ance
N Y
sto res
inj ury
pos itions
r d
con stit
M E
walk ing
th ick
the ory
St and
ce an
relationship s
pl astic
light ing
f ields
L ong
l ie
ph ones
whe el
T S
im prov
slight ly
post s
Ar ab
D i
k ick
prof ile
ap proved
on om
min or
tru cture
ult ure
st ated
clear ly
Ch ampion
appear ance
un ning
Fr anc
pre c
On ly
istr ation
D et
dis covered
r ub
j un
Commit tee
4 2
fore st
upd ated
exc iting
pract ical
fant astic
Amaz on
iso de
sym bol
bl ing
e ating
Of fic
C R
ar row
fru it
i pe
pred ict
pain t
wor ry
set tle
man ner
Se curity
st ances
k id
no on
dou b
v ation
famil iar
cl imate
int ended
Wednes day
T our
sh ire
N E
specific ally
lay er
bed room
afford able
register ed
reci pe
M O
bo at
reli able
H en
employ ment
bl ed
pres er
poss ess
pers pect
cl im
appoint ed
D en
t ure
dis ci
Fo od
tom s
H O
S O
aspect s
sk y
B rown
com plain
bath room
l as
f le
she et
sus p
re moved
P res
bl es
at re
k es
il ed
circ um
cre te
Min ister
up s
M L
out put
respons ibility
As ia
bro ther
wind ows
Lou is
fic ient
Ke ep
al y
though ts
determin ed
Wor d
ac id
Fam ily
v ary
N O
if ts
absol utely
L im
N av
R os
su gar
aw esome
provid er
autom atically
ir on
e ast
le ague
ack s
P R
act ing
br ings
ick en
Jour nal
Chic ago
ar ms
T est
al le
Rev iew
lead s
claim ed
li qu
Vir gin
Cong ress
strateg ies
acc ident
launch ed
gu ess
K ar
would n
ic ans
in i
h an
t ank
wh om
et te
H or
I re
w is
D ou
et ic
Span ish
sk i
Thom as
res ol
cur ren
know s
ur ban
inst ance
see k
ic ts
ro b
Fo ot
Franc is
199 8
chann el
in fl
hab it
con fl
ify ing
ship ping
eval u
v ote
r iver
d ers
pro ceed
nut r
pro p
mo de
St art
ac compl
poss ibly
issu ed
hold ing
D ig
second s
r ics
cr af
as p
o bl
S and
T im
F lo
t ons
libr ary
trad ing
cl oud
inter ior
histor ical
p in
prom ote
i j
co hol
hon est
stru gg
s ides
S a
you th
enc ing
Cent re
sur vey
enh ance
h es
m ut
di am
in put
augh t
te ch
ident ified
techn ologies
G al
un iversity
rout e
d ump
mot iv
T A
M ont
administr ation
W omen
ac counts
er gy
ition ally
Vict or
Micro soft
sp here
meas ures
m ale
deb t
hous ing
pur poses
l unch
B M
dep th
prote in
b io
deliver ed
int ell
rap id
col ate
redu ced
Le ad
fact or
D C
kill ed
Techn ology
ext ensive
L and
Russ ia
comm itted
gu itar
discuss ion
en a
batter y
car bon
pro posed
jo int
B or
or ation
Ar ts
it a
to x
mark s
girl s
pur su
con ver
relig ious
feed back
S qu
remain ing
f if
Re cor
conf idence
good s
sw im
partners hip
ingred ients
ol es
me al
exam ples
el ine
ag ent
d ivid
p itch
Academ y
fortun ately
a is
put ting
ther apy
Ar my
miss ing
ask ing
bus y
feature d
C re
play s
s ac
I F
anim al
we ak
i age
He ad
U l
p y
educ ational
watch ing
engine ering
Th ose
Tr ain
s ight
Ser ies
four th
tick ets
appoint ment
paren t
innov ative
Div ision
A ud
as tructure
re strict
King dom
sh ut
cr im
pr ison
us her
fix ed
gu ard
un ivers
sam ple
lov ely
park ing
cons ci
act or
V iew
ex pl
datab ase
nor m
B ir
M ob
expert ise
ad or
carr ied
An t
I ll
list en
L ev
fem ale
too th
phil os
str ain
p ull
re put
6 7
D u
L t
ial ly
lab el
flow ers
brand s
ip ping
ol a
Par is
r um
opin ion
ens ions
i i
call ing
distribut ion
ig an
T R
And roid
Y O
de als
up per
s or
S U
del icious
occas ion
z en
leg isl
5 2
f ell
O k
conf ident
t ight
J ud
C ert
K en
ar ts
te a
p ump
uc lear
Do es
her o
M ach
d ent
g ate
im proved
g ro
res olution
an cient
Ire land
t ro
am ed
c ular
purch ased
sub mit
199 7
9 7
encour age
G O
pro pos
att or
Rich ard
any where
t ough
v a
P ac
k it
effect ively
F ig
visit ing
el imin
s an
s aving
W in
surround ing
i at
0 1
ad ults
accur ate
cont ext
Mex ico
emer gency
cho ices
il it
Pl us
advert ising
and a
M ax
cl es
Med ical
not ed
app ing
scient ific
bel ong
h all
2 nd
T re
compet itive
D O
particip ants
origin ally
and om
ch ampion
fe ction
f aster
st ret
dis count
ans w
se cut
E U
provid ers
U sing
per man
Cont act
ed y
sil ver
Spr ing
um ber
dog s
writ ers
b arr
pl anned
support ing
dete ct
com plic
N OT
E conom
compreh ensive
gu ys
ter ed
Ital y
G B
cut ting
our selves
d ang
significant ly
en able
v s
out s
er g
dest roy
pl ates
ra ise
C ast
ad opt
ser t
he aring
L ibr
s che
C op
Nor thern
Sc ot
pay ing
6 8
h arm
valu able
4 1
m ur
accept ed
z o
Char les
D S
199 6
wall s
L iving
M ur
comm ission
stud io
d ating
read ers
4 3
Med ia
um s
train ed
Se a
H T
ext ended
t ast
interest s
w estern
refer red
cho sen
restaur ants
ind ing
L ar
prem ium
re placement
sol ar
sub sequ
inst ant
con sequ
su res
ik ing
re vol
oper ate
elect ronic
affect ed
ch ief
char ged
ut ch
K o
P op
v as
ap os
c ake
resour ce
re tain
ult ural
sur gery
fail ed
ca uses
clin ical
r ig
Sh op
tot ally
spe aking
effic iency
setting s
great est
publ ish
emp has
n ine
T wit
frequ ently
J im
organ ic
20 20
consu mer
t es
H S
s au
employ ee
guarant ee
arr ived
Hum an
p ure
reg ional
char ges
B ow
al leg
ch at
ne ck
J ul
B lo
li ament
br id
min ister
b rown
H un
ne got
dec ades
z one
ind u
re placed
St at
rel atively
sign al
bring ing
S ar
st ars
Twit ter
Con ne
tre ated
oun der
ell a
fail ure
As s
dist inct
the sis
at mo
mus ical
est yle
success fully
el ines
agre ed
month ly
the tic
B ul
In vest
5 7
con fir
see king
ep isode
G ame
main ly
grow n
h ire
we ap
b order
miss ed
al g
E p
G reek
U s
B i
sty les
20 th
P rem
b read
Pro te
W ay
consum ers
k in
Hot el
F ore
In stead
0 4
regular ly
C at
H aw
p atch
Is lam
warr ant
manufact uring
belie f
re place
sal t
f ellow
bro ken
ed ition
og a
au th
contem porary
Ho sp
re mo
but ter
tr ick
des ire
show er
Glo bal
B ab
al and
suppl ies
dr ivers
S ign
s can
H and
e per
disci pl
sign s
ed itor
Ad v
G all
set t
official s
you t
Tr ust
pos ite
p il
hy dro
c m
conven ient
fac ing
H P
qu iet
Cath olic
gover n
coun ting
al cohol
bo ards
ab led
st re
r ation
upd ates
c oup
sp aces
z il
be gins
M ountain
9 8
cre w
B ob
r ug
S ports
M os
bo ost
lic ense
reason able
know ing
Cor por
F estival
u a
5 6
pr in
az z
199 5
b asket
announ ce
inv ent
feel s
p hase
hold ers
al og
3 D
hundred s
sit ting
er ation
app s
doub t
cu it
Con ference
Au to
n one
reco very
5 8
c able
instruct ions
af fil
ro ot
seem ed
Net work
commit ment
proced ure
s ister
man ual
Ro om
serv ation
n ative
re venue
in corpor
qual ified
G ames
Mid dle
F C
id den
equ al
ex ternal
igh ter
particip ate
commun ications
We ek
gre es
infr astructure
suf ficient
B O
b ike
neighbor hood
br ush
There fore
archite ct
be ar
let ters
c ot
er ed
Amer icans
ex cess
II I
B on
cep ts
mil k
O p
P enn
lic ens
F ull
serv es
kind s
conduct ed
execut ive
Mart in
y o
de but
rece iving
symp toms
Lt d
air craft
tw ice
s izes
t ub
instit utions
T able
V ide
cook ing
A sh
H a
Au thor
el ig
crit ic
D id
Des pite
appreci ate
sub stant
t ables
ip ped
ag ram
ac he
t aught
me at
miss ions
t il
break fast
ter r
ans ion
ur ally
ak ed
Ge org
ch er
top ics
C ross
recogn ized
Angel es
und ers
food s
estim ated
Ac cess
d ates
re cru
os ing
T E
Ch ief
cap able
Cont rol
O s
g al
organ ized
task s
Ab out
de ck
after noon
reg ul
A G
rent al
d ur
m useum
fl ag
ens ity
vic tim
he ight
g reg
perfect ly
F air
S ometimes
199 4
s in
pol l
share s
pattern s
perspect ive
tell ing
H i
cert ific
bo ys
organ is
L ittle
bu g
tru ck
hol der
Y oun
ib ilities
' ,
div ision
hard ware
prom ise
camp us
r ated
present ation
assess ment
pro spect
ter rit
5 9
def ense
de grees
pro to
re new
invol ve
des er
S earch
mot ion
consider ing
sup ports
co very
Child ren
b ird
access ible
ear ned
host ing
proced ures
hor se
enc oun
pay ments
m g
ord inary
lo go
typ ical
feat uring
sess ions
ell ed
cr ibe
object s
world wide
fil ter
cont est
enter ed
y ellow
struct ures
P ubl
v ital
May be
Bra zil
reg istration
ident ity
gl ad
pre ne
er ies
p p
Je wish
V ery
att emp
Bo ston
H aving
ul ous
EN T
real ize
K ey
C hair
k o
near by
are s
W rit
mess ages
act ed
ol l
C L
sh el
fre edom
f ur
Ze aland
new sp
igr ation
op hy
H on
gu y
T ele
Fin ally
mix ed
press ion
vis ible
H ope
cho colate
vers ions
aw a
R u
Co st
T imes
des cription
consist ent
P ack
p apers
candid ates
spl it
L ink
che ese
spirit ual
F our
u ters
ex po
ad ult
app arent
print ed
gr ap
S I
an x
ar rest
as sets
199 0
up load
Ad ministr
W atch
ap prov
i Phone
f ro
H A
Com mon
integr ated
accom mod
med icine
Sou thern
mark ed
dollar s
or ient
award ed
w al
6 9
P ass
exclus ive
re ar
Libr ary
L oc
r ay
B a
ches ter
Wh ich
st im
attr ibut
wid ely
nam ent
V o
in ations
T reat
ot ic
stret ch
2 50
direct ed
test ed
E li
W alk
controll ed
Foot ball
B ed
protect ed
mach ines
att ended
Se cret
p up
ag encies
sch olar
convers ation
au then
stand s
ag r
hy dr
result ing
improve ment
C ir
peri or
Stud ents
express ion
concer ned
pass eng
mon d
co ordin
abs or
ak s
J un
Q ual
D V
H al
ou red
dr iven
st ations
col l
F all
prim arily
clos ely
De c
bank s
mat ters
ik es
resident ial
Virgin ia
p un
t ut
L ive
r andom
’ .
3 rd
am ing
I de
y an
gre w
st ic
resist ance
de ploy
k ins
tem porary
incred ible
I ran
it age
6 00
K r
win ner
comm only
Co de
mag azine
belie ved
0 5
Co ast
ac le
author ity
coun ty
situ ations
Bu y
entire ly
Or ig
in formed
ret ire
elect ed
dr am
big ger
care fully
sh ar
form al
aware ness
E P
Th us
S ho
g olf
birth day
tee th
remain ed
contr ast
0 8
found ation
Fed eral
7 8
vo cal
v ast
plac ing
Th ough
M D
ag ents
cover ing
res to
virt ual
techn ique
drug s
turn s
J ef
cert ified
gr ass
lo sing
qu ir
constant ly
i ors
Pr iv
b ury
order ed
co al
Ap p
ad apt
P en
d iverse
s ized
w et
tick et
mass ive
Sum mer
For ce
mort gage
B E
pre gn
spe ech
A A
circum stances
m oun
s cript
program me
en em
st able
adv oc
ev ol
AL L
langu ages
cl ar
H app
ic ial
i ated
fac ilit
us age
Man ager
Th ree
fun dam
histor ic
um es
inde x
lo ans
sim pl
perform ing
Sm all
sched uled
inspir ation
Le e
lands cape
emot ional
Po int
f est
the less
% .
5 4
bow l
D I
S l
th read
inter face
st ro
7 2
av en
* *
min i
con crete
av a
E gy
l ad
as y
199 3
answ ers
consci ous
r ies
concer n
ester day
gr at
199 2
Pac ific
Brit ain
norm ally
az y
equip ped
S on
priv acy
bl ess
S af
L earn
invest ors
compon ent
ci ples
wit ness
innov ation
A g
obtain ed
str ing
S wed
M ike
Sp ir
m ous
reg ions
Youn g
con firm
F OR
B I
E qu
mov ies
ag ric
link ed
ct ic
K now
p ill
entertain ment
V ill
ch icken
keep s
Bo x
health care
L og
lux ury
f al
Cur rent
M ult
suggest ed
B ang
le ather
air port
E mp
N S
P ak
bod ies
expect ations
Hist or
reve aled
ch art
candid ate
5 3
offic er
return s
achie ved
St ation
dom estic
O w
sau ce
CE O
C lean
Th er
attach ed
ap artment
C reat
archite cture
ill ed
min ing
T ha
o le
implement ation
clo ser
members hip
track s
ent re
ren der
n uclear
an th
9 6
C ha
net works
fact ory
P L
f as
impress ive
dest ination
ian o
in depend
il st
cons ists
L ine
out standing
meet ings
F ar
Pl ace
Mus lim
ugh t
V E
ir ty
liqu id
N ight
Egy pt
produ cing
Dig ital
ach el
com pr
ack now
sup posed
19 60
del ay
b one
reg ulations
citiz ens
flo od
e leg
D ie
ex ceed
beha vi
research ers
rem ote
st ance
un able
Jer sey
S ite
def ault
manufactur er
D ar
R am
im ents
Mob ile
ph y
recor ding
A wards
fl ash
f ishing
t ack
stop ped
end ar
thor ough
brow ser
collect ed
ath let
m akers
En ergy
mun icip
graph ics
199 1
B ible
program ming
par am
hon or
co in
m ad
bir ds
suc ceed
pick ed
ca ught
fact ion
at om
high light
m ac
l ies
ge o
trans ition
incre ases
br a
tell s
0 3
Be aut
am oun
S C
P ad
p od
function al
ph arm
Lat in
Com mer
Ap plic
trad ition
comp at
sho es
search ing
w ave
Co ok
represent ed
m ph
fig ures
U r
dr ain
we aring
comp ens
bre ath
0 2
ind er
H im
design er
atmo sphere
pass ing
? "
cre ates
R ail
challeng ing
H om
col on
en de
person ally
bag s
tren d
h ill
Hen ry
ex tr
Tr an
every day
M u
clud ed
elect rical
Ex ecut
Carol ina
O x
cr ash
them at
del ight
ris ks
so il
Sup port
5 1
S pain
Que en
trou ble
it z
Follow ing
vict ory
li ber
attack s
collabor ation
vis ited
tem plate
H ard
marr iage
18 8
b id
em br
commit tee
gener ate
flex ible
lif estyle
imag ine
bre aking
Tr ad
m ile
we et
fight ing
su d
1 20
… .
y ards
t all
ho le
Lo cal
0 7
c ow
e en
ve ter
clo ck
Ex am
capt ure
E le
L ow
not iced
expo sure
it is
tur ning
sou thern
explain ed
R ight
l ists
dut y
B all
S anta
sco red
cer em
Ne ver
w an
eng age
Oh io
Ear ly
L ED
ip al
is ol
Jack son
W inter
dang erous
bon us
Mem bers
for th
6 3
poss ibility
lar g
offic ers
G A
th in
st al
ou l
cr ime
fin ance
trans form
head s
h r
ac ing
sav ings
draw n
r if
sever e
Sp ace
cris is
confl ict
h ers
u zz
just ice
iven ess
auth ors
in fect
dynam ic
gar age
O K
plan e
Eas tern
g od
P N
198 9
aud i
ian a
got ten
W A
differ ences
surpr ise
monitor ing
i ety
ang le
sol ve
Build ing
i ro
t ics
guid ance
inter pret
M C
v end
be er
tr ay
Vide o
cho osing
invest igation
Ste ve
cru cial
ing u
po et
d ia
Ass ist
v ul
sho ck
discuss ed
confir med
top s
i ary
ber ry
p ip
contain ing
co ck
ol s
R ay
t u
j ump
Dan iel
0 9
D E
T ry
6 2
Pol ice
S uch
con vent
Rad io
draw ing
up coming
amp s
Ir ish
sou l
re presents
en thus
Jose ph
or row
strateg ic
st unning
fair ly
m l
et ime
gener ated
o ven
Ph ys
favour ite
19 th
sp ons
photo graphy
nor thern
Jo e
Look ing
1 000
Mich igan
sp in
sud den
off ices
remo val
g ers
se ats
road s
ext ension
and on
Mod ern
along side
G irl
Com ple
g ifts
or a
as ide
fil ed
v ibr
plan et
John son
ific ations
S ir
re ward
ch a
s op
em ber
aw ards
mom ents
M as
h at
transport ation
4 th
exper iment
L as
k i
improv ing
PD F
n arrow
P O
advent ure
perman ent
Hosp ital
in ches
bo ot
Fil m
s ad
an i
clo thes
M ir
print ing
En joy
Res er
sus pect
ro se
prom pt
crim inal
M un
c odes
f estival
mo ist
r ice
cut e
p ha
c ue
j a
Re port
en force
W ild
ge ar
For m
htt ps
pow der
c od
celebr ate
int age
qu ote
introdu ction
des cribe
b at
un ion
as sum
s lot
se ed
dis put
al i
def end
d ust
wor se
ren ce
E E
6 1
fill ing
am ber
Person al
coun cil
rel ations
And rew
redu ction
tal ent
Un fortunately
sustain able
J ones
L i
n om
sh ots
System s
pe p
week ly
f its
ac cor
sh ift
ultim ately
the ast
ion e
t ap
con clus
entre prene
f ounder
fit ness
manufactur ers
T it
fol k
on going
employ ed
T each
act ors
new ly
orge ous
G arden
jo ining
im possible
curren cy
second ary
clo sure
hum ans
author ities
power ed
Color ado
n arr
al es
appe al
eng agement
match es
no ise
ak a
tran sp
ar my
reput ation
gr ab
inde ed
des ired
plat forms
ing ly
E X
og ue
S aint
ou ter
S em
am b
manag ing
ple ased
sing er
vac ation
Ho ly
inv ited
tren ds
C B
defin ition
Wel come
d ental
r ie
approv al
Pak istan
follow s
fol io
William s
ca using
respect ively
ro les
t um
cr ack
B ol
po ker
larg ely
liter ature
am m
gg ing
H R
C ivil
contain ed
A gain
C ro
198 0
happen ing
sto red
R est
S our
ade qu
exp ansion
fir ms
le te
E s
gall ery
ag ues
l u
n ights
ans as
umn i
equ ival
contribut e
n ie
industr ies
rel ief
Se lect
R ose
ian g
prepar ation
En d
box es
RE E
Sh ould
ho ok
t ip
t iny
is to
ie ve
ben ch
T urn
ut ional
St one
A gre
immed iate
in ent
T ax
oper ated
w ick
exp enses
prov en
L y
l on
comp ut
mag n
viol ence
7 9
cr ush
c rop
su perior
flow er
Georg ia
Add itionally
view ed
ell er
report ing
youn ger
comp are
pl ed
develop ers
speak er
categ ories
En vironment
arr ay
l an
l ined
el lect
initial ly
Spir it
l ake
sur ance
B ath
ph r
pen al
Sk y
ter ror
ut ter
br anch
ob served
em a
Francis co
arr ive
amoun ts
Me an
redu cing
recogn ition
ato es
D un
prin ciples
host ed
re fr
mix ture
se ctions
Be ing
No v
gr av
F und
less ons
recogn ize
or ith
clo thing
198 8
ant icip
Bro ok
N C
As ian
inc ident
dec ade
sh ell
list ening
Y et
increasing ly
comp ass
Engine ering
mo le
V i
Col umb
lik ed
F arm
M ah
st ers
deal ing
je ction
k il
cho se
ke ys
G E
Ob ama
mur der
zer o
iz er
suggest s
Tur key
et ers
chann els
ch apter
ind o
fac ed
compar ison
c ure
p as
mer ch
eng aged
treat ments
ard ens
produ cer
] .
t ex
depend s
A B
Pr act
percent age
( )
Recor ds
roll ing
Olymp ic
ha z
Te ch
In de
fac ulty
sc ope
bott le
w ich
vent ure
polit ics
ent it
7 6
gl ing
manag ers
sh irt
rel ative
h idden
hand ling
P age
if ies
ap ore
ill iant
K ent
' .
elig ible
Cus tom
re action
ac cus
lat ter
il der
Are a
ur a
ext ent
when ever
sche me
ad ium
applic able
tax es
l augh
al a
as tr
connect ions
h ate
( "
M att
Gu ide
avail ability
real ized
Scot land
un i
ul pt
198 6
construct ed
Pro per
m ary
Air port
attor ney
ul f
ens us
frequ ency
Sm art
V ER
F O
Cr u
R un
St ill
Sy d
bac ter
as ts
K im
int ent
Rem ember
sam ples
invol ves
0 6
blo cks
B road
n is
b in
Th ink
coun sel
m old
el ly
add s
work shop
dump ster
T ube
lo s
U k
Fin ancial
in tr
trig ger
ac ious
lo ves
Execut ive
attr active
ial s
ad ed
Stud ies
except ion
inj uries
wire less
ill ing
P ut
r aw
E ss
s ail
list ing
sav ed
Train ing
crow d
T ar
associ ation
b ish
ask a
v ess
mag ic
pers ons
P ur
ig en
respon ding
B and
E f
Se ction
f iction
Sil ver
pos ing
sy l
t one
C er
read er
S us
quar ters
I ra
ly n
control s
Al bert
id ers
ul ing
Emp ire
hosp it
shoot ing
n u
k ne
fac ts
sens itive
occur red
fall s
Pr ime
P ot
! "
p ace
rout ine
head ed
en ables
mus cle
serious ly
cap abilities
stor m
Sing apore
C over
express ed
assign ed
adopt ed
M s
satis faction
ultim ate
Fr iend
Tr avel
Qu est
law yer
S D
y esterday
revol ution
For d
sub mitted
exist ence
be th
col og
drop ped
b ars
in f
S her
Pr ice
compl iance
acqu ired
n i
Coun try
gen u
club s
So vi
b ond
D NA
roll ed
S ever
r ia
un a
stat ements
st ake
gain ed
C ub
jud ge
ag en
et ch
lim its
re v
198 5
Happ y
broad cast
scen ar
M B
Syd ney
p to
P RO
le agues
sun g
W ould
Jef f
H arr
Sto re
k no
Kore a
d ess
ne ys
198 4
l ift
dis played
some what
p es
access ories
up grad
special ist
s ick
col umn
stre ets
intell igence
9 2
ivers ary
ar ian
il ly
concer ning
maintain ed
correct ly
res ume
stud ied
ill ness
integr ation
mo du
shap ed
B ase
fol ks
Profess or
hers elf
it i
Ne ed
ur ning
o h
con cepts
A k
grap her
cr iter
int end
DV D
Dis ney
er as
elect ron
guid elines
consider ation
mill ions
recip es
B ell
Don ald
7 4
Web site
accompl ish
M T
re nov
slow ly
se asons
pl ot
mo ves
Profess ional
m aker
s ending
C ome
in cent
cycl ing
van ia
c ers
B ased
ac ed
fr ustr
licens ed
suffer ing
iz z
occur s
divid ed
me als
enter prise
ne ut
pr a
sup plement
An im
eas es
Just ice
P P
vul ner
co gn
modu le
e ed
Columb ia
n est
ven ues
e co
B at
indic ate
he aling
person nel
Sto ck
p ink
basket ball
lik es
Wal es
bl ind
In surance
swim ming
r ush
il a
olog ist
Fo x
Br idge
he ating
v y
pr icing
r ural
por ters
V A
d ies
se ct
ser vers
alg orith
g ap
wh el
el le
Agre ement
public ation
eval uation
R ef
wor st
retire ment
r ick
consum ption
cir cuit
B B
ly wood
Me et
el er
bur gh
j um
leg s
commun icate
g orgeous
she ets
au x
Ira q
re ly
wood en
wid th
sm ile
T ay
prior ity
E ver
Sof tware
St an
s cor
U L
potential ly
re ject
A h
relig ion
continu ing
err ors
m art
ext reme
Per haps
prefer red
N on
scient ists
D er
19 50
b att
j i
comp ress
hot els
et ies
track ing
L earning
pro s
equival ent
ust er
s ink
t ile
ex tract
mon t
Cont in
The atre
cabin et
surpr ised
pleas ure
Secret ary
V iet
m ath
Alex ander
D utch
Ste p
authen tic
frame work
li ver
fl our
ul um
Olymp ics
spo ke
t ab
is ters
worth y
o cean
book ing
ter ior
nat urally
recommend ations
minim al
gr y
am ic
regard less
th y
Market ing
or ter
purch asing
death s
Inst agram
flav or
Ind ustr
ox y
9 3
Book s
P as
Bud d
strugg le
ay a
SE O
ad el
argu ment
u ct
Per form
F ish
spec ified
pain ted
e c
grant ed
w aters
exhib ition
N ur
P E
Am ong
advant ages
luck y
Un ivers
Dr ive
dem ocr
g el
S ong
w ins
str ip
emp ty
c art
comp uters
U t
be half
W i
dis eases
approach es
p ets
house hold
request s
last ing
eng ines
war ning
J ob
port folio
A li
ce iling
in er
ins ight
eleg ant
tr ibut
tw enty
D ue
out comes
b are
par alle
feel ings
to od
on so
is k
198 7
cal endar
Sovi et
necess arily
buy ers
M R
se min
some where
int ellect
op posite
end ment
trans mission
ino is
ann a
sh ad
wh ilst
propos al
speak ers
R od
invol ving
Lab or
ex posed
gr ain
pl ied
K at
carry ing
ens uring
N a
Cl in
u ce
reach ing
rat io
ear s
ann er
ex plan
Res our
Met ro
deb ate
great ly
al umin
entr ance
enn a
197 9
? ”
ex port
ph er
ir ts
de fe
st ery
cent ers
complic ated
un known
Gold en
B attle
C red
im ental
unders tood
subject s
Mot or
Par liament
require ment
tit les
se es
encour aged
hop ing
birth s
t act
ev olution
K ir
be an
cr usher
y r
lo ving
instru ment
Sh ar
bl end
ele v
bor row
Mach ine
pre ced
at ivity
hy po
Ber lin
ve t
B io
198 3
7 3
st ages
ES T
tom orrow
F i
mag net
character istics
Fo rest
trans action
A ust
D R
D ol
V en
in struction
’ ,
" )
B R
pr inter
cook ies
l ish
sh ore
settle ment
aim s
pack ages
f lying
y ers
tour nament
legisl ation
M ade
electric ity
N AS
Fig ure
surpr ising
ut en
convent ional
C ON
l ers
fal se
post ing
Pol it
With out
bl ank
pack ed
ant ib
Sen ior
fif th
car pet
cut s
promot ion
skill ed
Y e
stit ution
official ly
F ac
F REE
cor n
request ed
T enn
ro ots
re mark
la yout
diag ram
per t
liter ally
LL C
sp ark
Corpor ation
over whel
la id
pleas ant
ha ust
Sh ort
am en
A I
Tur k
O ak
m att
W is
autom atic
in her
Gu ard
h u
D og
R ights
D P
su ite
ang el
represent ative
dish es
T am
pass word
repe ated
object ive
B ad
Rep ubl
res ort
belie ves
clo sing
sc ulpt
fundam ental
H ou
K ong
sco res
R on
sh ine
maintain ing
O l
Ill inois
Nat ural
c ro
ground s
C I
low est
mem ories
ad ap
21 st
B it
up grade
assem bly
iv als
St or
a fr
gam ing
Tran sport
R ome
h ub
D am
B es
Con d
L uc
veget ables
P os
ik a
__ __
C lo
d ated
est imate
mis try
har mon
bre ast
assist ant
dem o
7 1
ick s
is a
bas ically
T ot
Sen ate
G ive
bre a
dream s
for um
apply ing
l ens
um a
int on
profess or
9 4
enjoy ing
Ar iz
ific ial
Sal es
class room
set up
Ste el
implement ed
organ isation
d f
co at
al ter
we igh
Med icine
Jo in
col ours
conven ience
anx iety
Pr im
ig ate
drink ing
A venue
except ional
expand ed
Ide as
Qual ity
al o
dr aft
P T
pe ak
ref resh
stat istics
find s
Viet nam
% ,
Im age
philos ophy
br illiant
M ap
S n
198 1
b ay
Pr int
De ath
Cl oud
syl vania
O il
care ful
W H
de posit
g ender
cert ification
E ll
dr ag
et t
newsp aper
entit led
Tor onto
rac ing
sh r
L ind
res idence
scen es
on ic
P ers
fr anch
You Tube
m ers
egg s
E vent
D om
Gall ery
ter y
me ets
g ian
pan els
per mission
M I
T un
8 6
dam aged
= "
F I
An ton
l en
cr azy
scr atch
re in
He art
chair s
incred ibly
pow ers
satisf ied
po cket
per mit
contro vers
strong ly
bl ow
le af
int ention
fun ded
particip ation
9 1
S av
A gr
gen e
Pr om
G reg
sp ots
wor ship
in n
sem i
Squ are
contain er
Further more
out come
d ict
walk ed
Republ ican
W E
g iant
dem ands
Penn sylvania
t issue
Min istry
cl ip
li ability
le ver
O t
to s
ab use
az e
end ers
person ality
198 2
YO U
spe ction
criter ia
med al
N ick
iss ions
weap ons
address es
obl ig
respect ive
bro ke
C ry
suggest ions
p it
D ream
G or
ch ances
s ought
ch r
d ad
ach es
L ater
suppl iers
gy m
ne uro
con vert
man n
acqu is
enter ing
R h
ath y
es h
volunte ers
Victor ia
travel ing
lif etime
Saf ety
Champion ship
tr ips
do ctors
certific ate
Fr ont
comb ine
photograph s
Administr ation
sp an
def ine
ask s
st uck
com position
cur ric
Al li
bour ne
Hel p
h ack
employ er
ex haust
US B
cerem ony
P ict
Scott ish
ut ility
Ad am
check ing
de em
ab ol
ER S
ik i
sens or
al umni
tele phone
territ ory
sol o
H ong
continu ous
rupt ion
ret urning
improve ments
C reek
F T
c cer
function ality
inter action
rank ed
M ount
Cas ino
g s
ag gress
W as
ig ent
elect ions
R og
Ex press
absol ute
perform ances
j ur
du al
m ates
Ma jor
in tim
z ing
M ess
hop es
result ed
Cus tomer
hor iz
D or
ext end
viron ments
study ing
cor d
owners hip
op pon
pr ime
fun ny
trans actions
wor n
holiday s
rang ing
to ile
K itchen
ab andon
base ball
period s
talk s
f ers
es cape
a us
S ound
v ine
uck y
activ ely
suffer ed
B L
Mod el
se as
fr aud
compat ible
5 th
R out
Ariz ona
H u
shar p
D oc
pul led
pil ot
t ill
Pro cess
rapid ly
find ings
M om
less ly
Pr ince
s lo
Atl antic
re y
fore ver
princ ipal
reser ve
h its
Spe c
Arch ite
sex ual
ell ite
bo ss
V ar
benef icial
f are
Br and
album s
ne ither
fin est
accor dance
al ive
concer t
Priv ate
p ine
arr ival
explain s
spr ay
Sy n
H as
G ree
ag u
modif ied
attemp ts
nation ally
accur acy
g on
pres sing
D ark
pr ide
je wel
initi ative
u ous
Pol icy
consult ation
dr ama
mem or
Stand ard
Eli za
O ct
B os
S R
pr ize
m ud
down town
inter active
S ave
mo on
ex ists
lap top
phen omen
N FL
un expected
Ty pe
subsequ ent
C it
flex ibility
temper atures
U C
cot ton
vis ed
Every one
b its
stay ing
Mo on
Sup reme
fing er
bre ed
Democr atic
se gment
special ly
less on
prepar ing
check ed
substant ial
should n
mo od
complet ion
focus es
W ant
n omin
t ape
Je ws
a o
iz za
strong er
alleg ed
Uk rain
sl ip
tag ged
Is lands
B an
loc ate
7 00
A gency
res ent
or ange
! )
cas ual
H an
As sem
fall ing
ed ia
ch ron
res id
thous and
M ix
d in
band s
Sever al
hol es
Tr ack
com posed
us ive
v ard
op posed
contribut ion
m aps
ors es
Comp uter
Phil ipp
every where
design ers
ure au
T alk
dis c
t rem
Pl ant
as set
O L
m i
ind icated
hur t
Cap ital
re fin
author ized
197 6
ha w
On tar
Inter est
J r
respons es
ris ing
lo yal
Pr ior
Sh are
Em ploy
cop ies
8 9
AT ION
dia bet
G ro
a er
n t
cript ions
Tay lor
repair s
instru ments
con version
pt on
en vironments
gh an
J ac
st ir
197 0
situ ated
them es
pray er
assu me
ab il
ers hip
C ut
str ike
distribut ed
t ie
og en
T al
bel t
Stud ent
F ield
pep per
describ es
head ing
Br ian
Av ail
c ater
fit ting
K it
aw n
v intage
E mer
vis its
With in
lo op
Me thod
ins on
transl ation
Vis it
C ase
i ot
administr ative
volunte er
en ess
cred ited
ur er
N iger
prov ision
guarant eed
en o
deliver ing
introdu ce
br an
sold iers
subs id
r ack
r iding
O cean
J am
con ce
heav ily
any way
use t
mountain s
O pt
des tru
comb at
obvious ly
il legal
ap ple
C and
product ive
config uration
al er
Ontar io
D J
cons ent
R s
R yan
ra ising
drink s
v ice
De cor
re med
gr ace
Man chester
Cop y
focus ing
ed it
st ack
gr an
sm ell
tox ic
do s
An th
b aking
adel ph
a es
adequ ate
1 10
der ived
i ac
L yn
x y
leg end
Lim ited
Bo y
enn y
dist ingu
ac ular
sur ve
he im
ot ive
Wor king
ac counting
win ners
proto col
or n
old est
contribut ions
coach ing
Ox ford
cat alog
F ather
20 21
ol id
197 5
compet e
ian ces
lay ers
dr um
Tr ade
my th
ref ers
Je an
S ale
mar ine
Product s
warrant y
ed ited
ma themat
ick et
meas ured
Wor ks
compens ation
u ment
197 8
fr ag
re plic
p ad
capt ured
More over
S ix
of t
Inst all
eng aging
b ills
o od
V I
intellect ual
univers ities
sign ature
elect ro
tre as
demon strate
matt ress
n ations
Eas y
Reg ister
v ous
fl ights
domin ant
co sm
A ge
B BC
em ails
Stud io
instit ution
accommod ation
gent le
connect ing
od d
prof its
Br on
ch ip
form ula
ia h
s ion
W on
Mem ber
z ip
leg it
Phil adelph
Cons ider
Pro du
K ev
U ser
inj ured
Ann ual
pr ints
op position
F R
cast le
| -
Wil son
farm ers
de pression
qu is
Cho ose
S port
Ad vis
R ol
p ig
is ms
Re cent
pass es
Ex cell
se eds
pro hib
g i
ste in
Mr s
resist ant
p ic
di pl
glass es
de feat
mechan ical
re ception
streng then
il er
R us
y oga
B ot
op ens
por ter
o graphy
G P
att ending
Ex peri
reg on
design ated
sequ ence
host s
represent ation
col n
il ton
As k
P ok
essential ly
?? ??
su its
gold en
eas tern
Philadelph ia
with draw
Col lection
sett led
visit or
sto od
commer ce
Every thing
las er
promot ing
m ate
Ed ward
rub ber
flo ors
D ur
J ord
W at
s car
he m
com ed
view ing
ev il
Gu ys
Nav y
M other
W S
r hy
organis ations
am i
ep is
vol t
class ical
us al
AR T
ro yal
your s
it ter
load ed
r ings
mir ror
among st
20 22
U I
ir a
uset ts
E th
celebr ation
negot i
ach usetts
C lear
Hou ston
floor ing
do se
o z
display s
fas cin
cus h
Vill age
ch ronic
ther ap
P sych
Cam bridge
back s
cir cle
p ounds
ju ice
gr ate
T en
con vey
log ical
lo y
ret ired
represent ing
coach es
it ate
hard er
Mass achusetts
con serv
G R
hy per
d iversity
h t
ach ing
197 2
con vin
town s
col leagues
moun ted
st airs
work shops
ap ol
cour ts
mat ic
B ag
Mean while
im plic
T ok
ch ap
princ iple
sop hist
Not es
review ed
Pl at
talk ed
ob serv
object ives
j an
Gl ass
quot es
dur able
consequ ences
fin ishing
prom inent
ac compan
child hood
r ib
u an
collect ions
hang ing
f iber
ur b
8 4
ho c
cent uries
press ed
T ai
equ ally
text ure
rare ly
de eper
Eliza beth
F it
S ab
enforce ment
rel ating
Sci ences
Ch all
un usual
ark s
w art
ist a
T ony
invest ments
Br ad
ib l
at ile
citiz en
amp ions
loc ally
enem y
Beaut iful
W a
med ication
stay ed
to ler
dis covery
Ret rie
ast y
iam i
I ron
c ab
produ ces
st ability
end a
mechan ism
acknow led
K ids
vari able
bal anced
advert is
tut orial
L iber
h oney
% )
197 4
S or
particip ating
has n
dev ot
Au tom
ch est
f u
P u
H ay
ast ro
Assem bly
ann el
Lin coln
8 7
T C
break s
ann iversary
refer ences
8 2
Ve gas
Gover nor
ag ra
bu b
cam eras
recru it
or ous
Dav is
Islam ic
A th
a qu
spo ken
stain less
Bel ow
F IG
priv ile
contract ors
Prem ier
Q L
F E
n ick
deep ly
pat io
arrang ed
regul atory
contr acts
inv as
in fection
oper ational
d il
tra it
od ge
loss es
9 00
en abled
inter n
click ing
Mill er
O regon
campaign s
watch ed
decre ase
act ress
conclus ion
Reg ard
n it
r ust
Lev el
expl oring
cre ativity
Cred it
es is
prom ised
ste am
decl ared
b old
craf ts
L ady
N ations
document ation
em an
emer ging
A z
S L
indo or
tr ib
can cell
polit ician
Die go
m its
park s
H old
t ension
C le
Aust in
Ste phen
l ip
ur t
Ac count
crib ed
copy right
tro ops
F er
direct ions
the atre
b omb
acc um
afr aid
reser ved
be c
az a
h en
bed s
br on
invent ory
t ired
sign als
fle et
bank ing
apparent ly
8 3
comple ment
S M
appl ies
d iction
product ivity
pack aging
evalu ate
whe els
mer ely
imm une
are t
ab road
197 7
M iami
P od
ul ating
rop ical
mor al
pre ad
re form
j et
j ar
t ube
don es
!! !!
consist ently
Car l
ab und
Th ird
L ib
develop er
acqu ire
util ize
Har ry
Sim ply
st ones
po ver
att itude
Min nes
sent ence
transfer red
bre w
un certain
contribut ed
k g
A ction
tr im
ar c
publ ishing
D aily
any more
port able
de fect
oun ce
few er
in spect
In dones
ax y
municip al
U P
Ne ther
g ue
move ments
concent ration
ᄋ ᅵ
E ric
graph ical
t ours
f itted
indic ates
19 20
Offic er
it able
reve al
st s
Per fect
int ense
Sim ilar
decl ine
G ra
n an
leg es
L ic
de fic
div or
tit led
represent atives
3 50
Po ly
gre y
S W
music ians
v on
sm ith
church es
surv ive
pre v
18 0
r ied
lo b
su red
bed rooms
Cons ult
N ob
where as
Elect ric
cook ed
kno ck
c ats
N umber
ol ars
en sures
incorpor ated
Pre vious
Kev in
Man ufact
v oc
quant ity
in ity
prov ince
Co ol
Atl anta
Part ners
encoun ter
R a
initi atives
cal m
lock ed
Kore an
Word Press
Haw ai
behavi our
if ier
Indian a
T ro
str ange
oxy gen
Minnes ota
want ing
acc eler
W ars
re tr
ball s
independ ence
i y
frequ ent
enh anced
desk top
can n
mar gin
om er
sw ing
Fe b
design ing
Al ong
aim ed
Sam sung
gen etic
197 3
govern ments
onso red
D y
Christ ians
p df
Con struction
attr act
put s
sof a
H z
P ain
is lands
defe ated
Jord an
w ider
Al tern
kill ing
Mo v
address ed
smo ke
Tr ail
special ists
r aces
trust ed
point ed
destroy ed
196 8
influ enced
b unch
net working
F M
cool ing
equ ity
Rep air
g gling
Un like
target ed
19 30
refr iger
des c
Mal ays
all as
passion ate
mo date
color ing
her itage
E state
F ile
popular ity
met ers
L es
buy er
H ER
comp act
arr ange
St ory
Mem orial
em on
ref uge
accom modate
Sol utions
arrang ement
ac o
J on
T an
c ott
ed ges
sell er
surround ed
genu ine
important ly
saf ely
Current ly
M aterial
N ame
ict ed
achel or
F ast
v acc
re cept
Le wis
il ation
Hol lywood
p our
suppl ied
g ical
ar bit
U M
Prote ction
6 th
A ff
engine er
ar ter
Qu ick
curric ulum
resol ve
ud es
Mex ican
w ake
tal ented
land ing
employ ers
Des cription
Lar ge
se am
sp el
K ind
i OS
in hib
exam ination
oper ates
h iring
cop per
process ed
P it
per ce
ult ane
diffic ulty
L angu
ar med
wr ap
d or
An aly
s tom
el der
Pr ize
gener ic
Reg ional
elimin ate
back up
Pr in
cast ing
passeng ers
Avail able
196 9
le mon
no se
z ed
un iverse
pr on
m u
be ans
C arr
s oup
sh ed
re fund
manufact ured
arrang ements
T X
Ser ver
H E
d ensity
sur ge
ious ly
198 0s
hun ting
Se ason
bur ning
shap es
E st
w aves
com edy
ut ed
K E
ins ights
reg ulation
high lights
d ale
wash ing
G row
p ipe
AC T
Cor n
dr ives
load s
har vest
st ig
tw ist
if ting
ag ers
special ized
bro thers
P y
Af ghan
Ber n
gradu ated
Mat the
ic ide
feed ing
ond a
F S
se cur
f ib
ed iting
dut ies
Ch ange
Ch apter
char ity
inter views
sor ry
Spe ed
C ra
rough ly
cont ents
Com pan
carr ier
de cent
sec ured
H op
tar gets
co s
ades h
Nether lands
88 8
j ac
form ing
Rev olution
ag a
at i
ad mit
sing ing
smart phone
emot ions
dam ages
ag an
-- --
cor responding
P or
chemical s
Ch ap
Que ens
A part
pro pr
exam ine
lands cap
p iano
car ri
Cre ate
col ored
b age
che aper
M uch
p ix
D ave
epis odes
w ound
Mel bourne
man if
UR L
he t
walk s
sh ade
Mar ia
it ative
T ree
pr iced
discuss ions
C N
sty lish
C ape
h ide
fin ancing
cry pto
vir us
jur is
M ust
H ills
T el
e u
Ex change
P ick
18 th
n ail
gr id
le ep
Adv anced
nut s
oun ge
impress ed
dr a
lo ose
h orses
process or
co operation
victim s
c ope
io x
Retrie ved
l oud
scor ing
L an
re ction
vert ical
W r
impress ion
tem plates
flu id
d ough
il and
suppl ier
eth nic
Le on
sub stance
opin ions
direct ory
param eters
crip ts
virt ually
Fore ign
N ic
j er
y ield
accept able
Prov ince
B run
H ur
tour ist
8 1
ex terior
should er
spons or
sudden ly
M M
d d
AP I
K u
19 40
ful fill
mist akes
P a
in ery
work place
ab ling
orient ed
re ply
Ind ustry
G un
trad em
work er
Pal est
diagno sis
F ive
table t
direct ors
bo o
Lo ck
igr ants
oil s
k ers
ish es
B row
Applic ation
ab r
Lin ux
mus cles
inv ite
O P
pursu e
re moving
al ysis
197 1
acquis ition
D iam
And re
wer en
wonder ing
Sar ah
B ush
You th
To y
Bab y
ag greg
coup on
r ix
cons olid
C abin
S ac
199 0s
cas ts
grate ful
in spection
om s
painting s
P aper
mist ake
th ir
Gr ant
Sour ce
re cover
pract ition
abs ence
arrest ed
C ell
art ificial
F inal
exp ense
conver ted
B urn
Ro y
d an
match ing
clo th
jun ction
art istic
F le
Ar th
V ers
tow er
tain s
str act
estim ates
emphas is
K ansas
o ke
engine ers
b inding
Reg ulations
invest ing
demonstr ated
go v
nutr ition
D if
stru ggling
subsequ ently
Rep resent
Stud y
Ef fect
U E
m ount
ac les
Se attle
Col l
Mag azine
In nov
former ly
squ ad
s que
rele ases
1 30
M ind
poss ibilities
sat ellite
se ctors
h ou
cor respond
else where
ro d
if i
br ick
bl ast
over come
clud es
3 60
igh th
Up on
nur sing
E ag
o ret
neigh b
bro ker
d ash
develop ments
log ic
in os
er als
im per
sp ell
att ain
neut ral
Fr an
bacter ia
ber ries
R ound
sing les
ist ical
Mil itary
in th
min istry
cons in
fr ames
particip ated
C li
Sim on
pl ing
s lots
tr ash
Bes ides
re verse
L am
sure ly
spect acular
J ane
N az
gener ations
repe at
Cast le
Ar gent
R ain
196 7
ican ts
F a
est one
S el
franch ise
dis k
h ence
un like
contract or
F urn
load ing
T ext
fab ulous
V ice
H art
om ed
law yers
hear ts
athlet es
B ody
M and
Am endment
h ired
bul k
Econom ic
Environment al
b ark
S hel
AT E
short ly
wis dom
agre ements
efficient ly
back ed
roll er
jewel ry
re p
experi encing
diam eter
T ER
ad ing
i Pad
st amp
St ay
comple ting
rob ust
enthus ias
Proper ty
em bed
' :
dis order
uni form
C rit
D ub
S elf
dram atic
rout es
es y
In tegr
rom antic
Wis consin
ie val
ann y
fru its
hand ed
Gree ce
en or
Industr ial
ro it
let ting
sim ultane
Author ity
S cre
He y
olog ists
gather ing
stop s
gu ided
pick ing
remark able
G a
s i
cl ude
air y
R S
Mo ve
L D
resto re
L ux
Mary land
C V
ten nis
sp onsored
celebr ated
agric ultural
P ier
flow s
sl ide
facilit ate
au g
hand y
De ad
t ender
Or ange
K a
F ab
Bu ff
D allas
oper ator
con v
Reg ion
Swed en
& #
cult iv
ant e
m igration
hoc key
N ut
p uzz
Inter ior
r ival
ath ers
prote ins
can cel
glo be
se al
establish ment
S ide
' '
ch ips
vers us
cap ability
Turk ish
pro xim
sign ing
T w
re hab
termin al
S top
m ouse
l amp
answer ed
ile y
trial s
dis aster
pers ist
compet itors
sophist icated
N ature
W arr
AN Y
B log
A F
tour ism
igen ous
g ardens
j am
are st
restrict ions
de pos
ches tra
Offic ial
P ow
per mitted
qual ify
establish ments
con ut
rail way
bo ats
occasion ally
I mag
Fin ance
th al
Ch annel
Class ic
identify ing
fl aw
meaning ful
appreci ated
o res
es tr
phys ician
P ast
H ous
Col lect
it ting
pa ired
N ev
c ia
on ia
prec ise
B ry
S uc
T ag
ro bot
if ted
model ing
surv ival
C ze
stro ke
expand ing
A w
t ied
co ins
prem ier
craf ted
trans formation
over night
sur faces
Res p
J ay
Ch ang
stru ck
Enter tain
real istic
che f
al arm
No thing
r ons
sleep ing
19 45
accompan ied
ac re
be aring
Do ctor
diabet es
ak h
T i
b und
compl iment
Perform ance
cour age
g ments
( “
blo gg
P ed
st all
check s
pl ies
s ons
ad mitted
Cont ent
un dry
key board
S ure
pres cription
School s
tem ple
iat ric
O M
to ys
fol der
distr icts
alumin um
res ign
vend ors
G as
L iter
Arth ur
ent ity
earning s
f ired
197 0s
K al
d uration
ha i
del ivers
consider able
re str
fo am
effect iveness
ach ed
S H
Ed ition
occas ions
Con tract
struct ural
bar rel
cred its
196 4
G olf
I ce
subs cription
writ es
K n
f el
controll er
G il
Pr inc
ac res
Over all
man ip
over view
196 5
spect rum
rating s
ic ting
S QL
il ty
if er
penal ty
cult ures
dis pos
Conne ct
10 1
Al ways
Tenn es
Jo sh
7 th
V C
e ct
t i
F ix
l ah
im mun
ess ays
custom ized
regard ed
R en
happ iness
vot ed
om ing
rest oration
photo grapher
beautiful ly
N T
pro secut
gover nor
ak i
Dou ble
scenar io
ex it
li est
entreprene ur
inter act
restrict ed
dig est
10 th
thorough ly
inspir ing
M oney
champion ship
preci ous
wild life
IC E
R aj
ple ments
Gr ad
vocal s
tw in
interpret ation
re ck
purch ases
inter actions
AN T
integr ity
che mistry
ref used
ow a
instant ly
advis ed
Experi ence
Un it
( $
hope fully
pregn ancy
char ging
explan ation
art work
bran ches
com mod
Ar k
ck ets
Can cer
t une
int u
exerc ises
B ear
L Y
Comp et
tex ts
M ol
paralle l
d anger
sum mary
c akes
measure ment
p ens
exclus ively
am el
S had
stat ic
deal er
ut ical
oper ators
push ed
not able
assign ment
fo ster
met ro
dis counts
involve ment
every body
kne e
gain s
ma x
La ure
Bre ak
Th ings
gather ed
t el
the ater
E aster
execut ion
rhy th
inter vention
ab o
Agr ic
inv ention
B ish
g ig
u um
con servation
Pat rick
Loc ated
under lying
scr ibe
emot ion
pover ty
sp acious
bu ff
univers al
p ione
occup ied
em bod
Ho st
vot es
trail er
was her
allow een
dim ensions
Cl ark
Tennes see
al pha
c rown
d ot
sh elf
trans mit
G M
lo gy
wish es
B uck
passeng er
st itch
c ub
par ad
smo king
O D
Won der
vibr ant
hospit als
R ap
l av
prov in
pop ulations
prevent ion
Mor ris
Hel lo
el i
J ason
M aking
assu red
l ady
Be y
public ations
vin yl
cy l
gro cer
L ess
Rout e
d well
u th
am pl
Cap tain
sal ad
sn ap
ident ification
US D
bor ough
hab its
entr ies
gu ides
Tha iland
Commer ce
ish ment
Bet ween
g ang
N ik
b atch
prov isions
ON E
relax ing
N ap
p izza
i ology
heav en
IL L
C lar
sol ving
b ull
et ary
Br ing
Tem ple
de leg
tim ely
S i
Cl inton
polit an
ann ually
diam ond
St aff
sol ved
K elly
R ub
gar ian
Writ ing
m ild
inter pre
Ret urn
amen ities
S now
mass age
football er
quir y
196 6
condition ing
sole ly
Orig in
H ad
ur ious
pr iest
Ar m
Sci ent
sto cks
w iring
blog s
Bow l
poet ry
Com b
At tor
end or
phr ase
optim al
so ccer
o y
umb ing
ad minister
t ent
High way
p el
S ud
or ate
Do or
install ing
Jac ob
prom ising
Car ib
All en
r ab
wor ried
N ice
N ep
U D
weap on
c ous
d irt
bo ots
V irt
onom y
Det roit
tra its
rank ing
g au
insp ire
attempt ed
iv a
For um
gun s
Mar ine
announce ment
in ning
st an
own s
redu ces
g ut
jo ys
pro portion
sh irts
mind s
ape ut
fa ult
is cal
protect ing
se cre
rece ip
phys ically
b inary
cont acts
comput ing
g ence
C e
il i
per or
super vis
s q
produ cers
leg acy
al ike
class ified
select ing
Assist ant
Ul tim
deem ed
kn ife
R ick
th ro
document ary
l ace
vulner able
pe er
ke e
Miss ion
G iven
d ys
A then
S mo
Resour ces
g ly
h ob
cru ise
is er
drop s
appl iances
. ;
u gu
list ings
Pe ace
in corporate
beach es
c s
respons ibilities
ren owned
trad itions
l ane
Al ab
wall paper
t ropical
con cluded
Min i
F resh
ut y
Com m
kil omet
opt ional
specific ations
oles ale
personal ized
IS O
affect s
T M
t ire
In tell
but tons
gar lic
B lock
G S
agr aph
ot y
oper ative
tem por
ju ana
O H
bi ological
ad mission
ok ay
re placing
Con vention
p aste
V it
reg ards
Fe el
screen ing
Def ense
8 th
et ics
Ro ber
fast est
K er
re sem
high way
narr ative
B eng
eng er
Hol iday
volt age
A BC
I BM
1960 s
ES S
Add itional
ol ive
king dom
gain ing
P in
neigh bour
fortun ate
C os
met er
sal ary
difficult ies
moist ure
some how
ad option
em issions
D ist
ner vous
reser ves
dr ome
min eral
convers ations
off s
Her itage
ace utical
think s
C ould
P ear
new est
consult ing
stream ing
com ic
pet ition
reg ime
is ine
sch olars
cry stal
Tre as
in ction
Commer cial
comp ound
ug s
R C
il itation
ch or
vot ers
attr actions
Ter ms
Aff airs
ro ast
Plan ning
agric ulture
Comple te
Matthe w
s orts
ath on
S ad
o id
an no
b ie
be ef
A br
C u
part ial
six th
labor atory
excell ence
anth rop
lo d
12 th
extra ordinary
dete ction
p unch
ch lor
iz ations
requ iring
trem end
? !
polit icians
Play er
B T
F al
d rew
ex plic
po ser
V P
ch ant
S ony
follow ers
Del hi
Equ ip
re vers
ton ight
Champion ships
assist ed
line ar
Read ing
ᄒ ᅡ
ck er
jac ent
Nor way
vot ing
S weet
advis e
C ash
l ining
Cert ified
Alli ance
ship ped
De ep
promot ed
B apt
res cue
sp her
Pol and
autom ated
belief s
ar gue
rel ate
gu ilty
char ts
dipl om
r ational
var ied
encour aging
Copy right
est e
S ize
hy brid
Cro at
F low
R ow
hand led
i ere
ar ia
overwhel ming
enjoy able
Entertain ment
W y
Be at
D a
b ones
g em
sh orter
A K
in sert
prom ises
Med ic
def ensive
G ate
em power
col leges
Al aska
post er
test im
Mon th
B arr
D al
D ance
ot ing
jud gment
be gun
ig a
separ ated
gre et
H ub
Anth ony
D omin
D at
pass age
P il
T P
depart ments
G y
h unt
iff s
Carib bean
gl u
ret reat
subs crib
And y
un likely
inv o
ob st
15 th
Kent ucky
our i
comp ly
is ely
Israel i
j azz
dis orders
en ix
ash es
m ere
ch i
ian ts
gener ous
imm igration
m ans
u ate
ug al
Ph D
bur den
ch rom
car ing
hor r
accompl ished
scholar ship
C M
L aur
fascin ating
S ay
med ic
sp are
discipl ine
G h
he ated
qual ities
to y
rece ives
ain e
17 th
Ath let
A pol
c ited
row s
Tot al
Art icle
roll s
imm ers
w ines
ch op
de lete
M ort
fire place
stom ach
so ver
c ig
o ved
elf are
N one
all erg
collect ive
L P
rad iation
Techn ical
different ly
F u
e ve
n g
op y
An alysis
cou ver
accept ance
H alloween
or i
ident ical
Compan ies
partic les
vo id
fan cy
S ug
read s
Alab ama
R and
d ancing
T ell
cy ber
sac rif
Get ting
journal ist
am bit
let on
par liament
anal og
aggress ive
am er
F act
threat s
mix ing
a ire
f ake
valu ed
vit amin
gen re
su ited
so ap
Spr ings
G ulf
I dent
I owa
N ative
trav elling
Phil ip
r us
igh ters
over seas
h ell
int ensity
categ or
W W
f usion
achie ving
pr ises
Br uce
exper imental
ther mal
ph an
grad es
F uture
De b
investig ate
S even
tru cks
Creat ive
Sim ple
limit ations
Sy ria
dig it
accus ed
i juana
care d
S pot
ill er
Commun ications
Swed ish
make up
g ently
cuss ion
hit ting
S cr
ad min
g ross
Of fer
rupt cy
C ele
An na
Chris to
associ ate
exc it
Bir th
N H
reli ability
w age
Reser ve
t ale
don ation
gam bling
carr ies
S wit
t ort
en cry
ig e
calcul ated
Langu age
O C
t an
Mag ic
apart ments
Met al
ab is
ke en
gr ay
To gether
! ”
pregn ant
Pract ice
l ung
Sw iss
exper iments
196 3
Year s
preser ve
J ava
g le
moder ate
T on
gg ed
den ied
Cent ury
batter ies
ain s
off ensive
C ulture
M ars
S ri
inv al
toile t
en abling
Al an
public ly
bas ement
tag s
Philipp ines
Democr ats
out fit
R ent
f ence
pat ent
grad ually
c av
ad jacent
leg ally
law n
cabin ets
. -
chair man
L ot
cr imin
Ex per
spo kes
j aw
prof iles
possess ion
sub tle
An ne
work out
med ications
coast al
W ire
Swit zer
e uro
train s
Pol ish
F ro
And erson
16 th
Den ver
Through out
sp a
Du ke
port ions
Fl ash
A ch
H it
N I
Al f
B ah
m arch
ing er
Van couver
ur u
imp acts
argu ed
respond ed
W ow
liter ary
complain t
r ian
por tray
la undry
L iver
mag ical
vill ages
deser ve
en to
push ing
relax ed
Z o
in ject
head quarters
vers atile
implement ing
complex ity
In side
Ar men
symbol s
N J
in ser
abandon ed
T a
Har vard
el and
e ing
V R
p sy
exhib it
K enn
expl oration
Res ume
scre ens
T ower
en roll
in habit
W ol
el ve
sh ades
organ ize
ane an
str ive
educ ated
signific ance
V eter
ang ers
par agraph
conf used
Switzer land
14 0
Cour se
M organ
Tr ue
hum id
dial ogue
Jo y
stop ping
od ds
tour ists
ll a
found ing
con secut
let te
d ivers
s ne
jun ior
F P
am big
Ch an
haz ard
w ides
be ver
est s
Val ent
Equip ment
S audi
” )
B right
ag enda
reject ed
ab ad
pan ic
Malays ia
end less
pre stig
cou ch
c af
NE W
G ary
do ck
vas cular
G PS
d ings
Fed eration
al t
pack ing
infl ation
pl as
achieve ment
st ere
12 5
bott les
Lab our
ac ter
rad ical
b un
Pal ace
stead y
gr ants
clud ing
A le
op les
struct ured
Suc cess
pur ple
bur ied
shad ow
D ate
knowledge able
M ail
om an
light weight
divor ce
C in
Ph ill
196 2
destru ction
sh am
med iate
offer ings
cret ion
fant asy
contain ers
had n
Sing le
fing ers
L C
B ureau
F red
K ings
m ature
val ley
im a
magnet ic
Co re
measure ments
C ow
president ial
f ought
consist ing
Chair man
F el
collect ing
L ie
h ed
cur ious
obl igation
G C
re cess
s its
Cor p
F ant
p ub
prec isely
apol is
there by
gr inding
motiv ated
A y
meas uring
b is
brow se
nav igate
is ure
Aud io
S ER
psych ological
bab ies
Any one
Alex and
th a
on ing
sand wich
in sect
re call
dr af
util ized
modif y
Apol lo
po le
16 0
Friend s
algorith m
as er
se ating
Jun ior
Res ort
anal ys
U A
Miss ouri
Ur ban
disput e
establ ishing
Univers al
m ask
poll ution
H ans
t ures
my stery
H ugh
N ation
fore cast
To o
form ats
Furn iture
ro cks
co ating
determin ation
N ich
Indones ia
commun ic
How ard
tw elve
Rest aur
Cze ch
t ical
P ER
my ster
cap tain
Of ten
tack le
J ess
des per
adap ted
az ines
ev ident
For mer
isto l
St adium
vari ations
Inde x
comb ines
bron ze
don ations
iter r
ch ed
Be gin
al ia
tim ing
Ant i
ac ids
itar ian
excit ement
N P
b ally
mod ules
harm ful
St yle
claim ing
IT Y
b ite
inst ances
ear liest
icon ic
Ot to
co conut
Organ ization
architect ural
cap s
K ay
cycl es
retail ers
compet ing
execut ed
brea thing
Y u
tr ails
speed s
prec ision
transp arent
Tele vision
horiz ont
H air
simultane ously
ass ault
Cele br
ser ial
dis abled
sho e
susp ension
L T
Man ual
195 8
ir s
excess ive
vess el
pot atoes
wood s
phys ics
Int rodu
ort ion
augh ters
separ ately
IV E
Girl s
dis ability
ens ional
fil ters
aff airs
Miss iss
Con serv
Cr usher
f fer
dead line
Bet ter
Co ach
r ally
Wh it
sk ip
Chall enge
a use
str iking
Wh atever
consult ant
mechan isms
K h
sup porters
electron ics
Tok yo
b ust
lab els
ad m
end ant
satisf y
table ts
altern atives
where ver
run ner
A dr
fro zen
I mp
au ction
L ane
x x
the dr
I E
ens ively
treat ing
um my
reve als
rang es
constit u
Gal axy
wr apped
stay s
entertain ing
t in
plug in
Inde ed
enor mous
novel s
th irty
in ely
ins ist
acc idents
ende av
D ry
M es
R oll
M arr
lo cks
gen es
match ed
or ious
ine vit
vari eties
Let ter
r in
Ukrain e
t ang
gradu ates
we ird
pol ar
nam ents
sustain ability
reflect s
Care er
fall en
plant ed
R ather
Cert ific
Ye ah
Un til
peace ful
re ign
ret ro
C ateg
out doors
tim ore
ob serve
ar ise
diagno sed
consecut ive
9 th
A ut
fil ing
invest ed
bare ly
lah oma
Attor ney
k ed
the oret
comp ounds
Leg al
A ve
bet ting
ben e
forest s
bound aries
P ul
P ath
H ell
Orig inal
ly rics
work force
dro ve
attemp ting
Mult i
j ury
13 th
special ty
c ents
un limited
attend ance
dis cus
assu med
T u
ge omet
vari ables
access ed
C AR
l ord
id al
Char lot
motiv ation
present ations
Sol ar
C old
L ad
Bel g
en joys
ver ify
gener ating
a ired
compass ion
k ar
determin ing
D im
cal ories
audi ences
M atch
al ert
de ar
intell igent
R ace
hard ly
analy ze
r ine
well ness
Pre p
critic ism
r ican
am ine
Med iterr
function ing
isol ated
Ham ilton
in ar
Diam ond
explic it
com poser
cou ples
r uled
oun ced
color ful
D ump
Cor ps
de let
11 th
continu ously
Enter prise
do zen
techn icians
Fre der
Che m
reser vation
transl ated
weak ness
e ager
clin ic
e colog
Afghan istan
c ies
order ing
resol ved
th rown
ca ve
consum ing
F ellow
N um
ony mous
confident ial
confirm ation
f iscal
Res ults
K S
ex ped
Com mand
Part icip
D B
T ick
care ers
Rail way
X X
shel ter
respons ive
man us
Ph arm
stake holders
resto red
propr iet
A ar
bon ds
re actions
corpor ation
dr ied
recommend ation
adjust ed
int ro
progress ive
p ound
s ke
Her o
sens it
vess els
sh ield
Gr an
c um
for cing
news letter
attor neys
R AM
j ail
ac company
str aw
Bal timore
st ell
Mo ore
appear ances
over s
cost ly
C level
cl ay
Ok lahoma
Col omb
Austr ia
In s
enc lo
ret t
ctic ut
legit imate
Anton io
Rus sell
inter nationally
memor able
Ch ile
Conne cticut
Bang l
cross ing
vac uum
De an
distinct ive
Clevel and
K han
document ed
analy tics
) (
Con stitution
techn ological
D ak
r uling
be e
b om
u it
el son
cook ie
Law rence
Pho enix
ag ger
lab our
har sh
G ib
h ills
wides pread
C art
J enn
super b
Port land
Bor n
w ax
av ed
activ ated
terr ible
i ates
R ab
U su
download ed
fl ed
neighb ors
ir rit
val ve
met res
in fin
po em
h iking
He at
back ing
pho sp
ane ous
D ays
U V
prem ises
B un
bi ology
194 8
G T
l ighter
ar n
ol as
Clean ing
Tit le
argu ments
appe aring
util izing
jack et
G ot
p he
Ex pl
Arab ic
tail ored
Dr aw
196 1
R ot
pre ferences
aud it
W O
b icy
RO M
vary ing
flav ors
P urch
nic ely
nav igation
g low
th umb
des ert
path s
an es
qu ery
li x
ci um
where in
m ant
HT ML
evol ved
Niger ia
V ent
emer ged
under ground
mut ual
ex empt
program mes
vo ices
oblig ations
clo set
ord ination
treat s
complain ts
Mediterr anean
sc atter
Tai wan
el ite
music ian
viol ent
Wed ding
prevent ing
per ception
pers u
ref lection
depend ence
autom otive
ic op
ton es
speak s
de ce
vari ation
Re ally
advent ures
cogn itive
p ension
round s
ess ence
rank s
camp ing
Des k
qu it
cl er
cas ter
compr ises
propos als
surv ived
ivid ually
bar a
I B
M eas
lo gin
dress ing
. ).
L ef
195 6
consist ency
conscious ness
cup s
Mos cow
r im
at us
19 00
bor ne
P G
le ak
par ish
lob by
st abil
Add ress
decor ative
Post ed
em ic
vis ions
Pan el
b out
Ind ividual
May or
enthus i
P ink
ay er
In it
ipp i
mar ijuana
convin ced
H ear
z ens
im mer
Ch er
grat ulations
K in
on ts
qu et
M itch
read ily
bug s
Ros s
philos oph
Anim al
market place
Mar g
vi agra
wind s
Dep ending
affil iate
ne at
att an
bish op
p se
os is
con ferences
Ch amber
Up date
libr aries
clos est
Sor ry
addition ally
w y
ign ore
W olf
Im port
Sof t
anticip ated
ste ep
farm ing
Blo od
J en
vol umes
clean er
P H
S cript
ul tra
dest inations
Lu ke
gl as
dynam ics
entreprene urs
qu il
i od
t ier
con front
ir ates
corpor ations
Ed itor
R T
any time
hor ror
Rem ove
Gr ace
conserv ative
apeut ic
main stream
recip ient
k its
long est
syn thetic
lap se
des ir
con strain
F F
en zy
ate ur
some body
cep ting
tank s
Act iv
ac ou
ent ities
incl usion
has h
H IV
r ul
manufact ure
jud ges
Em ail
clim b
E ye
du ctor
D M
r ivers
in cur
med itation
ho o
Fall s
cu isine
coup ons
W IT
build s
lad ies
cur ve
enem ies
Pit ts
te ar
lux urious
le ans
ins ula
14 th
season al
Muslim s
Harr is
clim bing
Bish op
P aren
A do
H onda
embed ded
Bath room
usal em
en rich
195 9
delight ed
R ing
discus sing
V el
es cap
im aging
integr ate
C rown
t at
board ing
Louis iana
I l
con vention
old s
scr ap
grow s
imag ination
ax is
To ol
Gr ay
bre ach
que en
Dis cover
Book mark
celebr ating
manif est
rup ted
V PN
c ules
refer ring
crit ics
br ace
Col on
ash ed
star ter
instruct or
Sus an
ip her
sur gical
Dr agon
194 4
Palest in
d ive
P ages
ac cent
depart ure
f ires
tain ing
r ip
t iles
gram s
mal ink
block ed
U sed
sens ors
L ower
Hom es
Hawai i
N ash
add iction
reach es
mob ility
Jer usalem
asp ir
fail ing
autom ation
195 7
fr ied
br is
protect ive
Frank lin
lo ver
swe ep
municip ality
dim ension
p has
t ong
ur ers
thedr al
M i
Bar cel
n els
ro be
Belg ium
m n
od ies
promot ional
] ,
appl icants
devot ed
Histor ic
T err
n asty
P ap
bo ther
DI Y
l ounge
car to
Cost a
ce ment
Jo h
Y ellow
z an
reflect ed
R V
ap or
bl ade
fl ies
num er
Gr am
P ope
Act ive
nomin ated
N BA
vend or
cou pled
tremend ous
decre ased
Cond ition
port al
B Y
Bit coin
li able
attack ed
acknow ledge
dis cretion
pair s
Liver pool
he al
bet a
hes itate
Meet ing
I an
w ings
decl ined
eli hood
re wards
Gre y
t ends
fr idge
don ated
Usu ally
the ories
magn ific
j unk
arch ae
Fre edom
warm ing
Ele ment
demand ing
! ).
opt ical
count less
mag azines
S end
lo vers
merch and
E V
we ed
re c
IS T
to ss
ful ness
f ails
ind ividually
IT E
nutr ients
C av
F ine
F ashion
on ds
Sur vey
s ive
AS E
el ong
H ind
in trig
bu ck
L ex
decor ating
YO UR
liber al
Toy ota
wh is
part ially
L uck
grocer y
at on
aren cy
dec iding
em ade
democr acy
Ap ply
ch ol
iz able
add le
reg ulated
straight forward
v ig
separ ation
yl on
oppon ent
ct ed
ok ed
Ev ents
Ut ah
p ants
mem br
home work
sol ic
compan ion
Char lie
organ ised
newsp apers
Scre en
n ish
incl usive
conduct ing
Prin cess
T aking
can vas
in et
S cal
T ol
hand les
pool s
Int el
O thers
for gotten
Ap pe
Mississ ippi
res on
Never theless
o val
is an
cush ion
D ick
ab ul
Recent ly
secret ary
appreci ation
independ ently
gr ave
pod cast
pros per
Polit ical
Main e
I sa
qu er
Excell ent
ming ham
Gor don
Bey ond
As sess
present ing
C offee
view ers
center ed
d aughters
show case
el ing
no de
Rel ig
Is su
Mur ray
con sole
con vict
card io
exist ed
ain ts
teach es
Vis ual
Rog er
dis appointed
invest or
ad ays
sp at
down s
A ren
integr al
ox id
ov a
Albert a
Rober ts
n ity
detect ed
cand y
vot er
R ug
ill ance
pain ful
Ed in
them ed
B rew
air line
bene ath
Sa fe
Prim ary
f ut
bel oved
fem in
m igr
min erals
u ing
decor ated
ᅳ ᆯ
inv itation
arr ing
expect ing
bank ruptcy
ap o
194 7
K ur
w n
ch amber
stim ul
C ou
tun nel
ke eper
fe as
collabor ative
bless ed
Y a
net t
foot age
cr imes
eth ical
Dub ai
bas es
In dependent
bo oth
accur ately
S K
che er
attribut es
L or
re cycl
ind irect
commission ed
E A
c ad
hand ful
Bo ys
Ro of
Barcel ona
ow ed
fig ured
hon ored
Christo pher
ch en
sp ouse
rit ual
Up per
r h
home owners
catch ing
ugu ese
At t
Brook lyn
Cra ig
pre ference
chem es
Fil ms
Produ ction
ep ic
ho ly
blo gging
Bar ry
F an
Pal m
Dif fer
under graduate
fun eral
contin ually
anim ation
nation wide
throw ing
domin ated
perce ived
ac on
AS T
gr ip
sub mission
nur se
su icide
Co le
ather ine
bal lo
W ine
o ak
te es
t ires
occup ation
po ison
obtain ing
Christian ity
Way ne
C ars
Al low
Ex p
IN E
del iber
Charlot te
M is
con junction
f i
el ab
appe aling
indic ator
contact ed
conf usion
mes h
dispos al
dev ast
cross ed
iz ers
R NA
ob servation
negoti ations
st adium
us sel
19 39
dy ing
du plic
NO W
pr izes
vol unt
implic ations
. ),
per malink
econom ics
influ ential
ar o
human ity
out ing
not ification
int ake
eas iest
Us ers
Walk er
W I
Z one
ic he
An sw
fl ip
Res ident
ab stract
ded uct
Mun icip
NAS A
con greg
see ks
H ence
b apt
cent res
Co al
sis ters
ol i
remember ed
av y
back yard
tr iang
man ages
bur st
Bir mingham
fo ol
ank a
var ies
bor ders
G DP
c c
int ensive
195 4
dim ensional
aes thetic
Y an
ass ists
Med al
pen et
adjust able
c ence
tom atoes
car go
Stor age
P ep
in no
Out door
tr ace
last ic
at ar
mon etary
B ird
Lead ership
veter an
Ess ential
sup plements
Port uguese
trans formed
Start ing
T ed
qu ire
whe at
viol ation
Base ball
reason ably
194 6
fac ial
highlight ed
Bat man
S ter
friend ship
mind ed
def ence
V in
contribut ing
Ben ef
F DA
iv ic
fo x
mark ing
dress ed
colon ial
batt les
recruit ment
anim ated
book ed
Lu ther
embr ace
ha ul
man ually
neg lect
Brazil ian
ink le
Doc ument
Ado be
mar ble
Min ing
ham mad
ona than
Ad ams
brief ly
prospect s
prospect ive
pl umbing
R io
r ides
ig o
app et
vis ibility
indu ced
ap pre
favor ites
S po
do zens
gh ost
compar able
re cycling
fr agr
att ende
az ing
B achelor
publish er
met als
pack s
Leg isl
A qu
un fortunately
desir able
Gre ater
Tha i
crush ing
Transport ation
A my
K y
e z
is co
ad hes
Republic ans
affect ing
P ic
Can on
G ill
L isa
w elfare
be ars
tr iple
Fin land
Histor ical
G ift
N i
tem pt
Ca fe
tribut e
Ex plo
rece iver
connect s
seem ingly
H V
So on
195 5
elder ly
R F
w rest
vis a
iss ance
ded ication
mach inery
M all
cor ruption
ib li
st ur
me th
Con f
Str ateg
D rop
T ouch
p son
fr act
bus es
ad i
address ing
recogn ised
Gr aph
brand ing
hydro gen
Mov ie
K on
ubl in
194 2
Some thing
in um
flo ating
govern ance
trans it
Ve h
J onathan
M ath
organ izing
G H
en compass
compet itions
flow ing
ht ml
T ow
m int
an gry
and al
div isions
Dou glas
Edin burgh
B ull
ol ia
po o
cus to
support ive
drop ping
juris diction
prestig ious
to k
36 5
Ex cel
Or leans
trad itionally
V ision
ac ute
un necessary
bor ing
enn ial
be ings
part ly
Bar bara
wel coming
affil iated
Gr ade
I O
r ors
sub scribe
re con
ne arest
20 23
off ense
AC K
; &#
H ud
K night
c ort
world s
to ll
Ty p
ne ur
mon o
d iver
stat istical
controvers ial
4 50
ve ctor
Tr ib
Chr ome
past a
execut ives
Fort un
susp ended
R ules
Thanks giving
observ ations
respect ed
not ion
legend ary
G am
F at
col lar
appoint ments
bass ador
Kenn edy
In cre
l est
el lo
fed er
. '
ace ae
Port ugal
Ge o
sil ent
mathemat ics
z ones
gl ory
ro gen
barr iers
sacrif ice
ing e
out let
pe oples
add y
B U
F ul
b ikes
Con temporary
1950 s
in sured
ma id
Fo cus
dr ums
Sch ed
syn drome
C ann
tast y
Mountain s
advoc ate
J azz
mo des
char ming
tun ed
te ars
occur ring
W es
receip t
str ap
Trans fer
mand atory
suggest ion
instit utional
psych ology
ain ed
advis or
crop s
class ification
B asket
N u
am an
In n
influ ences
Virt ual
Gr ound
f lix
no body
Be th
decor ation
Bangl adesh
comb ining
ann ah
be am
AC E
maxim ize
Certific ate
sem ester
not ably
round ed
Co oper
ump s
Sy m
Den mark
Invest ment
char m
ev a
d irty
wel comed
Im ages
C ot
Jud ge
ac cepting
fo ss
10 5
train er
scre w
attr acted
it udes
barr ier
Dy nam
B att
C F
pat ience
pra ise
K ol
f ax
re ll
Y oga
veget able
ag ar
new er
Ar ound
del icate
met abol
CO M
f ighters
Al pha
A V
b ree
ste ering
Vol ume
P I
g ad
ment or
chain s
B h
St ars
infect ions
Q U
le isure
cre atures
achieve ments
mole cular
draw ings
Bas ic
G L
in aug
comp elling
non profit
record ings
S in
S lo
dur ability
K id
ou tr
man ship
cor ners
fin als
broad er
W ik
Sh ipping
clean ed
pul ling
top ped
pay s
grad uation
CB D
J et
br ack
Dr ug
introdu cing
Amaz ing
sert ation
M AN
un ited
bu zz
Direct ors
sn ack
shel ves
renov ation
is ons
pe ers
sub stitute
Similar ly
ach t
Ab d
N elson
pro test
em en
br ass
character ized
minim ize
H amp
swe at
194 3
deploy ed
pip es
is sa
am ins
assem bled
partnership s
gau ge
R idge
cre ational
fre ely
dram atically
B ou
i op
m all
per pet
Sh ip
altern ate
Queens land
don t
finish es
Vo ice
glo bally
illustr ated
inhabit ants
D ublin
n as
est y
Hon or
Medic are
l bs
Thom pson
phenomen on
th res
row ave
surprising ly
b n
cle ver
TH IS
bl ame
rac ial
activ ation
hero es
Ch ampions
pick s
ij ing
g um
profit able
Mad ison
Bar on
suggest ing
cann abis
can o
B ak
or bit
pat ri
Col um
bes ides
be ating
start up
Ap pl
Fe ed
indic ating
Archite ct
ul u
exam s
res il
Mar ie
per mits
te ous
Al bum
Tr ip
ik er
BM W
> >
go ogle
bo asts
proceed ings
Tick ets
er to
res ur
wo re
au f
Sch olar
Archite cture
1 a
A id
N am
maintain s
Common wealth
l ag
omet er
W right
ac ies
ot es
stick s
u ated
circ ulation
Lef t
syn thesis
remind er
val uation
194 1
Cer tain
se gments
For ces
194 9
Any way
occas ional
clar ity
Gra ham
gu ards
fest ivals
D elt
H ung
g ay
position ed
seven th
Cy pr
b il
bo il
195 2
Sam uel
cod ing
draw s
ham mer
an ium
law suit
may or
spec ify
practition ers
dis abilities
Nor we
S ens
ᅳ ᆫ
id y
Me chan
prop ag
ca ution
ster dam
R ene
S ess
r ays
s lim
ail ing
ca fe
health ier
sum mar
Techn ologies
constit utional
Beaut y
character istic
amm ation
Innov ation
C ultural
her bs
Cabin et
N ET
d airy
l id
as c
cell ular
Fr ame
trav els
surve ys
h ike
as i
local s
Buff alo
Tem plate
tradem ark
M ine
P un
com promise
qu art
Corpor ate
D ad
W AR
prof ound
dra ising
horizont al
controll ing
R y
d imin
qu eries
any body
mil it
eth ics
remind ed
Pitts burgh
1 15
A x
A bu
W N
met ric
inform ative
b aked
ed u
ct ive
tal ents
r idge
ne ath
arch y
Nor d
anc ers
Wal ter
Clin ical
am id
id el
med ieval
ener y
car tr
ol ly
Set ting
B N
f ont
r he
magnific ent
st en
Be ijing
Br ig
phys icians
Blue tooth
Sal t
gran ite
l enses
Fr ied
sn acks
dies el
Cry stal
Cli ent
S pect
ro g
sell ers
prior ities
gar bage
Publ ish
p ile
challeng ed
encoun tered
Argent ina
d ip
crim ination
tast es
w ig
Bed room
7 50
F ame
Commun ication
arch ive
deploy ment
F lex
po ckets
str ings
cer amic
Im per
bu ilder
pract icing
ling ton
HER E
a que
et a
US T
hom eless
A U
threat ened
S it
out line
travel ed
profession ally
honest ly
sl ides
tim ber
sto len
adjust ment
t weet
ther apeutic
Just in
Prem ium
ant ly
tax i
Broad way
s cent
st up
need ing
li a
to ck
i h
ill ery
th on
consider ably
Che ap
ibl ical
z i
ou ds
Reg istration
bal con
Applic ations
c ere
connect ivity
Al most
sub stances
algorith ms
c ill
h attan
an ut
ter rain
so d
sport ing
out lets
bus h
dress es
bath rooms
nu cle
R ou
cal c
Intell igence
C ad
mus h
comb inations
195 3
spl ash
D ental
P RE
to bac
ble m
sustain ed
t ens
v d
loyal ty
A ld
C ab
s ake
Le ave
cu its
moment um
P ie
brid ges
Dak ota
j ug
st air
du b
col um
orient ation
trou bles
B ren
Am sterdam
Phil os
bio graphy
t v
ig ue
Pl ans
24 0
Read y
… …
ve gan
h ug
Sou l
L ands
.. ."
bas ics
Park er
fold ing
Mas ters
H C
r amp
mo thers
im posed
Val ue
av an
deal t
Que bec
in fer
sour cing
tax pay
tit ude
. ’
wa ist
associ ations
pup ils
um ping
Or chestra
explo red
launch ing
retain ed
el a
sen iors
fab rics
Nev ada
n als
Max im
light ly
ju ven
intim ate
Ch and
sci ences
Associ ate
transp arency
L if
Victor ian
depos its
Net flix
absor b
Egypt ian
A del
trick s
Treat ment
A Z
de bris
minor ity
l un
Publ ishing
m ice
all ic
lif ting
explain ing
Commission er
p ies
exam ined
custom ize
song writer
L ang
or er
ac ry
distribut e
Rich mond
preser ved
Coll ins
Ste ven
surround ings
DA Y
Jim my
chap ters
perform s
Norwe gian
G ardens
hom emade
P ret
n ell
merchand ise
re bound
te ens
pres um
carri ers
dat as
p g
od or
she ep
journal ists
P i
hop ed
strength s
Jenn ifer
15 00
ou ches
10 2
constit ution
ul ator
nam ely
Det ails
sac red
L S
fr action
Sk in
on ion
key words
mac ro
R ivers
re act
ener g
thod ox
Pat ri
render ed
theoret ical
K am
S ust
anc est
Cru ise
sensit ivity
V ene
st ating
after wards
mem orial
Sep t
dent ist
complic ations
pharm aceutical
sk etch
predict ed
Restaur ant
Th or
Act ually
Man hattan
d iving
em bro
Te a
ID E
n ar
s chemes
exp end
renew able
elev ated
W ard
d ar
des cent
approach ed
particip ant
F ly
on aut
count ies
according ly
Pu erto
" ).
un lock
Ne br
T ren
roof ing
LO VE
A RE
re vised
later al
bul let
strict ly
in expensive
cal cium
por trait
instru mental
thick ness
H ab
succeed ed
amp a
Coun t
lever age
Ark ansas
assign ments
F if
the d
all ies
config ured
Bapt ist
Pres ent
attr action
describ ing
R I
R av
il lo
19 18
Ste wart
Bro thers
run ners
sum mit
Ed ge
Ob ject
en velop
dis closure
ner ve
week ends
encour ages
S pl
b ane
e cho
ant on
dis charge
ard o
land ed
far ms
chr ist
In stit
gl uten
adv ances
Stud ios
Nur sing
enc il
house holds
bub ble
B aker
at ility
se aled
rhyth m
E co
z u
execut e
optim ization
Publ ished
Phys ical
R ud
has sle
imm igrants
dist inction
Pet ers
ot er
Gl en
Play ers
Blo om
Treat ies
P OS
sun ny
P s
do ct
Econom ics
L ith
Mor ning
Academ ic
Mont real
ict ional
N BC
comp aring
param eter
Se an
Arab ia
delay ed
dess ert
Hous ing
qu o
met ic
Y o
reported ly
Delt a
ser y
cin ema
Sum mit
lit igation
l ender
le e
rican e
C ris
war ned
infl ammation
l ately
Mar vel
oppon ents
a a
stream s
consu me
Marg aret
v ens
Ser b
Car ter
nic he
initi ated
hun gry
museum s
Hope fully
M Y
tra uma
St age
hel icop
veter ans
b ach
or th
se ment
ann ers
gl ue
Ear l
Cub a
Quest ion
Nebr aska
threat ening
D ise
plant ing
Camp bell
ow ing
Lo v
rock et
vo y
r ou
Pro gress
lin er
ware house
Pict ures
M ason
ell ers
bad ly
stress ed
s ul
conf ess
Gener ally
Wel sh
withdraw al
re covered
Oper a
pharm acy
N ear
oth y
ID S
quir ies
colum ns
H em
s aves
art ic
intu itive
he ater
ingred ient
membr ane
" |
id i
Gu y
van illa
Resp ons
K ate
R ange
on ions
iv ia
up set
H us
f ighter
en rolled
ad her
ink s
organiz ational
Sy mph
Con su
Ter ry
Hun ter
Pok er
ret ention
enter prises
camp s
prob ability
Imag ine
surv iv
2 20
vent ions
Wind ow
repeated ly
secre ts
ign ored
des criptions
align ment
c ensus
in ated
su ff
rot ation
improv es
legisl ative
pill ow
rid ic
domain s
H az
hum or
Per u
pe ar
dr ill
the ft
Oper ations
re venues
plan es
ar ising
step ped
avo iding
assum ing
cyl inder
I ES
re ver
mo ck
cr ust
Jer ry
Al ice
b ind
target ing
pray ers
calcul ate
prev ents
Wr ite
Fortun ately
Design ed
S leep
to dd
tr i
In cludes
land o
acou stic
attende es
Ch at
Ex tra
sal mon
substant ially
A ber
m ater
o a
al ien
bl ues
Br ain
concent rate
Con gratulations
compet ent
fe ars
An cient
To ols
G ene
ad op
Athen s
cur y
trad es
L en
ress ion
earth qu
u ity
al an
St ream
fl esh
ador able
co ated
Cl imate
assess ed
adjust ments
T ra
div ine
H end
o ch
pres cribed
l akes
pre val
sque e
h int
l b
ist ically
19 38
Est abl
L akes
understand s
Spec ific
ant ique
plic ity
Che f
Bro ther
S om
scient ist
ind ication
Ad vent
cost ume
surve illance
F em
Lo st
v able
sup pose
Fact ory
concer ts
cat aly
ᄃ ᅡ
Ben j
?? ?
CA A
Sen ator
ref use
so o
habit at
proceed s
Loc ation
rad i
Op tim
Sust ain
install ations
der iv
Lar ry
Ther apy
arbit r
mo th
gener ator
Cit iz
Vers ion
Dump ster
Aar on
us able
dry er
circ ular
rel atives
ext ends
Tar get
l ug
с т
and o
upgrad ed
Regard less
por k
tact ics
as ters
im s
NY C
under neath
cris p
athlet ic
in te
Ber ry
element ary
cl ips
cr aw
pre lim
ah am
cir cles
Fac ulty
ul in
hon our
sail ing
But ter
fre el
Po ol
S F
n ails
de put
ind igenous
ok es
Jo int
educ ate
. :
H at
b anned
contin ent
sl iding
P ent
sh ame
prom o
eco system
K az
e ign
it ime
am o
gr ill
ox ide
P le
am ino
court esy
P el
B ing
trans fers
Laur a
L ion
to e
em y
sa ur
mod est
wash ed
Emer gency
F err
fer til
Ju an
War ren
E t
tr as
ang ular
enc od
scenar ios
dis sertation
cred ential
appl iance
smooth ly
tast ing
pip eline
v or
arr iving
burn ed
k iss
Re quest
ma j
t ion
comm ands
Sh ang
Flo or
R acing
h l
m apping
reg ret
relax ation
Gar age
like wise
vi able
Pict ure
W P
promot ions
C ass
K um
ch ic
wo ol
Su ite
Link ed
behavi ors
un ve
quant ities
Ken ya
C ay
a ide
aren a
Eag le
compliment ary
re creational
un ting
sh er
vi ation
Oper ation
discipl inary
quis ite
WIT H
ussel s
V ic
at in
s om
as tern
tr ap
des ires
col lapse
sil k
dark ness
Colum bus
g room
rid ers
secur ities
enthusias m
W R
l enders
CP U
moun ting
as sure
Ex t
Distr ibut
reward ing
tobac co
G D
k not
med ian
Ob vious
oc ity
Exam ples
g ary
io ces
Hal f
for ums
upload ed
b ake
19 14
cont amin
fl oral
mas ters
Sam ple
else a
cool er
L ots
re vel
he y
enc er
Recor d
G on
p ins
Ke ith
Elect ronic
quot ed
prompt ly
abund ance
Go ing
dist ress
K an
af ood
point ing
Sw itch
propriet ary
N AT
ap lo
ev es
ins ulation
trad ers
Lead er
sh i
belong s
qu ad
ie ved
dr agon
Cr im
M AR
� �
tru ct
cheap est
tr action
ass urance
ang les
brow sing
strugg les
T T
confl icts
H ob
ater al
grav ity
D ining
are l
approach ing
concent rated
sha ke
invas ion
mer ged
car b
upgrad es
C elt
comm em
S che
t ails
Pro b
fif teen
B illy
iz ard
ext ending
flav our
Valent ine
don ate
char ter
Or acle
rehab ilitation
V illa
Tr av
quant um
refriger ator
ent ers
sil ence
histor ian
C AD
pursu ing
prohib ited
Benj amin
Dan ish
switch ing
Mad rid
diagno stic
? )
bu cks
assess ments
Al b
IR S
attribut ed
un iqu
not ch
Le ban
gon na
u ments
v ations
em bark
cle ans
sell s
perman ently
Cir cuit
commod ity
the astern
dem ol
f y
not ify
sto ve
M it
X P
ren amed
cas inos
Em peror
F light
saf er
SE C
adapt ation
C em
P interest
l um
the l
ch ill
id ges
Ch i
method ology
Rob in
u ed
refresh ing
Agric ulture
t issues
Mon itor
background s
Origin ally
ph ant
fun draising
sequ ently
195 1
Ma themat
fan try
f ate
un employment
Dep uty
S ie
Str ong
= =
R achel
S id
n od
consist ed
inc idents
S N
TH ER
Design s
Squ ad
Aw esome
al tered
Ne uro
D iet
ind ul
ass ort
enh ancing
M aur
comp iled
dist ant
motor cycle
st ap
should ers
lov ak
tong ue
tom ato
activ ate
AS S
brand ed
Hung ary
V M
com posite
tempor arily
St u
When ever
Sou theast
p ting
mechan ics
for k
un comfortable
str ikes
Mar shall
I g
High er
lock smith
Differ ent
K il
cl uster
W oman
sc ary
kill er
fundam ent
Imper ial
evalu ated
aggreg ate
project ed
br ide
ren al
Par ts
Job s
Lib eral
18 00
attach ment
K i
E ve
S MS
d les
arr ives
promot es
counsel ing
s ends
Bu ilt
wh olesale
Fa ith
st um
thr illed
He aven
Colomb ia
Mitch ell
T ab
Rob inson
) ?
H ack
J ama
applic ant
analy zed
Lind a
b iz
f ier
ad verse
head er
rad ar
wal let
ier ra
surpr ises
1 12
Arch ives
Obvious ly
For mat
jour nals
Other wise
B P
oper a
orig ins
ic ons
Quest ions
mathemat ical
Consu mer
N ar
p est
Cir cle
Or lando
th rew
po ems
jo ints
place holder
L ap
contr ary
or ph
organis ms
cher ry
Tun es
G I
S ah
as ser
ia z
pre view
tor n
here in
Cl ay
pot ato
cre ator
rel ates
qual ification
trad ed
AT A
defin ing
E specially
op ol
Sp a
fat al
am ple
Fe atures
Joh ann
M ack
gre ens
Dr iver
barr ass
In fo
Hun garian
hospit ality
compress ion
art en
pr one
plain t
wealth y
thres hold
co zy
Con stant
grand father
termin ation
Know ledge
distingu ished
ne gl
not ified
iro pract
controvers y
Nut r
p ics
Br is
Var ious
Gro ve
embod iment
in jection
mor ph
cir cul
p ale
ic ular
Ev ans
soon er
sle eve
anch or
dis crimination
develop s
A irl
i aries
pe as
lect ure
Br ussels
authen t
ill ion
me ga
Ch elsea
Ar sen
cond em
Trad itional
Otto man
h ier
omet ime
nur ses
Un less
Be ck
link ing
predict able
M BA
T ap
inter section
uncertain ty
Croat ia
str ips
fort une
infect ed
Song s
c attle
po ke
Trad ing
D ress
r as
cle ared
equ ation
John ny
bi as
qual ifying
" ),
le v
ell i
We ather
Ne il
align ed
Stand ards
jum ping
n ap
de grad
delet ed
r ations
rele asing
Spe aking
Categ ory
E ither
19 36
other apy
Kir k
haw k
un wanted
ten ant
X L
Re ce
Cho ice
Par ad
cock tail
iox id
prelim inary
S car
beat en
refin ed
acknowled ged
it ations
id o
thr itis
mole cules
dis appoint
aut umn
Em ma
L ights
T ip
Al t
review ing
Sha h
treas ure
print able
rein force
D D
puzz le
block ing
Ter rit
switch ed
D IS
it an
analy st
Move ment
super vision
dry ing
administr ator
compr ised
tum or
C ream
iot ics
heim er
myster ious
C AN
by e
Ex hib
Hor se
ambit ious
lack ing
S ax
The ater
fl ush
trans late
Vol unte
Brow se
ifi able
Sug ar
C K
T win
Sn ap
V ac
indic ators
discipl ines
on ed
lim itation
travel ers
auto mobile
pal m
M ak
ch in
ult an
fix tures
comment ary
p c
any on
mat ory
decor ations
C lose
L um
r ag
administer ed
G ard
Alf red
R ule
Associ ates
em barrass
Ch am
T N
North west
upd ating
C row
p ond
ac er
ick ing
dec ay
warm th
Kr ist
breed ing
d ense
sp am
chr ome
grand mother
smart phones
democr atic
F ern
hip s
Gl as
Camp us
phr ases
analys es
sim ulation
view er
D est
m und
s well
Gh ana
L ate
am end
over head
17 0
S AP
v ouch
Health care
compr ising
in quiry
ur ge
Hol land
refuge es
B 2
met rics
Metro politan
search es
necess ity
log istics
Review s
stup id
N ike
so y
Br anch
decl ar
poor ly
Opt ions
ac credited
The ory
He brew
ele vation
perspect ives
can s
less er
ik o
umb ai
inform al
K aren
ar om
19 33
Sup pl
bound ary
Stan ley
C BS
rent als
K no
st iff
co se
ble ed
Ru th
Cr ime
brow s
rom ance
simpl er
on al
pol ished
graph s
D enn
S r
ol o
specific ation
Liber ty
co inc
co ordination
Bl ues
disput es
Al ban
thank ful
ro pe
spons ors
ve gg
min is
remind s
Com put
strugg led
municipal ities
T ips
g ow
em pl
cy clo
face book
La unch
3 000
I o
m um
fe ver
con e
T es
Not ice
am boo
un ity
last ed
t z
No va
R SS
he x
met aph
favor able
u pr
He avy
benef ic
g aps
Mil an
Find ing
satisf ying
consequ ence
revolution ary
int est
ling u
rug by
c ables
t we
iv o
Tr uck
Br istol
ste al
Symph ony
mem o
sold ier
E ld
us a
St ir
M t
comm ander
Iran ian
Chem ical
her b
import ed
Tod d
Th r
Jeff erson
el astic
19 37
ob sess
Tr uth
special izes
Bar n
p ian
sp reading
resp ir
Paren ts
on ies
oc key
De al
de er
invo ice
B our
R isk
S ig
sh ifting
We ight
pick up
Gover n
Sing h
l ending
go spel
Bul gar
vir al
sent ences
agre es
Pay ment
VER Y
im en
os es
ces ter
neighborhood s
Col oring
investig ations
l amps
fin ity
good ness
water proof
provin cial
U RE
re set
am pton
10 4
Ab sol
r outer
custom s
ver ified
mon s
small est
furn ish
b ang
ep id
OR T
respon ds
demonstr ation
ul s
form ally
inv iting
Material s
cl ing
demonstr ates
R ank
Ind ians
mat rix
A er
O liver
in ate
ip edia
del ays
re porter
he ars
ator ies
IN D
bu cket
je ans
Camp aign
ext ensions
ele ven
san ct
R d
T ig
am matory
privile ge
L odge
S au
Bl u
illustr ations
Stat istics
ch ampions
19 29
Event ually
Naz i
Ch en
oc y
vit amins
consu med
abo ard
bro ok
poly mer
territ ories
Element ary
pract ically
histor ically
P hase
el o
Basket ball
A gent
c d
com pos
br ake
spir its
Art ist
Sha kes
estr ian
sun light
protect s
firm ly
w ars
: )
Budd hist
F lat
nam on
Vene z
19 17
Pro to
conf using
Vi enna
youn gest
Photo s
hand made
Austr ian
har ass
licens ing
C anyon
M ills
qual ifications
I cel
b ies
cons ensus
Reg ular
intend o
cancell ed
cor rection
Com ment
k ay
ag ne
count ed
get ic
watch es
Im prove
sched ules
C arm
D ating
d amp
ur ated
Ad vert
US E
S team
X box
ver b
discuss es
Del ivery
Educ ational
b ou
h ung
mal es
Beng al
ex otic
off set
clear ance
Gl ad
Nep al
% ),
to ast
ur gent
Re lease
Mo ving
M umbai
com for
onom ous
: :
con gress
cl ouds
photograph ers
p ads
lect ures
Em ily
merch ant
proxim ity
um atic
os s
bar n
19 19
dial ect
st ip
off line
touch ed
deser ves
sculpt ure
p ts
az ed
enroll ment
M ut
prior it
datab ases
z es
te as
19 35
ath lete
ah u
G i
19 10
Nor man
bes ide
Test ament
tu ition
Icel and
F X
ok ing
cent ric
ext ensively
Pl aces
Fl ag
Resour ce
ab olic
ge bra
12 8
C apt
sour ced
H oney
ter race
ill umin
Ch icken
las ts
Scient ific
phas es
de cess
dis closed
Min im
stor ms
mail ing
trib es
hel met
tow el
mic rowave
pix els
K el
ke ley
Str ate
Airl ines
e ighth
19 27
thr ive
remain der
Park s
Sup ply
ios ity
Ul tra
bill ing
check out
phys i
syn chron
prop he
embro ider
R at
com bo
ense m
innov ations
Os car
L is
min s
submit ting
conv ince
R M
tend ency
iv an
Imp act
Go spel
Compet ition
it ic
ail ed
Custom ers
S old
s lower
w ages
por ch
Ex pert
Ma j
Work shop
Teach ing
incent ives
rank ings
modif ications
or ia
or o
pot s
Del aware
H indu
N intendo
b anner
Ch ad
suspect ed
D ent
l ig
insect s
V IP
w i
re cur
as is
sl ice
Ret ail
sh ifts
ast ics
inv ented
/ .
contr ad
elimin ated
Birth day
con stitute
po on
br ut
dis rupt
pre dominant
OR D
og y
ester ol
custo dy
3 20
о в
har ness
curren cies
Hamp shire
om on
ac a
ver ification
In spir
min es
explo res
grand children
im prison
out lined
12 3
mult ip
Ear lier
recycl ed
F ill
L I
W ing
s ar
se ys
no st
avo ided
cand le
can al
let t
mess aging
subscrib ers
Strate gy
perform ers
mar ry
guarant ees
Rel ated
Wi Fi
Labor atory
m elt
2 10
н а
aplo group
H unt
L ions
Res pon
R an
Co ordin
key word
sk irt
ped ia
Pr ices
R even
Photo graphy
Ok ay
st arring
dis patch
pre decess
abul ary
m b
ip h
rel ay
optim ize
Budd ha
wed dings
19 28
pain ter
sched uling
modif ication
Shang hai
ed a
od a
St ain
lim iting
sh orts
cr icket
Chr on
contact ing
uten ant
L M
pl um
up hol
19 34
log s
6 50
et on
per fection
financial ly
f us
ant ine
B art
per ipher
tour ing
download ing
Mu hammad
analy sts
CO 2
Bris bane
O tt
no ble
Be ha
Mar c
div ide
Sol id
the ning
deal ers
eat en
elimin ating
Teach er
н и
av ia
gl imp
Grad uate
Palestin ian
cons iders
R ice
in correct
fin ances
h ilar
lo os
dec ides
similar ly
sequ ences
hob by
A bo
I X
N an
ens ely
learn ers
infl ammatory
v ance
tr ium
cosm etic
Pier re
Th under
ass ass
War ner
obst acles
Z ero
t ouches
Cam bod
Altern atively
i Tunes
al located
as sert
pe are
Qu ant
fif ty
) )
K ath
for got
Part ner
w and
bo om
Ar n
medic ines
A sp
O z
ci ous
bed ding
far mer
Aren a
Ch art
Pro ceed
spot ted
penal ties
ant ioxid
Qu arter
bund le
es a
ed itors
19 32
line up
research er
consult ants
behavior al
A j
m one
cial is
soci eties
sha ft
certific ates
P ure
h iding
ch t
dis close
Intern al
exc av
lock ing
stress ful
I da
ine f
exc use
T ut
educ ators
W D
ad er
con fin
con spir
iz on
olog ically
in fant
you ts
sp ices
ho e
gg er
Go v
bless ing
cater ing
er on
ab sent
Car bon
P ix
S oph
g ates
30 pm
lim e
glo ves
bud s
Whe el
Wood s
st ing
Cy ber
B ond
( ),
re bel
fat igue
jum ped
Sac ram
trick y
constrain ts
f fin
ou b
du o
build ers
Tour ism
n our
sh y
Re covery
AC H
surv iving
faith ful
anno ying
investig ated
Adr ian
off shore
Aud i
Jul ie
em ia
pur suit
Plat form
invas ive
fel d
f ond
Or ient
Ter min
Har bor
A zer
S ex
ol ine
spe ctor
defin es
sam pling
Organ ic
Common s
aff air
S ounds
s ie
am ateur
sp ine
Pop ular
all iance
we ights
cl ust
assist ing
appropr iately
progress ion
balcon y
the at
ten ants
lay ing
prison ers
ward robe
hard wood
SER V
pro long
She et
argu es
al together
ex empl
Bud get
2 30
inter ventions
Ber keley
Elect ron
cous in
10 8
free ze
belong ing
absor bed
I AL
L ay
W id
aw k
dist ur
evol ving
terror ist
In iti
ang a
categor ized
et ry
product ions
A ur
found ations
E vol
z el
uck er
ski ing
ict ions
remed y
b ai
bo red
ced es
correspond ence
Introdu ction
Shakes peare
B atter
V ista
es cal
tr ibe
ap ples
Wild life
Cem et
K le
Tr i
gover ning
mid st
imag ined
magn itude
U B
id ency
Cemet ery
Con servation
ais er
W ear
m are
ed e
19 22
re creation
Ti bet
j ab
25 th
country side
compl iant
SU V
frustr ating
fore x
bre lla
pass ive
MP 3
n ik
o ids
stud ios
Coun ter
Invest ig
advoc acy
spher ic
bicy cle
g ement
guitar ist
Fish er
Wat son
s cared
re forms
im plant
Ad ded
la very
wr ist
Oak land
Represent atives
T ampa
h p
ant is
need le
Pro test
hor n
vari ant
tur b
Hy dro
ye ah
kid ney
Resident ial
C ards
cur tain
iss an
Cor ner
iv ot
.. ...
p ier
editor ial
Freder ick
R unning
be es
Ver mont
Mos es
S ara
for ty
Ar ctic
harmon y
defect s
bl own
wonder ed
IG HT
coal ition
sover eign
Y S
out look
rig id
Arsen al
l ion
p ending
Gu id
Z en
ph p
Dr ag
Coun sel
Abr aham
trans mitted
Per iod
Explo re
connect or
den y
TH AT
investig ating
G host
P ine
b ast
uk i
L GB
them atic
liter acy
discover ing
po inter
jo ins
research ing
therap ist
abund ant
bu ffer
partic le
IC K
negot iate
not ing
Pl ate
sod ium
ch ick
share holders
quick er
stur dy
J a
sh allow
mon ster
bor o
L anka
R aw
W C
u ber
ach i
Assess ment
col oured
Sy rian
sl ave
mov able
length y
Psych ology
P rest
cre ep
activ ists
lif ted
manus cript
W ag
government al
C ities
10 6
ub a
Ex cept
ted ly
sty ling
extr action
Vit amin
under taken
Com ments
in als
Con feder
never theless
fle w
Venez uel
tre k
witness ed
р а
tr aged
aul ic
S ame
All ah
Cond itions
rust ic
testim ony
access ing
landscap es
Cypr us
cred ible
m itt
et al
D ial
G ent
stat ue
R al
W ang
p ir
administr ators
nav ig
p i
ib les
Wor ds
Stor m
Nash ville
3 d
sun set
spat ial
K O
Bern ard
n odes
ap olog
w au
on i
sc op
Fo ster
diet ary
Mich elle
F est
19 31
mir rors
N CAA
T ask
year ly
list ened
download s
eter nal
colog y
P our
fre ight
comment ed
renew ed
alleged ly
Ad just
Cr ush
Town ship
e book
end ants
well ery
infr ing
nutr itional
l ips
o ly
er ts
real m
Cand id
Bulgar ia
ar thritis
inter mediate
30 th
Program s
Roman ia
HV AC
defend ant
surge on
il ies
ex ports
care s
gall eries
Laure n
H aven
net ic
fail ures
cha os
f s
g om
im plies
ul ative
Com ing
celebr ity
terr ific
Clin ic
u i
w ires
pre cip
Ex po
tal es
80 s
scal es
M az
p H
met allic
role um
comfort ably
advis ory
Wire less
r of
s ometime
fix ing
tour naments
volunt ary
T B
s cripts
vir uses
label ed
LGB T
be ads
pump s
ie ving
pump kin
carto on
foss il
G RE
op ard
appro ve
Pen insula
N ag
s word
im bur
prov ing
pas sport
p ills
mob il
Denn is
dis missed
ging er
absor ption
trigger ed
sp inal
inc in
attribut e
d ign
h atch
sy rup
coordin ator
ha ha
19 25
ement ia
Med ica
Kind le
st akes
position ing
l iv
s ights
over looking
Plan et
Typ ically
H ockey
T ak
sp ite
af ts
CO MP
determin es
am ph
ne e
rel uct
sim plicity
AC C
Harr ison
e quality
ا ل
concent rations
Fore x
Fit ness
Purch ase
go s
pe anut
activ ist
preser vation
Econom y
Der by
le f
io let
Or thodox
posit ory
Install ation
ar us
spr ings
t am
ev ac
Sha w
chol esterol
, ,
inter v
amaz ed
org ans
Look s
diam onds
subsid iary
cush ions
u able
deb ts
Program me
Cert ification
L ag
av id
un ions
can t
Pok emon
sc enery
Sour ces
neighbour hood
dis appeared
fil tr
writ ings
intent ions
Tam il
Jam ie
rib bon
G em
ra ises
hol m
crow ded
pra ised
M N
d un
An gl
Per ry
H ip
cho re
capt uring
config ur
A void
supply ing
seam less
C ed
F av
J ar
P om
Al z
stat s
Min or
Pers ian
she er
appro x
Le ather
calcul ations
N HS
cl am
bo iler
his m
pt ions
mort ality
BB Q
1930 s
reg ener
Un ique
associ ates
O re
S aints
i Pod
Pro p
north west
recip ients
Priv acy
Prom ot
bon uses
C oup
V incent
f iel
l ively
art if
under taking
renew al
ty ping
emer ge
retail er
pun ishment
isol ation
blank et
el ic
A str
m am
n m
qu ilt
F itz
ro ster
, ’
un to
ment ation
special ize
cream y
Na than
ibli ography
W ILL
p ent
bit ter
Out side
T went
en z
St ick
strong est
Mor oc
k el
an onymous
Ca thedral
patch es
S ierra
W OR
ab ortion
techn ician
brea the
Hud son
wau kee
ut ory
19 23
care g
EN D
Mich el
coordin ate
distingu ish
dr illing
se afood
Jo an
Mus ical
lin en
ito l
Kar l
atom ic
astr onom
ver bal
ud ge
Com par
pat ron
UN D
NS W
im o
system atic
ven e
23 3
convict ed
+ +
path way
Bre x
2 25
In struct
sur f
var iants
lik elihood
Mon te
pharm ac
Guard ian
D ow
N Z
Man aging
elect oral
Turn er
E PA
J P
cor ros
switch es
ibl ings
Lux ury
pro tests
Dol lar
protocol s
se wing
under take
vo ir
fold ed
inevit able
con form
ten ure
nat i
Rug by
techn ically
pure ly
defic it
este em
C atherine
L G
19 11
ST EM
anc ies
prompt ed
es ity
and roid
be ats
do i
cur tains
block chain
ok ie
19 12
ek s
real ise
Har vey
fem ales
Polit ics
Glas gow
F ight
e Bay
ex changes
th е
now here
vel ocity
Flo rence
L loy
ic as
if iers
New ton
exhib its
Mur phy
Mult iple
Cru z
k et
an as
for given
contin ental
itch ens
access ibility
bac on
incorpor ating
O m
S olution
a ids
ac ity
fir ing
Mo z
architect s
ac ne
compet ed
Show er
S ant
jo ke
Some one
Jess ica
dis miss
select ions
sent iment
illustr ation
N G
T at
V intage
g us
il ings
Ch ip
Car los
engine ered
optim ized
publish ers
ar is
Bu ilder
ab a
bo ast
y m
wo ven
moist ur
terror ism
Excell ence
feas ible
bel ly
advoc ates
Ven ice
Abo ve
P red
T ul
ist le
ren s
sc roll
origin ated
Comple x
incent ive
st ed
ment ally
comp ilation
sp icy
fo il
pal ace
J acqu
al ion
un clear
Par ish
vis ually
ann on
emp ire
Mag n
M ans
V ik
ov ic
Mont ana
N uclear
ch ess
be it
bl ur
thro at
G oth
K or
… ..
ir i
11 1
Mc C
Analy tics
inser ted
5 000
che t
Special ist
fat ty
, .
H ang
bro kers
collect ively
Ill ustr
y og
cl ause
up un
He ights
prem iere
Ultim ate
Dat ab
le ys
ded u
mal ware
lic ence
Down town
calc ulation
C el
b ureau
com ics
vine gar
W ide
19 21
even ly
cost umes
Pat ients
Azer bai
N R
ul ates
ast ically
environment ally
meant ime
C able
dis pers
sil ly
jud icial
compat ibility
blogg er
T ob
tr apped
Cho colate
Reser ved
Contin ue
f ame
so cks
Un iverse
ultim edia
convenient ly
tub es
ne o
app ar
Con cer
Co x
def ending
boy friend
Luck ily
J ur
Y ard
f ountain
le ap
fl ame
mill s
mind set
inval id
metabol ism
th ood
00 1
mark ers
dam aging
Har mon
Under standing
Four th
N as
re imbur
happ ily
IN C
sle ek
Week ly
coll ision
cancell ation
Sched ule
H L
V as
mp 3
Fran co
S ultan
Ar c
consider ations
render ing
interpre ted
out reach
Ad ult
collabor ate
Mil waukee
pic nic
cott age
pron ounced
persist ent
A IDS
M ull
att itudes
C rew
19 26
ony m
Sur v
s ided
w ilder
ac claimed
ag ic
Comp are
secur ing
gr asp
ign or
air lines
bol t
pro cure
med als
hor mon
OF F
Bon us
Pear l
ioces e
M AT
mid night
nom ination
P HP
ast on
so ever
prof ic
By z
Phys ics
____ ____
can e
In fr
19 24
Mem ory
Hot els
iox ide
ment ed
alleg ations
Advis ory
G ear
N D
R ico
mo s
sing ers
List en
interview ed
inno cent
there of
clear ing
paper work
preced ented
Break fast
G ur
posit ively
Mot ion
F BI
h ort
av iation
ink ing
success or
W HO
touch ing
wound ed
Linked In
h ing
cr unch
belie ving
Pet e
Dise ase
ar an
und oub
econom ies
Stan ford
f id
w ip
crow ds
acry lic
D ear
I deal
or ches
sp ice
Gu ild
except ions
Rog ers
Elect rical
Def ence
lo gging
Re comm
the tics
Pro s
cas ing
game play
incin nati
G ay
N ancy
S ak
n ival
fo cal
proto type
1 18
N ad
T ank
17 5
CR M
reput able
19 15
expect s
break down
Sum mary
citizen ship
Manufact uring
R anch
c ache
l ith
refer ral
Hel en
disci ples
u pl
al ous
Ep isode
geo graphic
D F
S B
Well s
viol ations
u z
th s
ut ing
sp y
Ad venture
Mar sh
recomm ends
anger ed
alumin ium
T Y
h ose
ren ting
De gree
reser vations
config ure
NOT E
op her
str and
dis comfort
introdu ces
exhib itions
C ob
L CD
kind ness
Shop ping
Jul ia
frustr ated
inning s
be ts
un precedented
fe ast
r igation
he el
Creat ing
enthusi astic
L R
P lastic
igh teous
Wh ilst
don ors
journal ism
toler ance
---- ----
T iger
ris es
frustr ation
blogg ers
t is
w reck
ph on
Se cur
kn it
grat itude
C um
G ates
S can
Y ang
ug ly
De ck
loc ating
pan e
90 s
Prof ile
Rel ations
input s
helicop ter
L av
M ong
co a
flu ct
fre y
gradu ating
c et
AS H
York shire
b ip
so da
car ved
band width
answ ering
S core
af fl
thr one
gl am
celebr ations
Engine er
humid ity
car p
ik h
Exam ple
bree ze
r ivals
sens es
Gen esis
settle ments
Medica id
D U
L ud
ow l
Do ors
consolid ation
al titude
ins ulin
St ories
au gment
10 3
Ty ler
Brex it
dis ambig
par a
Ste vens
proud ly
glu cose
L iqu
m ig
re plied
In stru
As ide
Con ver
pol ish
b end
f ills
u to
ad oles
col ony
deal ership
war mer
C hase
ver te
add itions
MP s
flood ing
alpha bet
om o
qu es
show ers
deter ior
Leg end
Celt ic
tr am
wor ries
end o
imag ery
elig ibility
Pret ty
O B
en berg
ad mir
under go
wa ited
prevent ed
M IT
19 16
Re ference
Gu est
tur key
Eag les
T all
s iblings
as leep
cul min
enthusias ts
bl ades
ning s
reg istr
clo sures
real ised
deput y
C incinnati
N ico
S aw
inter val
evalu ating
re model
Oc cup
furn ished
Wall ace
delight ful
hypo thesis
Hugh es
N y
read ings
Nich olas
tim eline
cept ions
Mar io
IN T
G U
R ena
os ity
IC T
green house
Lov ely
Io T
im ply
pup py
M am
ar re
aim ing
Trans l
pal ette
cu le
stor ing
H our
e or
Rep orts
impact ed
bass y
bever age
communic ating
credential s
b ins
mar sh
bi om
M ul
m ould
Dis play
atom s
Ukrain ian
Phill ips
t uck
desper ate
E F
ex cluded
od er
En try
gener ates
might y
past or
ML S
elab orate
in coming
ener getic
trav elled
accommod ations
Be e
dep ot
aster y
analy tical
h og
dist ances
account ability
tat too
disambig uation
s ip
ᄀ ᅡ
Fe at
scan ning
assum ptions
L ip
an ime
ie th
aw ful
Cam eron
reflect ing
Fil ip
mart ial
gi ene
Grow th
H il
P aint
um ped
pract iced
predict ions
genu inely
a the
b ent
mark er
gl ac
lic enses
Stu art
w itch
comm ence
Bo ot
access ory
reason ing
account able
Ash ley
B ever
con clude
ine a
adhes ive
B ach
L ed
M ik
s ang
in visible
am endment
ce ilings
ha us
pack aged
thread s
semin ar
K ick
ᄌ ᅥ
ship ment
Sp ider
kick ed
) "
W ave
b oun
is c
ut s
now adays
D ual
ok a
An tar
ux e
tail or
B ass
tr io
cre ature
Re cogn
amp agne
priv ately
Las er
earthqu ake
C ensus
T as
j pg
s ions
wh it
Alz heimer
ah l
contribut es
Bel gian
m ol
y ields
bo re
Wor th
C MS
l azy
Tr inity
free zer
bro ch
sw ap
ix on
Ste in
Cal gary
instit ute
length s
shock ed
Treas ury
appre nt
k u
av il
dis agree
Second ary
fair y
st ad
miss ile
nor theast
gover ned
pix el
sp elling
reg ulate
pul se
fashion ed
Dou g
st als
fr ight
Dis covery
Gener ation
imag in
Bas ically
Teach ers
Eth iop
g ard
ad apter
19 13
pt ic
doctor al
Veh icle
e ag
pack et
feed s
san ctions
L it
f ictional
inter ference
Le o
express ions
transport ed
g io
ar ity
sh ifted
grain s
Crim inal
B less
C isco
K ap
sub stit
enjoy ment
click s
sus cept
incorpor ates
X ML
bud gets
sh iny
Cub an
Liter ature
es ar
bo hydr
sever ely
Fe ature
Back ground
affil iates
Advis or
vacc ine
explicit ly
ancest ors
r ider
pe el
An glo
Cr aft
cul inary
girl friend
scr ub
Wik ipedia
in car
re el
he ter
H I
demand ed
5 50
J as
bl er
crit ically
cin namon
anticip ate
Answ er
Adel aide
p ap
dif f
Che v
clin ics
inet een
Ida ho
In dependence
El li
Walk ing
Again st
Luc as
B in
O EM
ch im
lo gged
Pl aza
voc abulary
C og
du ck
Che mistry
dy nasty
rail road
recru iting
demo graphic
Ott awa
M AC
thought ful
ito red
cal y
opt ed
bur ger
instruct ors
IM E
fest ive
authent ication
F lower
as ia
ac cepts
cre ations
ars en
13 5
omet ric
Cam era
h ay
re bell
illustr ate
undoub tedly
A viation
E gg
k an
k ills
ow e
ah n
econom ical
foot print
hor mone
Spe aker
emotion ally
c iting
and el
res in
ash ing
spo on
south west
Pot ter
Ch ester
rel ies
Direct ory
ro e
explo sion
yl ene
horr ible
н о
Mer cedes
se vent
dis playing
Sh ell
defin itions
Art ists
sac r
anx ious
N V
V ari
Bank s
Hy per
P and
st ag
con do
encour agement
dark er
D anny
n ons
ro ts
Re fer
ote chn
E ston
cor p
Ne igh
dou bled
Light ing
Prob ably
i encies
mer ger
Fun ction
Flow ers
Mo de
flo at
exc el
ung le
willing ness
Test ing
” ).
co c
stem s
expect ation
inste in
tur no
drain age
replic a
b achelor
s id
in as
to my
mo squ
no od
post ers
to re
min ster
air ports
vill a
Nob el
doct rine
A W
w ander
Fl u
stain s
conv iction
scatter ed
- >
W aste
box ing
syn c
Initi ative
1 200
ay an
ident ifies
recogn ise
Main tenance
intim id
gom ery
re modeling
van ity
valid ity
kilomet ers
B ent
par as
bul b
Form ula
ist on
recept or
Chap el
2 a
g ust
ol in
sp ur
concept ual
i otic
w olf
prov es
just ify
hon ors
assem ble
W it
b ail
ant enna
search ed
pan or
S ue
Ne ither
Ind igenous
chop ped
e g
Ch ry
dial ing
Industr ies
civil ian
Lloy d
dial og
Wa it
% ).
B ug
G N
pr ais
acqu iring
Adv ance
UA E
D uck
R angers
end ors
number ed
flu x
broad band
Writ ers
roast ed
ven ant
Le eds
Ser ve
S we
fr amed
li b
we aken
South west
dead ly
god s
provin ces
ur bs
pres sures
trans plant
dep icted
Sw im
Lith uan
D ust
G abr
S ent
ian e
train ers
AR D
ES PN
discount ed
Stain less
cl ue
pos ium
garden ing
act ic
Se cre
Not able
path ways
pop ulated
scen ic
hun ger
tradem arks
E ight
d al
pro be
res orts
our met
10 7
Cop per
ill es
ex pressing
aps ed
Comm ander
v ivid
am ination
ther m
Con tr
found ers
viol in
rug ged
scholar ships
evol ve
ed itions
om i
New castle
Ed wards
sou theast
Z im
ut ilities
part ition
mon itors
defin ite
respond ents
kne es
E ther
ly mph
par ade
sal vation
teen th
Vis a
nur sery
Hit ler
Municip al
3 30
mot if
Method ist
al gebra
aut ism
accident ally
allerg ies
cardio vascular
B LE
Com ics
attack ing
Respon se
K ash
y arn
cor rid
char itable
Mont gomery
horiz on
therap ies
un cle
AM P
valid ation
intention ally
K Y
d ull
min isters
W end
it ated
mon itored
Sub ject
veget arian
rug s
l ush
in qu
unt ed
Ap parent
RE D
compet itor
cin em
Keep ing
ballo on
D ell
N issan
play ground
bal ancing
overwhel med
br ave
ob ic
gram mar
Di pl
not ifications
10 80
happ ier
commit ments
erg arten
colon ies
K yle
s lavery
don or
AM D
aut onomous
ai ro
zo om
B elt
cont ing
int act
Lo an
col i
teach ings
Project s
inher ent
awk ward
out ed
gr ief
sur fing
plo ys
Sh ir
law ful
hous ed
reve aling
Gabr iel
B od
Princ ipal
per ed
00 00
gl ance
shop pers
mix er
Rena issance
K ill
L AN
h h
do ses
ok ia
Pro vide
gen ic
printer s
/ -
u f
flag ship
advertis ements
R ush
s kept
av ian
ens ed
Char acter
dish washer
shut tle
1920 s
Init ially
Ya hoo
G F
ch ina
pro pose
high lighting
hol istic
Des ert
A ges
C AP
In v
pre y
Ter m
et e
tr al
sp ins
rel ieve
pot ent
Lu is
E ug
ment ions
cor relation
IS S
glo ss
Design er
streng thening
witness es
arbit ration
lug gage
D iction
mass es
Work ers
r ighteous
ᄉ ᅥ
al lo
condition er
Sand y
no sis
sort ed
com fy
Ger mans
Ho od
commit tees
Pay Pal
D inner
R ate
learn t
secure ly
none theless
e in
even ings
market ers
OS T
ran ch
Rom ans
landscap ing
R ac
af firm
hum ble
suit es
Tre k
resign ed
Ultim ately
T D
en light
lo com
Bl ake
sl ices
sens ation
critic ized
E B
H ours
r ant
rein forced
Process ing
H F
av oc
St re
lab s
fellow ship
S Y
h ats
dis pens
aw s
M IN
R ated
h agen
up side
neighbor ing
Know ing
Members hip
antib iotics
plas ma
inst inct
tow ers
gen res
Med ium
mar athon
aler ts
S part
l ich
back drop
Re pe
lat ors
collect or
imm igr
Pan ama
practition er
Datab ase
A 1
L ac
ful filling
att a
18 3
encry pt
congreg ation
G aming
N ine
fin es
pay day
won ders
season ed
Rem ote
glimp se
w re
hal t
om y
im plied
de tox
do c
hard est
El ite
termin ate
logo s
interv als
upun cture
re vision
ye ast
Ess ay
R P
d ioxide
l ings
com pose
inter rupted
dr one
Fr ances
Found ed
nit rogen
Cot ton
l ol
ot on
ort on
bad ge
Lic ense
traged y
F B
p ivot
to ken
qu i
Me ad
tun es
Hun ting
blow ing
k ings
ur i
ag us
tw itter
sc am
remed ies
Autom atic
hazard ous
declar ation
€ ™
cr ick
cur iosity
is ive
Re cru
ank le
Po ints
sound track
rob ots
aer ial
t ide
bl ended
Arch ae
Sacram ento
Apparent ly
en i
pro xy
ul ously
tow els
Div ine
geo graphical
Regard ing
text ures
optim um
s ack
than e
sy ll
sal on
Har per
Conserv ative
w ow
re porters
what soever
So ccer
analy zing
Treat y
Athlet ic
d ementia
sw ift
Bel le
2000 s
lan es
Kat ie
Feat uring
de en
P ump
Je wel
stuff ed
encry ption
Strateg ic
D awn
T us
U m
U plo
w ishing
dis appear
mar vel
Expl orer
am bi
sequ el
infin ite
2 D
ad vers
fer ry
Roman ian
breath taking
O UT
min us
inv ites
dist urb
Bi ology
uniqu ely
G az
P ir
P VC
op posing
process ors
De ut
Jer emy
pher d
furnish ings
M ale
ass is
medal ists
Represent ative
ecolog ical
intro duct
eng ers
accompany ing
Leban on
190 8
conclus ions
dos age
exped ition
p endant
р о
all ing
In sp
begin ners
Health y
Food s
lad der
reg istry
Rem oval
Sur gery
Sud an
respir atory
I Q
N est
R ah
ch ase
ir ical
af a
inter im
under way
det r
plac ements
sun shine
heav ier
lor ds
Sho re
tim eless
cred ibility
safe guard
Sal v
190 1
free zing
rem ot
Gu arant
imp air
forget table
Bob by
he els
gen ius
enn ium
assum ption
bever ages
Isa ac
ᄂ ᅳᆫ
am as
ce met
can ada
ev angel
Ab bey
condition ed
pred iction
crush ed
c ured
re paired
men us
Sk i
ar se
met a
G ab
P AR
pl ated
end um
Leg acy
Bron ze
C s
X T
ᄋ ᅦ
al loy
tr unk
inter change
Com fort
bro th
Te en
conver ting
shr imp
Cher ry
k ok
spokes man
M ER
P ont
25 6
exp ans
partner ed
inval uable
O ption
ing en
well being
Tr affic
fil med
Be er
Fir m
devast ating
EL L
tel es
Meas ure
m im
re marks
ur ged
ful filled
So x
Bo at
step ping
Ben ed
tor que
tex as
b ps
p unk
dis par
scre ws
fix ture
sec ular
p encil
dis card
crypto currency
can on
ort ium
sk ating
Ex pect
belie vers
Crit ical
portray ed
enclo sed
K un
S low
p aced
Pre vention
cry ing
Arch ive
verte br
ur ity
op ed
de bit
random ly
metro politan
dece ased
B ike
ul us
It ems
cell or
Can al
FI FA
Philos ophy
R N
ven ge
Bo eing
Act s
B omb
D aw
H av
n inth
ro de
ex cur
land mark
rent ed
quiet ly
Partners hip
be ers
co il
give away
Per th
prem ise
sett ling
Op portun
L U
b ounce
co res
Ap ps
Sk ills
Commun ist
Tom my
Pain ting
Def in
retain ing
stretch ing
bleed ing
H 2
S lovak
us eless
gen us
Ed it
decl are
A ver
R ental
f ights
Le an
employ ing
Ap plied
sle eves
Employ ment
stere o
j ah
Pack age
exception ally
s ins
sens ible
V S
or ie
ob esity
simpl est
id ad
Photo shop
Nav al
rig orous
R ho
head phones
Nor m
extract ed
K nights
re minis
design ation
imm ense
bul bs
vegg ies
D eter
N ex
T ub
ar in
je wellery
quarter ly
mel ted
S HO
S omer
In stant
ho re
Nutr ition
" ;
M aps
r als
col league
Bry an
g or
spr ink
semin ars
Ral ph
Y esterday
lo e
pe aks
M ental
con gest
over ly
fore most
fragr ance
ensem ble
D ia
ow ski
car bohydr
mand ate
Brook s
Armen ian
B og
U g
t et
in ability
in complete
ob ed
ask ets
vent ilation
sc andal
draw er
tox ins
stir ring
play off
arch ives
ra z
P ip
th under
el eration
id ae
im plants
ut ton
eleg ance
pep pers
Exper ts
bout ique
play offs
Con crete
Pr ix
diplom atic
R um
histor ians
pil ots
Rod rig
Py thon
F IN
co ats
paren ting
Mer cury
imper ative
Particip ants
Tig ers
can y
work flow
dis cer
net s
ball ot
tag on
recess ion
Cambod ia
H U
re leg
am ended
hel m
tur bo
stre ak
nom ine
imper ial
us ions
fr ank
fo g
Ap pro
Out look
gate way
acceler ate
er up
br akes
Se cure
bas in
Ang els
geomet ry
S ites
on ge
request ing
appet ite
o ct
an ical
er ie
om es
It em
there after
pat rol
frequ encies
Net works
vers es
start ups
But ler
drive way
bes poke
Ah med
supervis or
ad here
premium s
shell s
renov ated
tutorial s
Consult ing
NAT O
b sp
h d
occur rence
r av
iv ir
dang ers
rul er
) -
, '
pl un
um brella
St y
ste ak
sl aves
N W
R ib
gr ind
En tre
appe als
FA Q
ᄋ ᅴ
per f
question ed
resol utions
S eller
w ired
ab dom
Amer icas
Mo ham
Sp ark
celebr ities
J ake
R ica
bath s
plug ins
W ere
Ch uck
Ad ding
effic acy
Stat ement
Bio graphy
B uch
U ber
24 th
at ics
coordin ated
EE E
et tes
res cu
business man
professional ism
Pe ak
pursu ant
B ake
P up
g aze
ig s
worry ing
fiel der
i ating
an atom
geo graphy
L un
P ere
p inch
pre ach
inter faces
nes ium
clar ify
V O
w ished
he ights
im ped
gr ape
sk ull
omb ie
advance ment
cr ank
ting ham
cur ved
red irect
Class ical
demonstr ating
flag s
Prep are
ar u
short age
thy roid
un ks
Le af
Ge ography
70 s
d ens
cr ude
An dr
Con sequently
Veter ans
predominant ly
rad ius
sent enced
mod ular
Diction ary
S ed
m ul
p n
compet ence
Sw ift
Jour ney
E W
J S
W his
i ya
re production
al ore
Mc Donald
AD A
onom ic
Nap ole
stell ar
B ER
P ub
ab normal
not ices
cont amination
Tour nament
strain s
y d
gu ilt
190 5
haz ards
C au
T I
c en
ex cluding
ens on
Ed mon
lif elong
stick y
convin cing
Cin ema
Reven ue
K as
M ile
aff le
Twent y
G ol
c ise
with stand
fix es
Stat us
C open
S ev
d as
16 00
Cal endar
integr ating
square s
nav al
cub ic
E G
F 1
Re ed
tem ples
Ser ge
stat utory
Dis cussion
tt es
quarter back
Issu e
e an
er os
pro lif
treat y
Dog s
surviv ors
todd ler
E ur
R ust
ch am
open ings
Br andon
bi ased
mush rooms
G iants
M W
Mun ich
un common
ca ut
represent ations
cand les
sou ls
K om
exam ining
B end
w ives
sub missions
Tr u
Dep art
Engine ers
phil anthrop
C IA
W are
le ased
ill usion
Fin nish
concept ion
Ba iley
Shar on
conspir acy
h ints
o ste
le en
cal ibr
pict ured
grap es
D odge
E lection
t ility
op ener
over looked
S tra
е r
or chestra
en su
joint ly
Hind i
Batter y
recogn izes
stick ing
Last ly
Electron ics
Y ale
Z ip
re per
le m
cl utch
M ey
Dr iving
star red
advertis ement
M Hz
t weak
am y
ne phe
An a
Gu ests
film ing
prin cess
W u
10 9
tw ent
fish er
stim ulate
envelop e
R B
d read
en os
bal ances
Ste ph
veget ation
og ene
open ly
Rock y
ru ins
root ed
sponsor ship
Fix ed
assort ment
K B
d are
d ancers
un sure
Sh ot
Who le
Fle et
F ear
k h
st ub
her bal
philosoph ical
v apor
it ars
ok o
ak in
own ing
11 4
Park ing
inspir ational
Bul garian
freel ance
F ay
al beit
thr u
ff ield
decor ate
grab bed
Corn wall
D in
N GO
re build
res ide
cor on
Reg ulation
cir cuits
margin al
Mathemat ics
C SS
I van
к о
it iner
se ated
ch alk
co operative
Pl ug
Qu art
teen agers
Glo be
corros ion
Copen hagen
D um
D uration
En cyclo
char ger
Jo el
ION S
Cha in
dwell ing
re movable
con ductor
ph ere
Con stit
sub strate
Res olution
vulner ability
stap le
In come
iel ding
unt u
Dr um
S ense
g ie
ind a
scr ut
l ac
transform ing
l aughter
ur able
Col in
R id
a ways
s urn
al location
as ive
sh red
Sw an
pione er
b ump
hum ming
merch ants
inher it
psy cho
Ster ling
unve iled
S trip
V lad
r ans
v ity
к а
con ve
ib a
Mar cus
Car pet
Cr aw
Pal mer
cry stals
bacter ial
Parad ise
i ations
in quiries
ind ia
me g
af fection
Ne o
Ar med
home owner
sof ten
educ ator
ban ana
jer sey
g ifted
im eter
ash i
Like wise
conce ived
ens en
ple asing
empt ion
Bank ing
190 3
V AT
ph al
rest ing
begin ner
intern ship
v ow
an ic
ob sc
sing ular
inj a
spin ning
fu els
Hop kins
if fin
cor al
tun ing
hydr aulic
N okia
ha il
sim mer
dou bles
Ann iversary
un ci
em ploys
sp ont
Er ror
pun ct
dash board
B il
M iles
k ara
dr unk
class rooms
Su perior
Gar cia
S ul
b amboo
Com pl
gl orious
Mon ster
Pat tern
notice able
C ul
F Y
R as
S imp
af ore
ul ent
ide ally
En sure
Gr ab
sens ory
Bel arus
quant itative
draf ted
ic one
un ified
Port able
to es
ne th
success ion
dev ote
story telling
shap ing
G ang
water ing
teen age
upgrad ing
enh ances
Setting s
L iz
b red
f onts
p ac
the ology
ph ins
He ath
Do ing
fresh ly
k itchens
th ma
st alk
Ben nett
Mir ror
Beha vior
ish i
Ac counting
lef to
ic ia
ph ic
ero space
fib ers
Leon ard
Begin ning
B ears
F ail
d ino
im al
exhib ited
r il
per taining
period ic
pitch er
Aber deen
B order
G MT
K A
un fortunate
development al
astr onaut
defic iency
Azerbai jan
D ale
D NS
R ic
blo ss
23 rd
capt ures
ogen ic
R ural
se iz
rot ating
Gon z
compos ers
cur ves
40 1
Li by
destru ctive
fl or
fle e
atmo spheric
fas c
B ac
T ile
W ake
re called
mer cy
clo ses
Sh ield
Any thing
Open ing
CN N
triang le
f ats
t abs
ex quisite
Th ous
no is
Gen eva
gall on
tight ly
Shad ow
Alexand ria
Evol ution
remot ely
! .
O O
S ask
ir k
was ted
air ie
pol is
cru el
argu ing
neck lace
Mess age
slo pe
catalog ue
C ott
Cent ers
Es sex
er k
ped iatric
AN G
Mill ion
susp icious
t les
continu ity
Art icles
Los s
None theless
c ough
at ro
it als
cho ir
fun nel
tro phy
intrig uing
ir rigation
lo o
str om
dis ruption
adv ancing
hy giene
Dem on
ch assis
31 st
thir ds
Fellow ship
C W
P au
p u
el im
de cks
Al ger
Mar athon
exp ir
carri age
appar atus
! ),
M aker
r ats
ex pose
serv icing
gu iding
50 1
stretch ed
inaug ural
b iblical
g ases
re pository
dis cre
Con vers
12 2
Reg iment
stain ed
correct ed
Democr at
coordin ates
S ets
pro tagon
rele vance
break through
lack s
Coal ition
iropract ic
com prise
por traits
credit ation
K end
Y E
lo ses
Af ford
stick ers
Bill board
tap es
ridic ulous
W ish
at op
ed o
ur g
ul as
que ue
mar gins
IS A
Ste phan
brack et
v ault
is ha
Ch es
plan ets
personal ities
mult itude
Z oo
it as
Al umin
vi be
E at
I d
im ports
ten se
wheel chair
B UT
m 2
z inc
En h
cop ied
Josh ua
J A
lo re
bo iling
Pr adesh
Not tingham
2 60
H og
well s
F D
th ouse
sk il
Ex erc
success es
Sy l
High ly
central ized
Sad ly
incur red
Proceed ings
Tr iple
assess ing
The me
worth while
yl an
Ben ch
recur ring
D ip
te c
aw aken
Min ne
AM E
intern ally
F uel
f ere
it us
fin ite
special izing
Cal cul
reflect ive
M U
T ON
o on
re lying
ne ural
dis solved
pay roll
kick s
prosper ity
J D
P B
P ill
con fer
op ing
no stic
bar be
Ed die
un forgettable
Un i
Im plement
tren dy
bour g
Profess ion
shad ows
Altern ative
Scholar ship
B av
cess ion
prom in
sc opy
recon cil
Slo ven
u do
y ang
ap ing
fact ories
arm or
proble matic
Good s
guard ian
so re
char ities
No vel
comb ust
190 6
sufficient ly
encoun ters
vibr ation
resid ency
per secut
str aps
land lord
28 0
Card iff
emphas ize
laugh ing
explan ations
Bright on
enzy me
l ene
ᅡ ᆼ
man eu
sever ity
heart ed
Desk top
configur ations
Wh olesale
mat urity
Let ters
Lat est
buff et
Protest ant
yog urt
R D
im ens
ab str
detail ing
under water
Col labor
Res ist
throw s
alle vi
Scal e
rebound s
E z
cond itional
bab we
Jul ian
Lyn n
parliament ary
lest on
J i
S le
em peror
Sep ar
Ow ner
Consider ing
L ok
the t
un authorized
amp ed
She ffield
Am anda
hom ore
Proper ties
Z ion
w ol
ᄉ ᅵ
re construction
pe g
co her
flu ores
sat urated
190 7
preser ving
R aid
acc eleration
advis ors
Super vis
crimin als
l end
as a
Cl ip
social ly
Dev on
trust worthy
Nat al
Iraq i
Pos s
cartr idge
ur ine
cl iff
sp ends
He in
lif ts
procure ment
R he
Ab stract
7 20
M ig
pa use
god dess
Think ing
Absol utely
V II
s ab
y ummy
ser um
parad ig
L abs
so cket
ices ter
sup press
SS L
exceed ed
slo pes
if ax
Ch al
low ering
IS BN
user name
indo ors
Armen ia
sne ak
Squad ron
au er
Flo oring
B ark
D ere
P ale
S ap
c ros
wor m
gr avel
ie v
restr iction
Sustain able
ac ion
soci o
26 th
Luc y
Hur ricane
C atch
p ne
sy non
Con test
sub urbs
Mar tha
Fant asy
E UR
w right
ad der
coun ters
fic iency
11 3
track ed
jud ged
Pre par
Greg ory
p ud
out dated
teen ager
Ep is
Ced ar
M ight
S AT
back pack
Sh ut
bas eline
bon ding
Ber g
lam b
ir regular
syn thes
Mov ies
not ation
Read er
Andre a
deduct ible
Jama ica
N early
Is le
attr acting
Wal t
Previous ly
Wy oming
Minne apolis
ch on
Ste fan
22 nd
lif es
commercial ly
nav y
auth ored
S truct
ab bre
ce ase
dis semin
ST R
escap ed
s ap
mot ors
Angel a
Oper ating
Bul let
inher ited
F ur
T icket
re strain
we i
Che ese
quar ium
Hill ary
hun ter
digest ive
Ple as
F old
c ivic
Al cohol
Dev ice
Assist ance
Fant astic
G el
w en
met abolic
Fab ric
Activ ities
ic ion
ch al
ch ard
ob serving
main land
perform er
den omin
Indian apolis
argu ably
190 2
.... ....
4 K
ch unk
Cl aire
Bal d
IR A
illustr ates
Lyn ch
Entre prene
r ist
collect ors
map le
Rel ation
Carol ine
pil gr
Ron ald
obsess ed
avil ion
D ame
Al umni
broadcast ing
archae ological
W et
ould er
where by
Mar ina
3 10
F iction
w ounds
out fits
stead ily
investig ators
constit utes
rhe tor
L il
O live
u ble
dr ought
ley ball
author ization
Vol ks
V a
pay able
28 th
Play ing
decre asing
warrant ies
remo ves
trib al
fib re
Citiz en
W arm
ph in
lives tock
indu ction
priest s
P ET
tr agic
Pr ayer
distribut or
princ ip
cu ff
card iac
Secur ities
elim ination
B ibliography
o bey
amaz on
Byz antine
H ire
L ite
Cap itol
wh ites
tr ays
tim er
thr iving
spir al
reli ed
bright ness
Territ ory
peripher al
Venezuel a
wilder ness
B ub
ud ed
Pro ced
27 0
27 th
ALL Y
rif le
Ray mond
Relig ion
T ang
w ag
add ict
Pres sure
divid end
Writ ten
be k
com positions
on set
Bu yer
relig ions
caf es
sanct uary
re ne
re covering
all ed
12 1
def ender
Am bassador
academ ics
Bow ie
Dar win
R ig
new born
hel lo
hand ic
11 7
sal aries
human itarian
subject ed
squee ze
Proto col
D ash
I MP
W aters
w agen
bar gain
civil ization
pray ing
cock tails
Agric ultural
disappoint ing
sk ins
direct ing
Ru by
intest inal
D as
at ra
tr aces
cre ws
Prov ider
tact ical
S ull
g mail
ce ans
sm iling
academ y
pull s
illness es
clip se
parad ise
des cript
fl ank
home town
stat ute
adjust ing
construct ing
dign ity
R ip
l iness
r age
ro ses
ound ing
m ug
in hab
flu ent
Dur ham
adop ting
harass ment
Zim babwe
8 50
ut most
art illery
cr acks
bl ends
Le icester
ush i
belie vable
rain fall
micro phone
Atl as
tes ters
9 11
re pet
res iding
mer ge
ue z
Lead ers
Grow ing
A mar
sign aling
light ning
Dr aft
4 80
V ine
p aved
Re placement
real izing
Af fil
Di ag
craf ting
exhaust ed
phenomen a
H M
ol ith
cre ators
Hol ly
preval ent
Ro th
ai res
murder ed
Legisl ative
I stan
f athers
v id
re hears
dis appointment
Con tribut
N M
a thetic
ᄋ ᅥ
po ets
Pr ague
AN S
iling ual
Adv oc
sculpt ures
M ist
n ineteen
st roll
pl ank
gr illed
event ual
Cal vin
explo it
Pun jab
S pread
con qu
pol ls
Br ick
Gl enn
Prote ct
Stock holm
rush ed
dor f
juris dict
lung s
F U
ot ed
mult ic
advert ised
brain s
S lot
pro active
ok er
ground ed
init iate
mob iles
bench mark
inf ants
accum ulated
Sess ion
e igh
ac et
we ars
fe ine
port ed
Nor folk
exp on
West minster
uff y
honest y
lod ge
Benef its
T roy
W ick
o e
ex ts
profess ors
kind ly
emer gence
ru in
negot iation
J C
a we
c age
d ots
en vision
ar ises
be ck
all ied
hol low
Sp y
Tro phy
predecess or
afore mentioned
d vd
e go
ah an
Har bour
Wal mart
Bang kok
sad ly
L em
l ou
um en
ich t
draw ers
bow ls
Bal i
Angl ican
G ul
in appropriate
intent ional
Princ eton
Istan bul
le vard
em ission
sto ols
prefer ably
Fil ter
cit rus
demonstr ations
hook ed
mu ffin
Chang es
duplic ate
4 G
: -
ie ves
Gu itar
colour ful
domin ate
Pur ple
Peters burg
l oft
an cho
li zz
00 pm
Str ing
Nur se
ighth ouse
deleg ates
prolong ed
D rew
Fort une
inspect ions
Gate way
un fair
web page
Sp encer
deser ved
Wonder ful
turno ver
V iv
ich i
ty ard
Pl ain
AL E
Rho de
A gn
l ı
launch es
Group s
decre ases
bless ings
V ert
m ish
ad ul
op ath
de fer
str anger
gu in
knock ed
Wes ley
christ mas
Kum ar
clust ers
E leg
as ion
im pose
cor rupt
flu ff
select ive
Sc and
Mac ed
barrel s
Script ure
over l
St ack
st amps
Con cert
Sp ons
Dem o
190 9
Fun eral
artif acts
C AT
N er
b ak
pl ur
Mo le
Sol omon
Vis itors
Ow ners
lun ar
F lying
w ipe
In flu
Re form
polit ically
Bar nes
H ale
dis asters
Ad mir
nam ing
dig ging
Canad ians
cool ed
neg atively
F ROM
e b
s ulf
su le
di ets
account ed
na ire
calcul ator
Di agram
trium ph
K iss
ch ing
dis able
Sh am
imp ul
tr illion
Inter active
Arn old
т о
th igh
ut t
pl er
ex e
prob able
bec ca
Advert ising
U PS
b ats
att en
att ed
Pr uss
tre me
util izes
Contin ental
NH L
F ans
J in
ens is
New port
S IM
re start
ant y
20 2
Pro blem
aid ed
war fare
bul lying
Import ant
M ann
on na
im ir
sa ic
fore front
mon arch
spec s
Rob ot
R ide
incl ined
Mark ets
Lie utenant
femin ine
A e
J ill
V s
p ave
ᄀ ᅩ
Con n
sk irts
clus ion
asp berry
sh rub
Char ter
quarter ed
adequ ately
weakness es
bapt ism
C ivic
P izza
re jection
lo ops
att ent
Po or
60 s
standard ized
counter parts
B ott
G and
v ents
ol ics
exam ines
Sand ers
datas et
р е
AP P
exclus ion
Mel issa
stere oty
R ag
Ex tension
mir acle
mist aken
bell s
Brad ley
rou lette
form ulated
Gu inea
-- -
nick el
insist ed
H annah
L ucky
tr ump
EN TS
Bor ough
nost alg
wh isk
so ak
by pass
serv ant
trad er
dev il
virt ue
Ros en
hook s
h edge
18 90
Pro vin
12 4
equ il
wr ink
firm ware
transfer ring
layer ed
Dom ain
Gib son
on ial
pat ented
Person ally
dipl oma
Integr ated
" ...
H ir
under going
lim estone
** **
cleans ing
Afford able
I EEE
e po
ass ium
inc ere
broad ly
ro let
fr y
pe pt
ident ifiable
Me ga
Bu ying
bill ions
rout ines
burn s
Ev idence
haw ks
kilomet res
Frame work
) !
P am
n oun
o graph
an mar
Cl if
Co in
class ics
ES CO
Vietnam ese
Coordin ator
L emon
m ultimedia
um ble
Re cip
cross es
Hol mes
Build ings
Bir ds
Access ories
O E
ᄅ ᅩ
Cr ack
scr am
Play Station
P ione
de pr
over sight
int ens
Re ception
Tr ial
inc ub
contribut or
i ol
cal ifornia
Gr inding
Or ders
Res cue
civil ians
flav ours
consequ ently
Effect s
sandwich es
tang ible
am bassador
mil estone
29 th
Sher iff
Fem ale
C od
St reng
ens ation
sin cer
Specific ally
A ub
G ross
ge vity
ri ad
organiz er
Ach ieve
J ak
O UR
ia o
Re becca
black jack
le aks
ind is
ile m
Product ions
adm ire
cur b
install er
bes tos
Offic ers
mut ations
F requ
L ounge
ang els
clean ers
dead lines
fashion able
immigr ant
W IN
ner ves
head lines
card board
sound ing
text ile
Dep ot
Det ect
swell ing
V ick
ing ham
com promised
red und
Publish er
2 15
< /
t read
w iki
met ry
Sat an
belong ed
H K
head aches
mar itime
period ically
accomplish ments
privile ged
K hal
M ate
be have
As sy
Mil k
Fol k
rac ism
mosqu ito
cemet ery
inter fere
MA X
Hor n
destroy ing
H ua
id en
He ather
long time
par cel
190 4
vict ories
pitch ed
compress ed
B AS
it ively
are ttes
Clar ke
M au
just ified
wind ing
infr ared
Map le
F ut
se wer
Mar x
Cr icket
explo sive
Men u
hr s
L V
in ver
pres chool
sa x
mon ument
gl itter
pan cre
grand parents
philos opher
4 x
E c
fl ick
Ber k
mis leading
output s
Alli ed
le asing
se als
fr ies
olog ic
research ed
Out standing
gad gets
R ating
de an
app arel
ped estrian
acc ents
attr acts
Cat alog
Bang alore
disput ed
Effect ive
m our
​ ​
st un
optim istic
allerg ic
A way
M ent
U X
v om
den ial
Char leston
A FL
he ed
In g
inter acting
lot tery
pain ts
bur ial
Sun days
brush es
pill ows
sham poo
F ounder
P apers
refer endum
half way
sound ed
satis factory
Grand e
fold ers
accor d
A ce
P V
St amp
allow ance
Br ush
simpl ified
3 G
ind ie
br ides
pass words
prem ature
counter tops
bear ings
Vi ol
amer ican
enzy mes
L unch
Re hab
For ward
different ial
11 6
AN CE
IC S
ker nel
B und
g ia
Re y
Louis ville
warning s
C ake
F erg
ad os
un anim
head ache
ON LY
BC E
furn ace
H ilton
in sufficient
sk ate
ER A
da unting
Past or
Rub ber
Candid ates
wh olly
out lines
can opy
thr iller
car amel
ra h
web inar
refer enced
soo thing
negl igence
H aplogroup
f et
art is
Ar isto
Nor theast
celebr ates
legit im
wrest ling
taxpay ers
brows ers
car rots
kind a
dam n
swe pt
Public ations
conver ter
Administr ator
ap prais
form ations
14 5
Ap proxim
def ended
gar ner
contract ed
transl ations
emphas ized
G ain
G IS
H ep
re built
Con nor
Co hen
yout ube
rev ival
Tag s
resil ience
g ars
z ig
is che
ist ine
ak u
fur t
Ow n
Arm strong
presum ably
c f
econom ically
Short ly
negoti ating
Athlet ics
p enn
is ch
In k
ge on
tom b
space craft
Su f
cel ain
Ell en
encrypt ed
Bened ict
H ul
r ails
pat ents
IC A
collect s
Wo ol
Interest ed
drum mer
Bron x
retr ieve
D H
L amp
Th an
cl an
In do
My anmar
ey el
diction ary
Nob ody
Ton ight
Sull ivan
en chant
car pets
18 61
OR S
advert ise
Tim othy
Log an
Fif th
h ull
ar ians
it at
et ric
In to
super vised
diagram s
aret te
deliber ately
Serb ia
fr iction
enc ia
ca ust
Re ason
vis e
16 5
Har old
clus ive
advis er
controll ers
Sing les
oul try
intr icate
R ut
ab y
Gr ass
Pol l
poly ester
ERS ON
Rol ling
seam lessly
endeav or
Q ur
а t
debut ed
supposed ly
D ylan
to ire
comp artment
Ben z
volunte ering
Confeder ate
hormon es
G G
man uel
Bro s
yr s
frag ile
S ell
i per
or b
al mond
he ct
der abad
Se bast
Lou ise
exceed s
A H
B EST
G iant
f ade
sign atures
mal icious
phys ic
rect angular
exceed ing
crash es
Anim als
O 2
R ear
od iversity
sp or
dis cour
cont exts
gu itars
18 99
contin uation
fig uring
register ing
capt iv
hydr ation
mole cule
Palest ine
E instein
be ard
qu iz
ck ing
row ing
present ly
photo graphic
Fe w
PC s
distribut ors
revel ation
A ston
C ant
L ak
P ull
S V
p enny
t ors
ad missions
per cussion
sur render
squ ash
simpl ify
Gil bert
otechn ology
ab el
leg iate
opt ic
nutr ient
sacr ific
c aves
re b
est ed
gr ats
ma thematic
screen ed
fresh man
note book
Win ners
Ep ic
Method s
brut al
K l
P orter
” ?
What s
ential ly
sl er
Fam ilies
kid n
complement ary
anno y
brace let
p and
ch y
be ast
work outs
wo ke
ob struct
18 50
transmit ter
cyl ind
fr on
mer it
Mar in
blind s
P F
T ours
a unt
p estic
se ized
ren d
Thank fully
reward ed
Plat inum
chef s
( +
B elf
D ES
D EL
at che
ii i
electro de
M emp
ke es
pe ach
Re ich
Bl ind
IC O
lap tops
Sa o
amm als
filtr ation
n aked
z oo
is ers
ro ds
inter iors
reg ain
sil hou
Research ers
Sur face
Ken neth
tut or
forth coming
tum ors
Luther an
Hend erson
4 000
D uty
N L
s nor
il o
pr ud
Po etry
King ston
symbol ic
smell s
Memp his
M akes
п о
was ting
ib n
comm issions
home page
Qu ite
wonder fully
D ed
M end
la youts
sw ick
PC I
champion ships
preced ing
Croat ian
Pil ot
forgiven ess
J agu
R BI
b ows
al ry
ad ic
ath a
vo iced
question ing
lower ed
Hero es
Relig ious
metaph or
uphol stery
B alk
ton nes
Ann ie
Gram my
C ros
M ang
and ez
Tem plates
liqu or
pursu ed
rush ing
suscept ible
Y emen
ear rings
similar ities
doub ts
P ush
i ator
т е
lu br
inevit ably
G uru
” ),
elect r
spot light
Rail road
expend iture
Moroc co
L IN
g ems
all i
br u
post ure
Elect oral
mel ting
m L
or ship
um ed
inv itations
Associ ated
Sam oa
coll agen
A uck
T IP
ep i
sub urb
AC A
recogn izing
uk a
stret ches
Hal ifax
Eld er
o que
go at
eng lish
ason ic
Sc out
section al
profit ability
symp tom
Oper ator
announce ments
weigh ing
upr ight
cl ues
di y
Sat urn
compreh end
troubles ho
re produce
am bul
Is n
His panic
Su z
A WS
P orts
T ac
f use
m igrants
ir rel
br ighter
ele phant
hot test
sho ots
vac ant
ba it
trig gers
hall s
toile ts
Ped ro
fundament als
Exhib ition
P lot
T RA
U b
imp aired
util ization
termin ology
evolution ary
manip ulation
Norm ally
val ves
blo om
IT S
prepar ations
Auck land
( ).
n ant
re ated
com a
ap ost
up ward
Gr iffin
Bal tic
Sil icon
Nico le
M err
serv ants
18 98
Ge off
Def init
Register ed
resign ation
fut ures
G iving
H ands
J aw
w at
pro jection
con serve
program med
Christ ie
mess y
R ise
d awn
n ull
15 5
public ity
express ly
Stand ing
dess erts
Bos nia
taxpay er
hilar ious
in fantry
air plane
cal s
Bur g
approxim ate
elev ator
privile ges
recept ors
Lad ies
I v
M K
Y am
he ir
lo p
Fr uit
mom s
rout inely
Well ington
Rem od
dub bed
Advent ures
C ult
p ard
re charge
Up dated
Team s
Room s
puzz les
Hous es
- ,
G ir
p ans
on de
st ics
vol can
dol l
enhance ment
Week end
Andrew s
Tenn is
Mort gage
nood les
P irates
S ans
ur l
app y
bel ts
ince ption
antib ody
Comb ine
Individual s
at em
cur sor
legisl ature
filter ing
Aut umn
Colon el
Edmon ton
2 12
g t
ᄌ ᅵ
pe ek
end urance
Wall paper
adapt ive
spark ling
Niger ian
Chev rolet
e i
qu in
und ai
termin ated
* .
f rench
u v
ia th
18 65
Dr ama
ott a
wel comes
reli ance
Ob serv
k om
Lo ans
lik ing
John s
mod elling
Port al
pictures que
Q atar
a ustr
man ia
che ek
regul ators
Aver age
A tom
V ID
ad ore
ste er
MO RE
antib odies
Pos ition
A BS
A stro
L az
L amb
S him
T error
as thma
ag ile
af fir
bl ender
Day ton
CT ION
borrow ed
Clear ly
amend ments
P ig
af for
18 95
Bl air
occup y
embr aced
D N
[ /
m ology
pl ots
ess a
iv ities
co ve
bo b
bo s
my riad
Re uters
David son
Hon est
Batt alion
Insp ired
L OT
night mare
Second ly
assum es
crack ed
???? ????
desc endants
Belf ast
D w
inc idence
rain y
morning s
impress ions
Hy derabad
Cath olics
authentic ity
D od
W ER
im an
un used
sh ing
br ig
than ol
Pr ison
oc ation
Bo o
UN ESCO
hun ters
diagno se
accum ulation
Pep per
S as
Y M
f res
f etch
pre jud
Gr ill
instruct ed
construct ive
Flo od
Jef frey
rab bit
A bor
tr aff
Car roll
tele communications
Organ izations
Pop ulated
P atch
b ian
u er
in adequate
ch ord
art isan
aw i
Qu ad
Sol o
Sche me
Z ach
c ation
es p
am ents
out break
ment oring
more d
dis crimin
pre h
over time
back wards
mon ds
market ed
Ow en
ag h
vers a
Ne ck
Hol o
ET F
Ell is
Abd ul
Mechan ical
H B
u y
mother apy
Lead ing
Napole on
Ferg us
d itch
l is
ap es
Bar ack
fed eration
Jes se
Mid west
arrang ing
Definit ely
pl en
ha k
end angered
dist ort
rain bow
Card inals
proceed ing
Cli ents
Rap id
Kaz akh
Eug ene
B IG
P ART
re located
ar io
op athy
Al g
claim er
author ised
ij i
flaw s
Johann es
P on
c end
re deem
un s
trans cript
tra umatic
atter ing
Red u
rom ag
Admir al
K ane
re location
18 80
miss iles
14 4
RO I
clim bed
Dun can
weigh s
3 75
D ies
str angers
Bo ost
30 1
Cat al
Philipp ine
spell s
plaint iff
Volks wagen
ten ham
Con duct
cy to
press ive
25 00
Wind sor
IG N
icon ductor
lit ter
crash ed
Bot tom
indirect ly
meth yl
H undred
L IM
V at
un aware
br icks
fun dr
Be hind
Nor mal
President ial
decl ining
frag ments
: .
ur gency
un al
de ple
dif fers
Act ivity
Ve get
Recru it
A ware
M ud
ver bs
rub bish
liber ty
Abor ig
cur ated
trou bled
iche ver
Bou levard
T et
p oured
app ell
gre ase
AN K
Administr ative
Liqu id
S ally
em o
pl anner
mon sters
Man ito
ref ere
har bour
retain s
WH AT
Case y
Album s
Encyclo pedia
1 19
ris en
Ber mud
2 24
E sp
d ome
camp uses
Au then
essential s
Warr iors
B one
up wards
head line
jour neys
Tom orrow
Offer ing
bureau cr
M ouse
det ached
hy p
ram id
advis able
roof s
lon gevity
intend ent
1940 s
commem or
un available
fe ather
aw ake
sty list
risk y
Mal ta
Kr ish
Pow der
" "
R i
S AM
b iking
f au
for give
ex clude
pat rons
defe ating
avoc ado
5 80
C ave
C IS
H Q
R R
ad al
ad renal
un cover
ip ur
me ad
learn s
enn ials
Sky pe
Indones ian
greet ed
Nord ic
Comput ing
Ether net
inhab ited
C odes
F ell
N om
all ergy
ci pl
Ro chester
ster ling
sl ate
AD E
Pat ric
paralle led
perce ive
A mber
ge ared
Cl are
Ac c
High land
belong ings
compassion ate
pl edge
sub way
deliver ies
alcohol ic
Eth ics
s incere
be tray
ang es
car cin
umb ent
CD s
exerc ising
F as
un covered
pl aque
sub urban
Se at
leg is
spec ulation
pop s
Man uel
trav ellers
Dis count
park ed
hour ly
P att
g ourmet
y acht
ar oma
Th orn
rest oring
Ev angel
rat ios
bid ding
lon ely
T ong
e h
m ito
dr astically
Br ief
hope ful
Dev il
Scot ia
jurisdict ions
equil ibr
A ctor
r s
pr ince
In ner
li ed
contribut ors
bol ts
oph ys
manual s
recru ited
prosecut ion
Fav or
Rodrig uez
4 20
W T
j elly
t art
un happy
de le
IS H
Farm ers
AB LE
quart z
E cho
G ET
L ength
k on
fr onts
end ure
rest s
Rev el
sav vy
sweep ing
1 b
A men
J enny
c ens
il iary
pl ess
ex pat
um an
vel t
cut ter
Bet a
Prote in
Budd hism
stamp ed
Minim um
b ic
ill in
Inter view
Mach inery
bish ops
Ven us
Ful ly
3 16
A 2
C has
D uch
W B
j okes
m ens
de x
cho oses
dig its
star ters
stim ulation
amb ient
Dom estic
Roof ing
J ump
M V
ac upuncture
all ot
co hes
ci o
cal orie
geomet ric
struct uring
bit coin
ull ah
Spe ech
G av
M int
subject ive
plat inum
sand y
Jud a
cig arettes
Distribut ion
Repe at
M G
Re quire
pass ages
cost ing
mit igate
mort ar
compar isons
hydr ated
Brun swick
Pow ell
un ite
inter fer
Re ach
book ings
equ ations
Cand y
aes thetics
I gn
f encing
un successful
sm iles
ug g
Ac id
clean up
Her bert
discover ies
assem bl
arrow s
Link s
dan cer
fier ce
I Z
W itch
re juven
refer rals
super market
See ing
touch down
Ba ha
Certain ly
D T
res ides
mon astery
rel ent
vir gin
mag nesium
Bas il
Interest ingly
Cris is
Infr astructure
plur ality
M ON
ᄋ ᅳᆯ
ca ul
kn ives
special s
Sub mit
Hard ware
energ ies
r ina
ace y
after math
ra id
dump s
Rh odes
Scand in
R iv
n ylon
cu be
jud gments
Wo o
veter inary
Employ ees
endors ed
Defin ition
S ic
com posing
art a
can cers
int ends
First ly
capital ism
burg ers
Mot ors
Writ er
stro kes
S ister
fac ade
Sup plement
Domin ican
H ig
Ar ms
sn ake
Ca esar
Tem per
Fire fox
motiv ate
D yn
att ic
good bye
trans cription
rem ix
Sof a
Log ic
D ot
K urt
L ope
In door
Pro spect
No ah
pet rol
amb ition
Ug anda
A st
C ER
w agon
em bell
comp ares
sto ol
tt i
listen ers
Yu go
reluct ant
N it
an om
post al
May a
smo ked
organiz ers
eag le
C ort
c uc
on ian
pro position
run way
ator ial
ped al
sal ads
hur ry
Establ ished
C RE
on board
pol es
Dr ake
exp ired
host ile
Comp ared
grand son
Ham mer
B inary
v ie
the aters
ad ata
amp ire
Ad mission
real ization
depend able
infect ious
M X
o rem
est ones
ci er
Un its
Man or
IN TER
Mon roe
AL S
respect ful
coast line
M ED
gr inder
Every body
vic inity
Ev il
expl or
HT TP
mile age
encod ing
caut ious
P iano
ur ous
Con cept
system ic
elect rons
connect ors
flu or
nur t
ML B
coll apsed
caf feine
Patri ots
Somer set
T s
m asks
in fest
cl ash
cur ry
det ach
dy e
deb ates
pill ar
Draw ing
Re qu
sup porter
12 6
command ed
pas try
CON T
Month ly
confin ed
F CC
W er
ere cted
pres idency
top ping
Se ed
defin itive
remember ing
K ee
S lots
g ir
vers atility
bal let
Dr ain
Church ill
Lab el
Prov iding
shr ink
A us
E den
z on
be ams
oun ces
ud a
der mat
19 2
fl are
set te
sk ies
Pr ay
Mon ica
itor ium
liqu ids
cartr idges
D one
D ana
G an
P ly
g encies
it zer
co b
dis posed
ple x
ang led
Tr ou
tast ed
ex cer
dis gu
dis continued
ons ite
Pr ide
check list
IL ITY
Alb any
vouch er
obed ience
n em
it ures
su ms
commun al
ref lex
ster ed
Me h
bath tub
Pat io
prepare s
negot iated
Cra zy
Lan caster
E valuation
W V
p ings
is ional
thr ust
Con vert
Bol lywood
Tan zan
Ce iling
Lands cape
distur bing
S ons
ill as
El se
export ed
royal ty
propag anda
pl ating
ign ant
pur ity
Pl ants
RE AL
nomin ations
Hawai ian
Chan cellor
Appe als
Z h
ᄀ ᅵ
str y
Christ ine
Jan et
har bor
Cy cle
trail ers
Cre ated
D UI
Y A
p addle
je alous
Ap ache
Pat ient
Well ness
convers ions
span ning
bub bles
arc ade
하 ᆫ
numer ical
contamin ated
J ed
le ash
for b
gr it
thr ill
Con sum
pet roleum
sort ing
inf used
k t
en za
20 5
Ar rang
ss on
trans itions
Cor inth
bud dy
tract or
shoot er
sop homore
revers ed
Simp son
H off
c ows
de af
Im migration
Bra h
infer ior
3 25
F ields
P ors
pro claimed
de pressed
Br id
certain ty
mechan ic
termin als
consci ously
contest s
Jackson ville
panor amic
Stephan ie
d ilem
on ials
co coa
let al
For bes
Ex act
kind ergarten
B om
S isters
re els
sy s
Ro ose
force ment
Sub s
Pop ulation
( ,
C ord
M ick
m c
in hal
ch andel
ab i
In vent
12 9
gen etics
sl iced
gam ers
V il
the or
to l
20 8
Oc cas
Gre ens
mic rof
Bas in
possess ed
dump sters
chap el
skil let
Q a
j as
l ent
ex agger
pe c
man ga
fl ats
16 8
compan ions
AT P
foot wear
announ cing
awa iting
mini ature
convent ions
Pakistan i
unci ation
Yugo sl
at al
ly s
arm ies
cop al
jud ging
Ko h
Burn s
Salv ador
Dere k
C AM
to med
et ta
cl utter
dis course
ful fil
18 63
met eor
She pherd
CO MM
therap ists
Cog n
L ines
P ars
h over
30 4
vol cano
Bal ance
scholar ly
Jun ction
toxic ity
Kash mir
op oly
ex cus
ca utions
Se ek
law makers
wr apping
mun ition
spread s
MR I
acceler ated
an onym
ins ic
tax ation
Sun shine
na use
Leg ion
elimin ates
Sho es
pill ars
t int
it ives
up stairs
30 am
desper ately
G ig
v ib
sp ill
cr umb
Un limited
under went
ten th
execut ing
fold s
refuge e
neglect ed
C anton
T aj
g ated
® ,
ous es
Al ber
cerem onies
Volunte er
Guid elines
e a
y en
18 70
tw ins
Vide os
Nob le
st aged
am mon
pr ising
av ier
Gu atem
Mic key
emp athy
compar ative
crush ers
crafts manship
rin se
Maxim um
careg ivers
apprent ices
T ier
fer tility
no s
cap sule
gar ments
gas oline
Pat ent
rock y
Bel ieve
catch es
fluct u
H od
es to
pro l
custom izable
sty led
Law s
SS D
Fun ds
pour ing
euro s
M UST
b askets
con cludes
du ction
sun glasses
boost ing
Put in
instruction al
Front ier
bom bs
M old
en acted
13 3
mean ings
lin ers
Greg or
G ST
K et
P sal
f aux
by tes
dr ift
Com edy
Er ik
acquis itions
Roose velt
F ra
W izard
thr illing
Re creation
che motherapy
advertis ers
Sess ions
wol ves
J up
W AS
the ses
find er
show casing
Be an
Ro sa
Sh annon
Col our
commit ting
RA F
avel ength
manus cripts
twe ets
j ars
r е
iv el
18 88
Gr av
war n
Mc L
CD C
Friend ly
tort ure
F ry
In ch
ie u
flo p
qual itative
reser voir
evalu ations
mut ation
outr age
maneu ver
S op
dis placed
fore casts
leg ends
IN S
respect s
ri pe
possess ions
alg ae
gal axy
Yan kees
tok ens
infring ement
clam ation
re use
ar ose
cr ap
ik ers
pack ets
Set tle
proceed ed
Kn own
C AS
M um
op io
fr aming
any a
cr an
Se lection
12 7
Gu jar
GO P
confront ed
Dia bet
M aid
R are
over sized
cour tyard
Lo go
install ment
Sp in
Mil ton
mater nal
arbitr ary
prolif eration
L ing
on wards
en burg
ard i
Se ctor
spo il
Cus toms
cod ed
chor us
Filip ino
D ul
d row
k al
pl aster
bit es
sil icon
transl ates
myth s
introduct ory
A post
H idden
r ive
re venge
ca the
sa usage
pair ing
dete ctor
Hy undai
seek ers
lingu istic
surn ame
D L
G in
S ME
f ts
ol ph
down side
Mo to
mind ful
Manito ba
ch asing
comm enced
play ful
At ari
Now adays
EN S
Mart ine
Ham burg
Li u
a while
so ils
cl a
18 96
ann i
Mar co
Democr acy
Conne ction
spin ach
fitting s
omed ay
T um
d ice
be et
fin ale
gl azed
team mates
Devel oper
butter fly
nick name
chlor ide
Lope z
B le
K od
su bl
bas il
crack ing
Select ed
neur ons
A gg
N ak
con grat
wor sen
du g
18 97
eral a
F iles
th am
gl ut
dec isive
Fe es
cop ing
Cor al
99 9
HA VE
The od
cho s
show cases
fav ored
grad ing
kick ing
G ust
N F
s aint
im i
un pleasant
sur d
char coal
gen ome
uff le
Bos s
Autom otive
lith ium
per ceptions
cr ab
os cill
sur passed
warr ior
extr acts
endor se
Brig ade
J os
V iking
in land
Com es
Co aching
Her ald
Fin ish
scal p
Rom a
Cho osing
comput ational
strip es
m ammals
18 4
18 64
sign age
spec imens
mat s
empower ing
Init ial
Aborig inal
ant im
18 91
issu ing
Dep ression
Municip ality
M F
re boot
un familiar
sh ining
AR C
burn t
interpret ations
bomb ing
il ogy
ap ed
day light
Pr inter
All an
Reg istry
Mer ry
electron ically
harmon ic
Resp ond
p ests
he e
pe e
cor ps
ble ms
Bl ank
Ide a
encompass es
Y ES
d umb
Ac ross
ste aling
pot assium
far ther
repair ing
gall ons
utter ly
Tes la
F actor
S pur
st arch
Al pine
Be au
quar ry
C i
T in
m t
r acks
distr acted
Law yers
vant age
Return s
obst acle
cig arette
Rivers ide
h art
re ps
ap a
su pre
bl ending
col m
ins urers
Com preh
Ex port
IS E
wel ding
Hold ings
; "|
S ag
e ches
In cluded
18 62
Ser iously
wr aps
enn ai
complain ed
Win n
E is
E yes
po ons
AR S
Not re
Air craft
plug ged
Corn ell
Wag ner
B iblical
R ising
that s
med iated
Se c
ER P
rout ing
Exerc ise
to sis
de e
18 92
Je ep
copy ing
rot ate
san ction
hug ely
theat rical
corrid or
L ives
S co
г о
com promising
vent ures
sens ing
jud gement
treas ures
Vlad imir
M ID
w avelength
en sured
with drawn
we aker
man kind
Un categorized
plic ation
vill ain
domin ance
detect ive
sett lers
bat ting
Pow ers
Raid ers
chon dr
ber y
Con fig
Car nival
weight ed
August ine
CT S
coordin ating
shock ing
tu ce
antib iotic
ou x
ic ism
Gr iff
Mc Kin
circum stance
cataly st
reminis cent
Profession als
am use
Br ady
dem ean
ref uses
break er
credit ors
Del iver
stick er
Bur ton
NY SE
AG E
B am
T ek
al in
fire works
Are as
deleg ation
C G
G io
r ash
ve in
id is
ill ary
end uring
self ish
project ions
emp irical
Off ers
master piece
D iane
N B
se w
he a
grad ed
Trans it
Nat urally
jack ets
WA Y
4 10
sm arter
Ex treme
Co ck
nor ms
aut onomy
Ger ald
pret end
Ho ok
Prov ides
constitu ency
twent ieth
G Hz
mon uments
ho v
And ers
vol atility
gest ure
certific ations
suspect s
Rain bow
resil ient
Jacqu es
P U
o de
ide ology
spe ar
Do ctors
mean while
gar ment
ody nam
pon der
scan s
K ris
W rest
g astro
ca thedral
ose x
di ary
Part ies
Univers ities
Rand y
humming bird
D ON
S anti
ex changed
ell ular
must ard
personal ised
Po cket
CO UN
stock ed
U z
V ia
s care
as ph
un paralleled
ther most
Em irates
effort lessly
possess es
nom inal
sick ness
Az ure
fulfill ment
j ungle
he pat
Th ing
omet ry
grad ual
Sk ip
tur f
Mod els
Fed er
stim ulating
compens ate
C U
d ances
p added
World wide
Broad casting
wh ale
ce ased
day time
Re id
Man agers
vol atile
Me g
Comp on
guess ing
Hand book
bond ed
rens ic
Agn es
C ork
W inner
st a
ine quality
He ating
det ention
gener osity
Mal colm
defect ive
Pors che
I K
t x
ph ony
Sh in
belie ver
Tur bo
Mid lands
thick er
shut ter
brid al
Sher man
neighbour ing
E van
S age
et ches
ass es
bl adder
De clar
educ ating
emer gencies
flood ed
Dynam ic
Provin cial
b unk
th ou
ib al
hand some
pain s
lack ed
Spirit ual
hack ers
vig il
expans ive
Approxim ately
Bermud a
O THER
st ab
de w
per me
sa ute
Ac cept
four teen
thod ont
Rel ax
plug s
Joy ce
P v
b ots
k ata
ant iqu
18 93
May o
avo red
mis er
Commun ities
embroider y
ᄉ ᅳ
who ever
24 4
Im mun
anticip ation
Termin al
K ING
ad ers
un changed
po res
ge e
13 1
flu ids
Cal if
Bab ylon
terror ists
paradig m
D art
U til
ro okie
ol an
out sourcing
pres so
down ward
different iate
Cr afts
strateg ically
spl end
Bet ty
LO L
contest ed
Pos itive
Scient ists
Alexand ra
pian ist
Ethiop ia
l ays
t idy
the ological
st agger
ch ili
cr ied
serv iced
Un ity
keep ers
aver aged
photograph ed
neighb ours
deriv ative
volcan ic
Z hang
n ano
Re yn
Ro le
hold ings
consult ancy
cin ct
complain ing
laugh ed
S G
S elling
t oured
18 94
clear er
South ampton
facilit ated
P arent
mon ary
Sh ane
Or d
Art ificial
IP S
lit re
barbe cue
O d
R andom
sh ark
gr im
dr ones
here by
head quartered
fac et
27 5
bill ed
Sus sex
resem ble
medic inal
Condition ing
Patric ia
A ds
H EL
an ne
er ia
cor responds
sof ter
pan try
Sal em
Over view
pun ish
Interest ing
myth ology
Manufact urer
UE FA
Fergus on
M use
t ac
t ensions
z hou
med iation
Fr aser
mix es
regul ator
188 9
Cry pto
wrink les
F res
f oul
ag ara
ne on
sur plus
commun icated
fire arms
neg ie
ambit ions
P AT
Z IP
o the
success ive
John ston
Don na
Sl av
izz le
stack ed
osex ual
F ishing
se aling
In spector
new com
Prov idence
Spring field
Rest oration
Sac red
resem bles
2 x
c ues
j og
pl astics
form ulation
explo itation
Program ming
Bre ast
scan ner
Equ ity
renov ations
weigh ed
physi ological
precip itation
D iana
O dys
ins ult
friend ships
viol ated
aspir ations
tempt ed
allevi ate
c ade
d war
con quer
ster oids
22 2
slow ing
Hy brid
greet ing
Pharm acy
tras ound
uls ory
supre me
C ute
F iber
G ren
J E
R ams
w aking
x ic
af ting
dis pose
De e
organ ise
cas ters
sal v
Res idents
pot tery
Hy dr
C OR
S lim
T L
Z ur
v ian
ther mo
co operate
che z
Char ity
fascin ated
G EN
an nex
con quest
20 3
Co y
Ph y
Sat ellite
Sil k
endor sement
Num bers
obsc ure
protagon ist
equilibr ium
A E
w anna
ely n
won t
sl am
sil icone
Ke ys
dream ing
disc s
imprison ment
asph alt
d b
r ud
im perfect
lo ch
sh out
ty re
Con struct
Sh i
tem pting
Te h
flo ck
OS S
extr as
Improve ment
broch ure
E cu
R oc
W yn
l umber
ab surd
In fantry
str ipped
ced ed
Star bucks
Cook ies
exempl ary
Coup on
B oulder
h itch
Re fr
ret iring
Car negie
Arch ived
ba thing
harm less
athlet ics
Ah mad
resid ual
Issu es
synon y
Ub untu
T ables
Y uk
ا ن
sup ers
before hand
key boards
advis ing
Cur tis
degrad ation
l ain
football ers
stress es
Bal let
remark ably
Fail ure
as se
tr ic
ren ts
18 85
Ser ving
13 2
thes ia
Perform ing
rescu ed
W inst
p oultry
ab lo
18 5
real ities
scre aming
FOR M
tempor al
Num erous
confidential ity
enclo sure
H ass
re active
min ed
18 60
comment ing
repe ating
facilit ating
cro re
N U
Dis cuss
entertain ed
Pie ce
Sloven ia
c apped
out ward
comp ile
enc ils
Bo oth
gener ators
vol leyball
AS C
Dis co
Cre ation
territ orial
council s
Fried rich
olith ic
Eleg ant
- $
ne a
ment ors
high ways
Com ic
fil tered
uc ci
oo oo
Architect s
" ?
F usion
wh irl
dis on
col lateral
mon ks
En forcement
AR Y
rum ors
Mean ing
suff ers
un ction
Th ought
sp ans
gin a
Fe e
I z
S UN
De als
Jack ie
Person nel
sha king
conver ts
Richard son
Saf ari
depos ited
GD PR
F en
em e
ign oring
Re ality
fect ive
met re
Fl ip
pen insula
rain e
eco systems
Shar p
oxid ation
Chry sler
Entreprene ur
8 44
E mil
p umping
r pm
y ar
ib u
str iker
del ic
ident ities
13 4
staff ing
depth s
Manufact urers
retro spect
idel ity
Prest on
ignor ance
C Y
is se
ly sis
em it
need les
ific ant
sk a
RE S
IS IS
tax able
entrepreneur ial
Ker ry
G aza
T ED
g ages
h ap
l oun
l umin
л ь
Mar itime
aver ages
question naire
Em my
pitch ing
Mach ines
experiment ing
Sebast ian
X I
ver n
wor ms
book let
At tack
smo other
burn er
script ure
invo ices
C lock
J O
L ut
g own
ᅧ ᆫ
or phan
per missions
fe ared
form ulas
dis charged
ree f
Con tain
New sp
De aler
organ ism
swe ater
bow ling
rac ist
accident al
consolid ated
draf ting
Bald win
atche wan
L anc
Y ama
re x
ot ers
we e
dis covers
inter rupt
au de
Min eral
Post s
advent urous
Fun ny
V IS
c ision
den ying
AR M
Austral ians
LE ASE
collabor ated
Where as
survey ed
Rh ine
Dynam ics
Gard ner
b ending
l us
ar ma
bor g
AT M
23 2
paren tal
entire ty
cry stall
prop het
Sym posium
Lithuan ia
D ish
r ous
op sis
res cent
get away
ater nity
Wor cester
Bu zz
scal ing
IG H
George town
hur ricane
occup ational
G it
L ily
e ater
r iate
is te
20 4
ub iqu
water fall
RE AD
ON G
According ly
partner ing
Him al
strengthen ed
! ,
+ /-
p interest
re union
ib us
custom ization
13 8
Distr icts
outr ight
antioxid ant
c ate
g utter
p end
id ol
ig ible
commun ist
My th
ref urb
Mod ule
Print ing
dil igence
Sask atchewan
c ite
v ague
ph ants
fl own
team ed
Br as
13 00
spread sheet
defend ants
Juda ism
K re
K erala
L TE
k ov
u h
z ie
am munition
ak y
cr ative
sa urs
Be ast
El k
Cam ero
habit ats
uni forms
Marr iage
K os
W heat
W iki
en ic
el ia
sho res
crit ique
atter ed
amazing ly
capac ities
fabric ation
Pack ers
craw l
Jup iter
E y
X i
in ational
un predictable
Ch ennai
pre aching
down stream
aul ty
station ary
visual ization
tact ic
omed ical
cultiv ated
immun ity
Ident ity
D addy
an ia
ad ian
ell es
St ress
integr ates
affil iation
Chair s
manip ulate
2 d
3 40
pl ush
ty po
Br an
devot ion
Progress ive
Goth ic
repet itive
O mega
g art
pur se
sed iment
mod al
psych iat
AA A
borrow ing
thir teen
Tibet an
F t
j s
s no
or naments
st aging
ch ampagne
ow ers
jer seys
exempt ion
Rav ens
nephe w
L af
T ales
Y out
t ended
ain ted
De er
Ac counts
sl ipped
Val id
E VERY
T ail
V ul
v ik
et ically
con stell
uk u
preced ed
Cabin ets
ecolog y
Vin yl
Soph ie
Q C
S ang
U W
in famous
mo dem
Pro of
But ton
Lo op
tra ject
assist ants
sle pt
cul iar
aqu atic
Brew ing
LIM IT
Ecu ador
T IME
h ated
s ir
Al ready
18 67
show room
cook er
favour ites
embr acing
combust ion
f ares
re vital
ant agon
ben z
Lat ino
gro ove
Monitor ing
fac to
deep est
Gl ou
jump s
casual ties
cav ity
spokes person
N K
i ott
al tar
mo sque
me ats
St afford
ath i
Con go
18 40
Ex plain
Aur ora
p its
um ination
over lap
spe eches
Bas que
Real ty
tall er
glow ing
rebel s
2 14
cl one
cl ergy
ber ra
ref usal
viol ate
sad ness
wick ed
B ast
B ates
M VP
come back
lear ner
analy se
pup il
gene alog
brack ets
rebell ion
Mey er
itiner ary
N iel
t ilt
res ser
sp ider
For ms
Lo ren
exp ands
sw ana
Wal sh
confir ms
Martine z
S tructure
c of
om as
tr on
che at
mot to
Qu inn
Cont roller
Pass ion
pod ium
chick ens
T rent
e commerce
е н
re places
ter med
ul atory
lect ic
pop ping
key note
wa iver
Park inson
preci ation
ju ices
fundament ally
H ull
K ab
n in
st ical
he ck
ill on
Mass age
sink s
Tal ent
Suppl ier
anatom y
K ra
l one
en ame
law suits
AC S
fre ed
Congress ional
dent istry
hier archy
K athy
S und
W iring
St uff
bal d
Organ isation
demol ished
Kle in
austr alia
L F
L ob
O g
P K
л и
ag ging
reg ression
por celain
Ad min
Dr ivers
cat astro
astr onomy
accomplish ment
Clar a
B rett
b b
Con ven
clo cks
IC C
contract ing
Church es
** *
Dream s
Chang ing
Recruit ment
( -
5 70
R hy
un healthy
by ter
ind em
ass ay
ib an
Re agan
pol ite
rop es
Me gan
ritual s
scop ic
eros ion
N orton
es es
As set
fam ed
Can ter
ago on
email ed
aver aging
Class es
Bas ement
premier ed
preval ence
c els
un stable
inter disciplinary
ship ments
sk aters
bre wing
exam inations
pain ters
Min isters
labor atories
penet ration
comfor ter
ivir us
K ot
we ave
Com bat
Gr id
13 7
yl um
Full er
kins on
Legisl ature
Liby a
W ade
ᄃ ᅬ
re visions
al us
em aker
ten e
IS P
Au th
gro ve
lu crative
entrepreneur ship
embod iments
Santi ago
Glou cester
is i
ab us
ins ane
Ex ped
state wide
Ph an
Dis c
question able
hat red
Talk ing
locom ot
d um
ent a
be ad
iv ial
end ars
My stery
aff iti
heat ers
Tor ah
Sand ra
C ush
P LA
all a
Can berra
stat ues
effort less
lam inate
voc ational
inject ed
rul ers
br unch
An chor
min ers
understand able
Ref lect
harvest ed
biz arre
B2 B
C LE
p om
p uff
on o
pr ere
af fe
En t
Br om
dep icts
story line
prim er
Ty pes
Tim ber
resid ences
mattress es
Argent ine
Phill ip
memo ir
Gent le
carbohydr ates
t ents
as bestos
cl amp
Ro ads
50 th
equ als
exp ire
protect ions
inform ational
l ust
s burg
se greg
un related
pl anners
text book
Build ers
comed ian
nons ense
( ;
R ex
w att
ch uck
sh an
sl aughter
Europe ans
Dav ies
Frank furt
mel od
Declar ation
L eno
wh istle
con cise
op pose
ell s
Br ide
14 9
Je w
Penn y
Liter ary
Nik on
Trav is
Slovak ia
scrut iny
2 b
V III
c itation
g gy
ot to
20 30
ok u
Ex tract
AT ED
six teen
nut rit
collabor ating
surge ons
bil ateral
epid emic
Tanzan ia
B is
p id
es presso
su ction
fol iage
share holder
vari ance
dest iny
sco op
cancel ed
Fro st
Natal ie
G um
U G
k am
re actor
ent e
ple a
az er
di arr
transl ator
minimal ist
Bag h
digest ion
Cow boys
Cars on
congest ion
W ise
d ine
ld og
In spection
Rock et
enhance ments
Hear ing
Mig uel
2 A
re cycle
lo af
ul ators
li abilities
bod ily
pop ped
25 5
Ste ps
War wick
Coast al
phenomen al
C ours
t id
tr aced
ell ites
ob server
stain ing
R over
R PG
X ia
c coli
d azz
pr istine
ters on
bre eds
Mar ian
mult if
Even ing
cycl ists
Tor res
jack pot
Lux em
pear l
Elli ott
al ot
tr aps
let tuce
Se al
Pr airie
mit es
grad ient
Am bro
TH ING
super natural
Most ly
calcul ating
Revolution ary
Morris on
B uc
B ella
a an
re public
en grav
Br illiant
Contract or
I vy
n bsp
pro state
bo iled
mot ions
Sal on
Bel ize
B D
f aint
s iding
v re
res umes
bl iss
hum our
Er nest
umber land
blank ets
M ama
ur gy
oc ular
sun rise
har a
Bud dy
asp iring
Dor othy
irrit ation
3 80
J ets
J ung
f fl
in sure
ger ies
Per man
gather ings
Son ic
Integr ation
resur rection
nucle us
inte ger
liv elihood
Holo caust
4 40
we eds
fun nels
sol der
Be en
fort ress
benef ited
price y
Tur ks
truth s
188 4
compress or
Must ang
restr ial
Wit ness
Qa eda
Gujar at
D il
E ph
T il
m ails
Un cle
Sur rey
hur st
mel ody
Ha iti
Mah ar
Apart ments
pione ering
receip ts
Pharm aceutical
stair case
nineteen th
M atter
c ider
pl ural
fl ames
rel ieved
Be a
ery l
Vict ory
Tre vor
deck ing
Contract ors
Comb ined
subscrib er
N il
ac creditation
com post
str ives
Man ila
igr aph
Ret ire
UT C
Creat or
Gree ks
twist ed
deliber ate
Trib une
antioxid ants
Neigh bor
E u
N ig
20 6
fe athers
spr inkle
pal ate
fabric ated
B ound
od le
sum mon
super hero
mut ually
dispos able
Vat ican
G ifts
S ail
b ons
g ren
le vit
pro g
over weight
Se oul
My ers
insp ires
Under ground
Brown s
gian ts
cultiv ation
wand ering
Me at
Em bassy
grant ing
HT C
sul fur
Citiz ens
aston ishing
A mp
B id
р и
em powered
ca th
estim ation
Wil der
Flo yd
cab ins
Promot ion
rhetor ic
R Y
S print
w ik
il ight
ir relevant
cre st
Ar lington
redu ctions
Sign ature
inspect ed
knot s
Aware ness
L IF
el bow
un safe
pro portions
we aving
Dem and
Sw ing
rap per
Social ist
inhib it
condem ned
k r
с е
ar che
Ch or
ung al
confir ming
replic ate
Cay man
Constant in
K enny
f aulty
k ale
l ash
with standing
Sh r
Col a
specific s
Del uxe
pitch es
Ag ents
Mes a
Spl it
Jewel ry
G ly
at able
ve ins
su ed
In stitution
their s
bl amed
read able
high s
water front
announ ces
manage able
Try ing
Les lie
Apart ment
Dipl oma
Yout ube
w il
en ers
en quiry
mo vers
mat te
tar iffs
text ured
San ct
separ ating
Alex a
fro g
congress ional
impair ment
Pau lo
lizz ard
Compreh ensive
b ids
tr out
gr acious
Pro blems
click ed
Har vest
depart ed
syn d
lean ing
Enter prises
Guatem ala
C ater
N ames
and ro
val leys
Col leges
mill ing
Med ieval
Sal mon
attach ments
compreh ension
split ting
shar pen
accum ulate
rep ent
reper toire
5 12
M OT
S AN
in consistent
re payment
am us
ur anium
ex trav
Mar ion
flow ering
bi odiversity
bum per
Elect ro
Warr anty
lav ender
f ibr
s sy
el iness
im er
ag s
em i
fl ora
14 7
ster oid
prim itive
mention ing
gym n
divor ced
Sud den
testim onials
l aps
wh ip
sub stitution
sal sa
six ty
feed er
commercial s
Power ed
Ham pton
shel ters
accus tomed
Host ing
inherit ance
D X
M ens
d up
d iocese
Sh irt
graph ically
quot ation
97 8
indu ce
Brad ford
harvest ing
A gu
g ur
dis mant
ile e
ins urer
Bo om
Sh aring
Col ors
hist ories
frame works
collabor ations
km 2
Ca use
Mix ed
Decor ating
flaw less
O ber
R ANT
ᄃ ᅩ
er ad
15 6
la ure
film maker
progress ed
rac ed
Thom son
Pione er
( #
E k
P ra
S ind
w p
mo graphy
her d
Co ve
special ised
Wood en
ien ne
chat ting
Consult ant
vacc ines
Tren ds
fluff y
E stim
d ire
l ang
o ceans
t apping
str at
dr ip
good ies
Bro ken
shut down
Rou ge
romag netic
Ply mouth
P aw
d c
at r
it ud
Ch el
off ence
Ser ved
sum mers
Hen ri
Doc uments
Fal con
saur us
expir ation
Reyn olds
in box
om bo
ac ao
part isan
present er
aud ition
Bol ton
fraud ulent
Fel ix
stimul us
2 16
M oun
к и
dis co
Or al
ances try
screen shot
Mc Car
complex es
cel lo
Pet erson
188 6
Kno x
stub born
P BS
T aste
d ives
en forced
per m
mark ings
ref using
travel er
sole te
tack les
dict ator
Cole man
Drag ons
abbre vi
Winst on
b anners
im posing
Ex it
Res idence
mid t
Ver izon
Aud it
prison er
Sav ings
cum ulative
voy age
Suppl iers
cros sover
H Y
P air
y u
it ous
le ases
ag i
pe culiar
cre ek
ling er
Ho le
CO L
Rel ief
toler ate
revers ible
as ian
comp ulsory
ail le
sy ner
ob ia
Gu ang
roof top
format ting
Sign al
188 1
Report ing
pert ension
indul ge
K yo
L omb
Th ir
ev o
Bl an
prote ctor
TV s
Cour ts
sweet ness
H mm
R iley
a S
de eds
Br ands
graph ies
Sun set
similar ity
facilit ates
E ating
M ae
w ifi
us k
un conscious
co venant
ak o
dis crete
Br ass
Bl vd
cult urally
Sp end
Str at
wid ow
Spr ay
visual s
cris py
Invest ors
pig s
Prin ciples
Pere z
D W
j ets
m ansion
news letters
ba um
fly er
carbon ate
cow ork
pse udo
expend itures
G Y
G s
н ы
an cer
is cher
it ating
br al
He aling
Al ps
sol uble
At tend
school ing
appe aled
mail ed
Card inal
Dec ision
alter ations
din ners
Holiday s
L iv
N ile
P es
ur gical
ge ars
book mark
slow ed
Sav annah
Deb t
Spot ify
Zo om
stum bled
' )
S od
en see
In cluding
Pl um
13 9
method ologies
Business es
nomine e
over see
cu lo
Qu otes
coach ed
blood y
Pres byter
drain ed
Transl ation
coron ary
P est
ad ors
pe aked
fl akes
Sto res
ipe g
embr y
gad get
Uplo aded
U FC
k at
t aper
Cr an
Eng agement
Char ge
valid ated
Fun ding
Employ ee
C airo
H es
R L
s omeday
en ment
18 68
Her n
80 2
regul ating
Success ful
reson ance
lifes pan
R ates
an them
re cl
ar tery
ber ger
Par ade
Mark s
divid ends
Hard y
H ond
K atherine
V T
j it
on er
sp onge
Re wards
US DA
24 3
inc umbent
Her ze
Air ways
Russ ians
consult ations
gut ters
maj ors
mb H
tuck ed
cathe ter
A in
ag grav
che w
15 2
AN C
Dev ices
Cook ing
Tun is
UC LA
Smo oth
5 mm
P itch
о n
ab used
lo om
su ck
10 am
18 76
pop ul
Bar bad
29 0
liter al
beginning s
counter part
Fac ilities
A po
h id
am ar
bu ys
sub marine
list ener
syn tax
reflect ions
batt ling
Palestin ians
ballo ons
hect ares
nause a
Yama ha
K ad
W im
f ret
wh ichever
ant ics
sel dom
fast ing
apolog ize
Alumin um
attent ive
Canter bury
ed ible
ep t
back ward
Con grats
pass ions
Pol ar
susp icion
Mol ly
Rick y
Appe al
L aud
P IN
or ch
Ne g
My SQL
13 6
IC AL
Law n
pul p
tu ber
Fac ility
Print able
Pers pect
Lor ds
P itt
R ack
T ill
p am
t ig
om ic
are z
ag og
og ens
cur ing
New man
tem po
ST E
Rich ards
tun nels
Access ed
Epis copal
descript ive
O aks
i able
pl aus
place bo
ey ed
40 4
IC ES
Arch bishop
Jud y
Pass word
resid ue
GP U
convey or
Kazakh stan
B read
ob servers
top ical
ble w
har i
fing ert
commission er
amb ia
WAR RANT
Prop het
C yn
L ift
O ma
н е
Ac cel
Pur pose
I ke
id le
co aster
comm ute
Mo or
sto le
ones elf
oblig ed
squad ron
attain ed
s addle
w yn
es que
dis advantage
down time
ec lectic
borrow ers
Cott age
B out
G one
M 2
b umps
l ump
т и
ᅡ ᆫ
od s
ev id
group ed
graph ers
ref ine
mor ality
prevent ive
divid ing
Ide ally
Contin uing
F IR
l t
wh ales
ty res
Ro ot
cler k
a ults
o i
r r
re calls
de aux
inter cept
ix ie
dep icting
Power Point
Hu go
snap shot
Nap les
Publish ers
Hua wei
B ash
P ipe
g love
s ib
le uk
iz a
17 4
symp athetic
Sl ip
alter ing
intu ition
parad ox
spher es
Sig ma
Conver ter
Swim ming
L B
pl ague
ous ers
ign ition
man ic
Sch ne
hur ts
entr ust
consci ence
cultiv ate
ampl ifier
Diabet es
Cours es
G mbH
N OR
ur as
ag iar
fin ely
mon key
Bo hem
Co vent
valid ate
warr iors
brush ing
brush ed
pup pies
Rab bi
Pix el
4 30
O y
R anger
e ats
en act
ap est
cr um
inter mitt
stall s
recess ed
Honest ly
F UN
s aints
ep s
reg imen
sub set
Bl ade
mission ary
mar in
meas urable
AM A
emphas izes
Haw ks
Georg ian
Serb ian
demol ition
GRE AT
Wend y
coher ent
Winn ipeg
the orem
st am
om ics
ob session
app ers
Se ems
Dr ink
OR Y
War ning
tor rent
battle field
188 7
actress es
gov ina
Hear ts
silhou ette
F ib
H ag
H IP
n ay
re ts
stand alone
18 30
recomm ending
AD D
Whe els
predict ive
hack ing
benefic iaries
Krish na
P ond
V ed
W AT
g land
al ley
st aring
im proper
tr ance
ill umination
gr a
iz zy
ins ky
Ar row
vulner abilities
B ert
ch unks
un even
con str
18 79
sim ulations
sk etches
Sh ares
broad casts
chem ist
wid get
ru ined
counsel or
abol ished
Rol and
implic it
Dim ensions
Roberts on
cham bers
B AR
C ats
us ability
if fer
spec imen
recogn izable
lan tern
spark ed
profic ient
G ad
g ol
t о
en amel
qu ails
Ch ess
We alth
Red uce
youth ful
lod ging
esty les
dedu ction
Eston ia
( '
1 B
G ather
R is
pro ps
ik ed
text iles
Str ike
Appl iance
prol ific
D ang
K ara
M ing
t asked
it ant
per imeter
Be come
imm ensely
symp athy
constit uted
consequ ential
bread th
vocal ist
permit ting
BU Y
traff icking
b ible
ab ide
red emption
fol ios
ste ward
den im
Fam ous
Bas el
digit ally
Volunte ers
B ret
H ank
in tra
ex posing
program mer
Qu ar
EN CE
Stat istical
rans om
J ol
\ '
c z
up front
ins ign
14 6
dest ined
Str aw
minor ities
contrast ing
diabet ic
Bot swana
imprison ed
S ITE
d it
can ned
cho col
car bs
hy pe
Qu ery
threat en
detect ing
unexpected ly
juven ile
turb ine
McCar thy
A J
il ateral
ex ile
Ch ick
differ ing
Cl im
aper ture
Pat rol
Super man
Satur days
Ver non
jun ct
straw berries
S aving
т а
ro v
pr ic
14 3
und a
AN A
Cr us
Dis ability
Inter state
distribut ing
secret ly
cab bage
Sit uated
conting ent
C LA
18 71
thor a
crow ned
frag ment
stitch ing
Rap ids
E ra
R 2
i ages
m apped
n ier
w izard
un c
um er
An at
ob jection
car n
different iation
mus cular
PC B
quir ky
188 2
Lex ington
Vik ings
D ais
N ed
e ur
in se
res umed
Ch op
pres idents
cal f
met adata
11 00
sat ellites
List ing
replic ation
cosm etics
endeav ors
Dim ension
comfor ting
apprais al
Herze govina
S z
un paid
un acceptable
de ed
ip el
enc aps
under gone
Br ien
Go al
sou ven
Bud apest
scan ned
Chief s
LED s
orches tr
Bever ly
spont aneous
nutrit ious
C AL
am ics
ig ator
ist ing
ass im
less ness
En sem
cap ita
Act ress
Hol low
Sing er
reci pro
Pract ical
Fern ando
Compl iance
eigh teen
G es
H ast
p add
th inner
he mp
ct ica
app a
18 75
Su ites
Ab ility
conduct s
push es
radio active
HO W
Bed ford
Graph ics
navig ating
nois y
h ut
to lic
for ged
ab rupt
per ing
Th irty
complet es
Mon key
Cr ist
Will ie
rain s
rock ing
ov sky
psych ologist
anth a
Share Point
Ferr ari
Aub urn
I p
at l
it iveness
play back
after ward
Con fl
Coun tries
social ist
Fl av
instit utes
shar ply
ogen esis
Bah amas
bou quet
sovereign ty
Nex us
I sh
T ir
U ru
Y el
m ason
ac ia
em boss
comp elled
Mor mon
Sub scribe
nur ture
remind ers
borrow er
Ku wait
poison ing
A 4
v ign
id ian
iv able
od us
ins ol
ext inct
30 5
ale z
ov ich
flat able
Run ner
ett i
aggress ion
Lif etime
Bloom berg
Maur ice
Aristo tle
m ash
л е
ag ua
mer its
don ating
kn itting
econom ist
Mon ter
squ irrel
vac ations
Hom er
kil o
laugh s
cav alry
L ayer
S ene
re building
ig ently
port ional
17 6
AS P
manufact ures
trust ee
cry pt
lov ese
drain s
wre ath
ogene ous
Exact ly
B iz
V era
® .
ans on
dis placement
ale igh
pod casts
Malays ian
Bry ant
philosoph ers
H ash
M bps
s way
ver dict
over look
Ar bit
real ism
fire wall
skin care
O blast
br aces
Ar abs
30 3
pop corn
mind fulness
contract ual
novel ist
fro st
insight ful
rib s
Cle ment
cous ins
Franco is
Occas ion
S ight
pro poses
con es
24 9
Brit t
Dis k
young sters
Sch war
fuel ed
Hor izon
Haw k
Motor ola
empower ment
bother ed
embroider ed
splend id
C NC
V on
V ale
un lawful
dis gust
Ph ones
Cor rect
store y
iff any
surround s
dream ed
Bur k
Fore ver
188 3
pip ing
Kim ber
Dist ance
teas poon
skept ical
Bullet in
Revel ation
H itch
and ra
cr ane
str iving
cal iber
che ating
cons on
screen writer
mort gages
Pod cast
thro tt
Benef it
mush room
L iam
M ons
R U
d op
re plies
ic illin
le aking
der ive
Ch arm
land lords
18 66
26 4
Mer cy
scar f
enthusi ast
Quant um
B aj
K ang
L ub
re pt
al monds
ad h
two od
ys on
grow ers
Lo yal
mis use
Ev a
brief ing
Veter inary
Spect rum
G RO
P rel
est ates
To ys
Man age
Sun ny
Web ster
psych iatric
Arab ian
curren ts
persu ade
Orient al
refurb ished
G au
M IC
R if
g it
op ting
ide als
inter med
che on
30 2
depend ency
23 5
AP Is
FO RE
Syn drome
D 1
J ury
R IS
T uc
b uster
d ling
r ik
w rench
fore closure
Ser ial
Lo ad
ben ches
Res ult
touch downs
vine yards
Moham med
d B
en lar
Th read
ack ing
enc ers
rest or
wood land
scal able
robot ic
Beat les
adm ired
Marr iott
dilem ma
D AM
K op
L INE
v ase
to po
ap ist
Pr iest
saf est
Inter face
illustr ator
Van ity
flash ing
Alban ia
Re bel
call er
Car p
AP A
acqu ainted
investig ator
mel on
sight seeing
invent or
up stream
land marks
Ne ill
Tr iang
lim bs
sem iconductor
grab bing
desc ended
heaven ly
Veh icles
conqu ered
Griff ith
D ir
S ach
en ch
iv ar
ome ga
Ar bor
Br u
stat istically
Har ley
Under stand
DO WN
Kol kata
Mole cular
f uzz
r er
r ite
in accurate
with drew
lo id
ins ulated
Ad apt
ran o
Cas a
Guarant ee
W ander
z ombie
car ving
program mers
turn around
Water loo
fool ish
reimbur sement
Recomm end
abdom inal
sincer ely
in correctly
St yl
add icted
cal ming
ext inction
Co ca
class y
mult inational
vari ability
err ies
LO W
rang ed
Vo y
Tal iban
Rent als
O le
p iles
sp ike
str ands
dis position
ens ing
inst ability
test ament
oph one
pert inent
subsid iaries
Whit ney
ᅧ ᆼ
as ylum
read iness
ier a
ST AR
scal ed
Develop ing
Trust ees
Ag ile
ATION S
Langu ages
frank ly
Resist ance
re productive
tr ivial
Th ames
not orious
cr aving
pre cautions
St ro
ins cription
Ex clusive
Bl end
Mat rix
scratch es
lip id
prev ailing
Ce cil
I dol
t iger
un believable
ul trasound
if fe
Se th
US S
Ph en
und y
mas cul
Gre ene
oph il
comput ation
profic iency
. (
B rock
V et
m able
z h
st ark
ur istic
In ver
Ar tem
Tr acy
Ex terior
direct ories
24 5
crib ing
lyn n
Cham bers
V EL
u id
ind y
br as
Sh an
Christ ina
transport ing
Ter esa
Land ing
Bol ivia
iph one
fundr aiser
levit ra
P ing
b ard
ur ging
pro testers
ok s
18 73
gener ously
bi op
LE GO
Ret ro
Top ics
Wars aw
Beng ali
Celebr ation
LT D
Jen kins
Rehab ilitation
A mal
J R
J unk
gr aft
des ks
Mar l
God s
autom ate
Top ic
Hart ford
fertil izer
Lap top
crick eter
pestic ides
Refr iger
Camero on
Oma ha
se in
tit anium
ordin arily
vit ality
indu cted
Warr ior
oty pe
Colon ial
deriv atives
calibr ation
orb ital
Luxem bourg
L ets
h s
at ine
en stein
pro portional
dis advantages
18 74
16 9
sof as
review ers
Comp act
Histor ically
Recogn ition
whit ening
pivot al
Gonz alez
T ropical
ᄉ ᅮ
su e
ant ip
In put
ge ek
Ne eds
eng ages
Tr in
Bl anc
sc iss
TO P
sin us
c ud
in spector
out patient
ph i
AS A
nov ice
tele com
imm ort
vill as
Fre eman
Pract ices
Rol ler
WO W
astronaut s
6 40
? .
B ills
B har
M TV
ar at
le thal
op ers
ib ia
Re ef
18 78
soci etal
Str ange
sauce pan
caps ules
appre h
quo ise
Sax on
forb idden
B anner
h ra
il ian
ab ort
ul sion
oc ative
All ison
ric ular
Qu ote
lock er
Mur der
Pen guin
defend ers
Tit an
brew ery
broker age
loos ely
A val
t ly
ic iary
ill ac
inter sect
cal ib
jo hn
post pon
head set
Gu in
acqu aint
remind ing
Sof ia
wis ely
hall way
tub ing
horse power
flood s
Vi agra
amid st
Retire ment
B rent
K K
W ays
d ell
or nament
to os
pro se
ple thora
ob solete
Fr i
bag gage
BI OS
commod ities
pointer s
troublesho oting
Uru gu
G run
H H
P ension
V id
s ley
ge ons
We i
med iately
sm iled
Antar ctica
Thous ands
" [
A es
D iocese
e Book
p ony
app end
cap es
oc ide
class mates
ground breaking
AT T
Ed gar
skin ny
na ive
Great est
fa ults
Ele ments
cha otic
refund able
Crush ing
B ian
B EL
W ii
b ble
cor related
Cl aud
cell aneous
purch aser
fig ur
chlor ine
inser ts
coating s
amuse ment
6 000
D ino
as certain
iv ory
af finity
back bone
Man ning
Bar oque
cir cus
final ists
bot anical
stream line
LE T
Spe ak
homes chool
Vol vo
foreign ers
Adv ice
subsid ies
cosm ic
addict ive
N inja
is ations
ul er
sm ug
Ad ults
iter ation
fair ness
Mod er
Pay ments
Bul ldog
Ly on
B 1
E du
G orgeous
L ear
m ak
n en
o ily
20 7
20 25
man ned
fl avored
ele phants
Tre es
intr insic
lever aging
Trail er
dys function
paragraph s
Recomm ended
bip olar
A FC
H BO
ty ing
ater nal
Con sole
sub ordin
San chez
Sal le
MA Y
bass adors
conce aled
Ni agara
Lud wig
Gand hi
Zur ich
+ ,
5 pm
G inger
I con
le igh
od ka
pre fers
vel vet
Pr icing
Fin als
SE T
cloud y
tough est
Incre ase
mito chondr
v ans
sh in
sp acing
ink i
Re in
por a
16 4
win ery
mit igation
Im mediately
Er in
Libr aries
spiritual ity
Ut ility
Gran ite
Cau cas
Craw ford
pne um
G ian
H utch
M ENT
Y ah
k ur
p arch
co hort
SP E
Light ning
sha w
absor bing
cub es
Opportun ity
P avilion
g uru
se pt
am al
min ent
requ is
Com position
sur geries
15 7
stream lined
Ang ola
eth ylene
micro soft
hi jack
Spring er
Sign s
Sug gest
G ut
M uk
N ano
T ire
p aw
r t
in ars
in quire
Th row
af il
Tr ig
stat istic
Sub aru
susp end
Need less
shr ine
glu ed
Categ ories
Answ ers
P LEASE
qu int
lect urer
14 8
Sho ck
Raj as
straw berry
Strateg ies
Sym bol
Detect ive
V ibr
es oph
ag as
ell en
lab elled
Che ers
fa una
ato graphy
X en
ter t
tun a
honor ary
Fran z
neat ly
Isa iah
dialect s
Bent ley
Stra ight
Bagh dad
D OT
Y un
і n
the e
ci us
system atically
Sh ift
Jo ey
tow ing
Gu ides
23 7
El vis
bott led
enrich ed
Inspir ation
Achieve ment
F unk
Y ep
a quarium
f en
z oning
an not
ch el
ere ct
so aked
des pair
fin anced
15 1
Fl ick
cup cakes
tack ling
Brun o
Vent ure
Graph ic
arom atic
3 70
B ard
s igh
sh ines
reg iment
alk al
17 7
IN CL
Sy mp
Po le
track er
ministr ies
winter s
vit ro
Sem i
DVD s
chor ds
Aqu a
Appro ach
Alger ia
V 2
V ander
y ah
м а
In clude
bl ers
cons oles
pol ishing
Is ab
16 7
priv at
Read ers
modif ying
> .
C ly
N ER
m ies
ot ation
fr an
tim ed
ens ible
cons ortium
Pl ato
Lo ved
profess ions
14 00
hom eland
dent ists
Collect ions
dimin ished
Instru ments
C BC
m ia
ac ha
ut a
sp as
14 2
cop ic
anim ations
advis es
Tour ist
Jul ius
terr ifying
inject ions
todd lers
( .
H els
M k
R eno
f als
g ums
re members
wh ipped
so ber
pr ag
trans forms
got ta
Car lo
text books
sequ encing
PC R
ais le
Ref uge
Appl icants
Presbyter ian
5 10
m ast
and em
co sy
work sheets
Al to
hum orous
23 1
mid fielder
glo ssy
plant ation
influ encing
Web b
Dan cing
agree ing
Int ellect
Prov iders
Mos s
inef fective
D ong
H ers
T ucker
CH O
Sil va
butter flies
insert ion
? ).
K err
in active
of er
dis like
top es
hand held
Nor wich
OS E
trust ing
hur ting
S aid
T iny
v pn
un employed
As sum
cal endars
planet ary
Rome o
acknowled ges
ambig uous
nas al
maj estic
Suf folk
V 8
en ko
ro bes
mo or
gr in
18 72
Cl iff
ars on
speed y
correct ions
Cam den
hop eless
pray ed
publish es
Cat alan
moun ts
Bah rain
reconcil iation
Jagu ar
Require ments
D ixon
G ER
N FC
W ings
k or
al um
ment ality
comp iler
mer cury
into ler
Se qu
Ex pression
ax i
rest ed
17 00
pred ators
solid arity
Back up
entit le
Dam age
hob bies
Ext ended
embark ed
sevent een
2 11
O G
n aut
in comes
per sever
up scale
bo ating
ace ous
sol vent
Be ef
De co
tw ists
mal aria
rac use
trigger ing
Lind say
Jacob s
Shir ley
persecut ion
physic ist
" :
4 60
5 G
t ug
v ines
re inst
High lands
ban anas
bab a
mand ated
Autom ation
volunt arily
cere al
catastro phic
culo sis
al pine
he it
em inent
Or th
Sc roll
vert ically
SP EC
Ensem ble
M erc
W WE
j al
s crip
с а
in mates
pl agiar
just ification
fore see
World s
Mac Book
refresh ed
bran es
imagin ative
righteous ness
7 47
B old
ı k
ver ts
act in
ass uring
par amount
post age
Go re
def enses
Cur ric
Bron cos
F ah
S X
l ure
p istol
tr ousers
Tr im
eas ing
team mate
swe ar
Trans form
Invest igation
inher ently
Stre ets
Streng th
* ,
C ube
h ue
ign ment
bl ower
Ne al
la us
Lo ch
Gu ess
indic ations
HO ME
Parliament ary
drag ged
inhib itors
Ports mouth
fingert ips
H OT
ᄅ ᅵ
Ch ance
New found
Sh ab
At tr
14 1
Euro pa
Mon o
North western
explo ited
Gl ory
sn ug
consult ed
Ant ique
Es cape
sail ed
gentle man
ske leton
Constit utional
F os
H uff
K M
p iston
s izing
v ag
is le
ot rop
Re cording
Pl umbing
Tun nel
Collect ive
regener ation
Leno vo
Barbad os
Rajas than
+ .
E Z
F on
N ING
r ude
р у
th yl
re design
ar ra
ch ini
ot ine
so aking
po etic
cl iffs
port folios
ting u
att ire
power ing
establish es
rival ry
intrig ued
mathematic ian
c ased
w ary
id as
wh ol
De posit
bre wer
que e
Go als
shop per
resol ving
5 40
F arms
O pin
o eu
en rol
ist ro
follow er
trust s
awa ited
boo ster
Veter an
Document ary
bak ery
2 18
F la
g ul
r ipped
… ”
ke to
sal ts
subs criptions
lav ish
fract ure
Dies el
I ber
N arr
P ens
b art
l ur
op ping
cr atic
cor ds
cent rally
ins ider
Ind ic
dist ortion
Pre vent
tor ch
pred icting
0 x
K ok
O man
P each
V W
l ite
n ian
v ivo
th ia
the olog
ap op
sp elled
cr a
str ang
ism atic
joy ful
mission aries
Class ics
label ing
Exam ination
prosper ous
Suz uki
ut an
av i
low s
col lo
He ight
look out
sol ves
22 9
Bur ke
DA Q
commission ing
random ized
Hans en
migr ant
assass ination
M iz
T CP
sh immer
20 s
go ose
cre en
cur se
Le ct
tow ed
sl ick
Act ing
spect ators
fest ivities
DI RE
liquid ity
sacrif ices
myster ies
nurt uring
L AS
M p
T ale
o at
op hon
gr aves
18 77
bre ws
contin ents
special ties
Sy racuse
plain s
host el
trust ees
33 3
Mid land
Int ended
inf usion
Por to
groom ing
R ough
S AS
over haul
18 69
download able
rot ary
feas ibility
Maz da
Fight ing
biom ass
Authen tic
traject ory
2 13
p x
ο υ
re create
el ders
go ats
Cl aims
film makers
Part icular
optim ism
Wol ver
sie ge
Assy rian
Wrest ling
M ET
d led
re produced
ard in
sp aw
sup pression
fac ets
aver n
decl aring
Box ing
Pract ition
G ap
T W
j ava
ᄅ ᅳᆯ
all er
ep ile
AT S
account ant
Mill ennium
Leg ends
guess ed
hub s
pron unciation
iath lon
A Y
N ixon
d ans
j ay
re funds
ar ium
ion ic
ch iropractic
un r
ag ements
che wing
15 4
Dr am
Dis claimer
Off ices
Mid dles
HD MI
vine yard
hier arch
fau cet
w t
back ups
os cope
Pro secut
15 3
Gr af
lif estyles
perf ume
Teh ran
Q B
T F
re pay
as ers
if ty
gr as
ich o
Ro ast
hor ns
Pat terson
omb ies
pled ged
pine apple
Bos ch
acer b
Favor ite
Theod ore
A unt
C one
D iversity
J V
om n
il legally
man tra
St ones
hand crafted
Le y
cy an
past oral
cir ca
sed an
explo ded
swe ets
Sch midt
capt ion
Jer seys
Low e
Lock smith
Dist ingu
Sustain ability
commem orate
Newfound land
R PM
w ald
с о
at y
out going
Pl ains
sl ated
Sc ulpt
Ber nie
station ed
Mal ay
Pan thers
mold ing
engrav ed
L ent
L ORD
N ou
P ag
e the
o ath
el dest
ad as
ur ai
cl ad
br ia
We ap
view point
New ark
Cl aus
sw ings
IT A
roll ers
Her man
advis ers
Show s
bio graphical
Bor deaux
Tran sp
Rol ls
cheer ful
embarrass ing
mig rate
3 35
G W
l aces
ar rog
per y
str ipe
fl air
down stairs
sing led
arm our
chang er
Ap pal
band ed
By ron
AD HD
List ed
neuro logical
simultane ous
Treas ure
strand ed
prejud ice
miser able
Tuc son
re jo
ic rob
ac ellular
ap se
In credible
att i
Sc outs
spect ral
compl iments
decre e
Cast ro
experiment ation
ali ens
Pear son
WW II
opio id
G os
L od
S ne
m ith
en quiries
ic z
ul i
sa una
fore casting
cal e
For get
Co operation
bro ccoli
Black Berry
Inter mediate
Get ty
Bur ger
CP R
Clo thing
Lot us
pub s
Respons ible
M ask
а nd
tr ilogy
ha unted
his to
down hill
ug a
Pl enty
17 3
Car to
aud its
22 8
Ant ig
augment ed
K ia
R ash
l atch
v ain
sh eds
ev apor
Re ver
pol o
Mess enger
Produ cer
P PC
U PD
an ie
st int
ad ject
ag ility
ib i
cr uc
Al ison
Ge or
exist ent
distribut ions
sustain ing
preser v
Human ities
sail ors
UL D
FT P
Chap man
Hunting ton
A OL
C PA
F IL
G UI
f uss
ist les
dr illed
trans itional
distr action
Mod i
origin ating
clin icians
exhib iting
ias is
sac ram
NGO s
Constantin ople
itud inal
R aleigh
an to
for fe
sp un
organ ising
dev iation
Bar ber
rad iant
fire arm
spr aw
attack er
Book ing
SE E
Web sites
Bro ker
terr ibly
immers ive
ambul ance
Odys sey
ipel ago
re usable
he tti
ot ics
af er
fun k
Pre heat
thank ed
volunte ered
Bav aria
excus es
P 2
S tern
W an
W ent
Y ak
j ord
re actors
re structuring
ar isto
ad mits
un ts
ha o
der ives
ich es
land er
sub division
uc id
farm house
auto mobiles
AND ERSON
pon ds
govern ors
Sab bath
ch illed
by te
li z
mon k
lat ency
Ab bott
document ing
Mag gie
Old er
Ess ays
flaw ed
fel ony
adul thood
f ading
Cur ry
proof ing
rhyth ms
toss ed
teles cope
thet ically
Sudden ly
Curric ulum
P ike
f um
su gars
ex tern
Ch ero
Can vas
sen ator
pul monary
mut ant
compens ated
narr atives
Gram mar
milit ia
Secre ts
pud ding
t aker
ı r
ic er
In struction
no ises
ik ini
tar iff
impact ing
vac ancies
bra him
prosecut or
cyber security
Condition er
excur sion
C 2
F acts
W elfare
c ca
he aled
ad en
ut tered
Ch u
15 8
Sh ips
full est
fill er
cook s
counter top
Sha wn
tables poon
vast ly
narr ator
Geo graphic
vouch ers
0 183
6 10
M H
j ig
m ural
ac om
ct ar
ex acerb
ind ict
work manship
col legiate
gl or
IT ION
Min utes
Qu int
separ ates
express es
asy m
flour ish
Crit ics
immers ion
Cin em
Hels inki
D ied
e bay
tr immed
Al ert
arr ison
Go a
25 2
dom est
erg onomic
Syn c
pir ate
adoles cents
Secre tar
J ude
P une
R ings
20 9
real izes
ES A
tur bul
Ve ctor
EM ENT
accus ations
Ident ify
Present ation
shrub s
vom iting
F ont
R az
u mental
л а
ac co
17 9
sho cks
Pe el
tran quil
Bre ed
mur ders
batch es
Kur dish
se ams
We ber
team work
bre aches
project or
hard t
IP A
hear ings
Sup plies
mir acles
Deb bie
Lis bon
synony mous
in convenience
to gg
he et
ch illy
ust le
car a
Sh en
Che vy
hair s
tren ding
catch er
occup ancy
bing o
behavi ours
sculpt or
Clo sed
Harmon y
A 3
c is
l act
re iter
con stru
play wright
front ier
master ed
advantage ous
Log in
Him self
NAS CAR
adap ting
swift ly
B ILITY
L IVE
Y as
h ound
“ .
al ds
fer tile
there in
cond omin
model ed
Mon ument
Reg ulatory
Sm ile
Vol t
disrupt ive
glam orous
Neighbor hood
E states
un usually
not ions
det ained
fav ors
Mc Gr
rich er
Lim it
View s
Boy d
Intell igent
Essential ly
redund ant
diarr hea
A ires
J F
L ES
a erospace
s cars
д е
re placements
ic ides
te k
vers ed
econom ists
Bu enos
ij a
IF F
Dun n
Lic ensed
Less on
phosp h
Incre asing
Occup ational
weaken ed
rehears al
6 pm
D j
p able
x ia
re finance
ag ogue
ser mon
dis astr
ph ire
rel ine
inv aded
local ity
Will ow
ban quet
August us
News letter
Celebr ity
motif s
legis lators
H uge
S oup
T ah
s print
s acks
con sp
con dos
In vit
up take
age ing
br aking
Re ci
hand ler
Le h
Spe ars
foster ing
Antar ctic
lefto ver
Laud er
d io
to fu
ent ails
de vised
off spring
Ne ut
les ions
head board
She ets
heart y
IM O
hydro xy
Dar ren
Mess iah
Spec ies
Nic olas
Naz is
excur sions
G ender
P AC
R afa
Y ay
f ist
un finished
con jug
ha v
fore head
gen etically
22 6
lat ex
kill ers
grocer ies
D EC
T act
T wel
b t
f aded
s add
un locked
tim et
str ay
cer v
gu ild
az ar
short est
sat in
Gl ac
mort al
bomb ard
consolid ate
discard ed
Settle ment
S aul
se ize
ill ic
ud ing
man go
St ret
dif fusion
ax le
cook book
Afr icans
Char ac
promot er
Flor a
eth ic
upload ing
divers ified
amph ib
Covent ry
condomin ium
8 77
T OR
n n
and ing
se cr
un matched
back er
