{
  "version": "1.0",
  "truncation": null,
  "padding": null,
  "added_tokens": [
    {
      "id": 0,
      "content": "[PAD]",
      "single_word": false,
      "lstrip": false,
      "rstrip": false,
      "normalized": false,
      "special": true
    },
    {
      "id": 1,
      "content": "[UNK]",
      "single_word": false,
      "lstrip": false,
      "rstrip": false,
      "normalized": false,
      "special": true
    },
    {
      "id": 2,
      "content": "[CLS]",
      "single_word": false,
      "lstrip": false,
      "rstrip": false,
      "normalized": false,
      "special": true
    },
    {
      "id": 3,
      "content": "[SEP]",
      "single_word": false,
      "lstrip": false,
      "rstrip": false,
      "normalized": false,
      "special": true
    },
    {
      "id": 4,
      "content": "[MASK]",
      "single_word": false,
      "lstrip": false,
      "rstrip": false,
      "normalized": false,
      "special": true
    }
  ],
  "normalizer": {
    "type": "Sequence",
    "normalizers": [
      {
        "type": "NFD"
      },
      {
        "type": "StripAccents"
      }
    ]
  },
  "pre_tokenizer": {
    "type": "Whitespace"
  },
  "post_processor": null,
  "decoder": null,
  "model": {
    "type": "BPE",
    "dropout": null,
    "unk_token": "[UNK]",
    "continuing_subword_prefix": null,
    "end_of_word_suffix": null,
    "fuse_unk": false,
    "byte_fallback": false,
    "ignore_merges": false,
    "vocab": {
      "[PAD]": 0,
      "[UNK]": 1,
      "[CLS]": 2,
      "[SEP]": 3,
      "[MASK]": 4,
      "\u0000": 5,
      "\u0001": 6,
      "\u0002": 7,
      "\u0003": 8,
      "\u0004": 9,
      "\u0005": 10,
      "\u0006": 11,
      "\u0007": 12,
      "\b": 13,
      "\u000f": 14,
      "\u0010": 15,
      "\u0011": 16,
      "\u0012": 17,
      "\u0013": 18,
      "\u0014": 19,
      "\u0016": 20,
      "\u0017": 21,
      "\u0018": 22,
      "\u0019": 23,
      "\u001a": 24,
      "\u001b": 25,
      "\u001f": 26,
      "!": 27,
      "\"": 28,
      "#": 29,
      "$": 30,
      "%": 31,
      "&": 32,
      "'": 33,
      "(": 34,
      ")": 35,
      "*": 36,
      "+": 37,
      ",": 38,
      "-": 39,
      ".": 40,
      "/": 41,
      "0": 42,
      "1": 43,
      "2": 44,
      "3": 45,
      "4": 46,
      "5": 47,
      "6": 48,
      "7": 49,
      "8": 50,
      "9": 51,
      ":": 52,
      ";": 53,
      "<": 54,
      "=": 55,
      ">": 56,
      "?": 57,
      "@": 58,
      "A": 59,
      "B": 60,
      "C": 61,
      "D": 62,
      "E": 63,
      "F": 64,
      "G": 65,
      "H": 66,
      "I": 67,
      "J": 68,
      "K": 69,
      "L": 70,
      "M": 71,
      "N": 72,
      "O": 73,
      "P": 74,
      "Q": 75,
      "R": 76,
      "S": 77,
      "T": 78,
      "U": 79,
      "V": 80,
      "W": 81,
      "X": 82,
      "Y": 83,
      "Z": 84,
      "[": 85,
      "\\": 86,
      "]": 87,
      "^": 88,
      "_": 89,
      "`": 90,
      "a": 91,
      "b": 92,
      "c": 93,
      "d": 94,
      "e": 95,
      "f": 96,
      "g": 97,
      "h": 98,
      "i": 99,
      "j": 100,
      "k": 101,
      "l": 102,
      "m": 103,
      "n": 104,
      "o": 105,
      "p": 106,
      "q": 107,
      "r": 108,
      "s": 109,
      "t": 110,
      "u": 111,
      "v": 112,
      "w": 113,
      "x": 114,
      "y": 115,
      "z": 116,
      "{": 117,
      "|": 118,
      "}": 119,
      "~": 120,
      "": 121,
      "": 122,
      "": 123,
      "": 124,
      "": 125,
      "": 126,
      "": 127,
      "": 128,
      "": 129,
      "": 130,
      "": 131,
      "": 132,
      "": 133,
      "": 134,
      "": 135,
      "": 136,
      "": 137,
      "": 138,
      "": 139,
      "": 140,
      "": 141,
      "": 142,
      "": 143,
      "": 144,
      "": 145,
      "": 146,
      "": 147,
      "": 148,
      "": 149,
      "": 150,
      "": 151,
      "": 152,
      "¡": 153,
      "¢": 154,
      "£": 155,
      "¤": 156,
      "¥": 157,
      "¦": 158,
      "§": 159,
      "¨": 160,
      "©": 161,
      "ª": 162,
      "«": 163,
      "¬": 164,
      "­": 165,
      "®": 166,
      "¯": 167,
      "°": 168,
      "±": 169,
      "²": 170,
      "³": 171,
      "´": 172,
      "µ": 173,
      "¶": 174,
      "·": 175,
      "¸": 176,
      "¹": 177,
      "º": 178,
      "»": 179,
      "¼": 180,
      "½": 181,
      "¾": 182,
      "¿": 183,
      "Æ": 184,
      "Ð": 185,
      "×": 186,
      "Ø": 187,
      "Þ": 188,
      "ß": 189,
      "æ": 190,
      "ð": 191,
      "÷": 192,
      "ø": 193,
      "þ": 194,
      "Đ": 195,
      "đ": 196,
      "Ħ": 197,
      "ħ": 198,
      "ı": 199,
      "Ł": 200,
      "ł": 201,
      "ŉ": 202,
      "Ŋ": 203,
      "ŋ": 204,
      "Œ": 205,
      "œ": 206,
      "ŧ": 207,
      "Ƅ": 208,
      "ƅ": 209,
      "Ɔ": 210,
      "Ɖ": 211,
      "Ə": 212,
      "Ɛ": 213,
      "Ƒ": 214,
      "ƒ": 215,
      "Ɣ": 216,
      "Ɩ": 217,
      "Ɨ": 218,
      "ƙ": 219,
      "Ɯ": 220,
      "Ɲ": 221,
      "ƥ": 222,
      "Ƨ": 223,
      "ƨ": 224,
      "Ƭ": 225,
      "Ʈ": 226,
      "ƴ": 227,
      "Ƶ": 228,
      "ƶ": 229,
      "Ʒ": 230,
      "Ƹ": 231,
      "Ƽ": 232,
      "ƿ": 233,
      "ǀ": 234,
      "ǁ": 235,
      "ǂ": 236,
      "ǝ": 237,
      "ǥ": 238,
      "ȝ": 239,
      "ȡ": 240,
      "Ȣ": 241,
      "Ⱥ": 242,
      "Ȼ": 243,
      "Ƀ": 244,
      "Ɇ": 245,
      "Ɍ": 246,
      "ɐ": 247,
      "ɑ": 248,
      "ɒ": 249,
      "ɓ": 250,
      "ɔ": 251,
      "ɕ": 252,
      "ɖ": 253,
      "ɗ": 254,
      "ɘ": 255,
      "ə": 256,
      "ɚ": 257,
      "ɛ": 258,
      "ɜ": 259,
      "ɞ": 260,
      "ɟ": 261,
      "ɡ": 262,
      "ɢ": 263,
      "ɣ": 264,
      "ɤ": 265,
      "ɦ": 266,
      "ɨ": 267,
      "ɪ": 268,
      "ɫ": 269,
      "ɭ": 270,
      "ɯ": 271,
      "ɰ": 272,
      "ɲ": 273,
      "ɳ": 274,
      "ɴ": 275,
      "ɵ": 276,
      "ɸ": 277,
      "ɹ": 278,
      "ɾ": 279,
      "ʀ": 280,
      "ʁ": 281,
      "ʂ": 282,
      "ʃ": 283,
      "ʈ": 284,
      "ʉ": 285,
      "ʊ": 286,
      "ʋ": 287,
      "ʌ": 288,
      "ʍ": 289,
      "ʎ": 290,
      "ʏ": 291,
      "ʒ": 292,
      "ʔ": 293,
      "ʕ": 294,
      "ʖ": 295,
      "ʙ": 296,
      "ʚ": 297,
      "ʜ": 298,
      "ʟ": 299,
      "ʤ": 300,
      "ʧ": 301,
      "ʰ": 302,
      "ʱ": 303,
      "ʲ": 304,
      "ʷ": 305,
      "ʹ": 306,
      "ʺ": 307,
      "ʻ": 308,
      "ʼ": 309,
      "ʽ": 310,
      "ʾ": 311,
      "ʿ": 312,
      "ˀ": 313,
      "ˁ": 314,
      "˂": 315,
      "˃": 316,
      "˄": 317,
      "˅": 318,
      "ˆ": 319,
      "ˇ": 320,
      "ˈ": 321,
      "ˉ": 322,
      "ˊ": 323,
      "ˌ": 324,
      "ː": 325,
      "˘": 326,
      "˙": 327,
      "˚": 328,
      "˛": 329,
      "˜": 330,
      "˝": 331,
      "ˠ": 332,
      "ˢ": 333,
      "˥": 334,
      "˦": 335,
      "˧": 336,
      "˨": 337,
      "˩": 338,
      "˭": 339,
      "ˮ": 340,
      "˲": 341,
      "˹": 342,
      "˺": 343,
      "΄": 344,
      "Α": 345,
      "Β": 346,
      "Γ": 347,
      "Δ": 348,
      "Ε": 349,
      "Ζ": 350,
      "Η": 351,
      "Θ": 352,
      "Ι": 353,
      "Κ": 354,
      "Λ": 355,
      "Μ": 356,
      "Ν": 357,
      "Ξ": 358,
      "Ο": 359,
      "Π": 360,
      "Ρ": 361,
      "Σ": 362,
      "Τ": 363,
      "Υ": 364,
      "Φ": 365,
      "Χ": 366,
      "Ψ": 367,
      "Ω": 368,
      "α": 369,
      "β": 370,
      "γ": 371,
      "δ": 372,
      "ε": 373,
      "ζ": 374,
      "η": 375,
      "θ": 376,
      "ι": 377,
      "κ": 378,
      "λ": 379,
      "μ": 380,
      "ν": 381,
      "ξ": 382,
      "ο": 383,
      "π": 384,
      "ρ": 385,
      "ς": 386,
      "σ": 387,
      "τ": 388,
      "υ": 389,
      "φ": 390,
      "χ": 391,
      "ψ": 392,
      "ω": 393,
      "ϒ": 394,
      "ϕ": 395,
      "Ϝ": 396,
      "ϝ": 397,
      "ϟ": 398,
      "ϲ": 399,
      "ϳ": 400,
      "ϴ": 401,
      "ϵ": 402,
      "Ϸ": 403,
      "Ϲ": 404,
      "ϻ": 405,
      "Ͻ": 406,
      "Ͼ": 407,
      "Ђ": 408,
      "Є": 409,
      "Ѕ": 410,
      "І": 411,
      "Ј": 412,
      "Љ": 413,
      "Њ": 414,
      "Ћ": 415,
      "Џ": 416,
      "А": 417,
      "Б": 418,
      "В": 419,
      "Г": 420,
      "Д": 421,
      "Е": 422,
      "Ж": 423,
      "З": 424,
      "И": 425,
      "К": 426,
      "Л": 427,
      "М": 428,
      "Н": 429,
      "О": 430,
      "П": 431,
      "Р": 432,
      "С": 433,
      "Т": 434,
      "У": 435,
      "Ф": 436,
      "Х": 437,
      "Ц": 438,
      "Ч": 439,
      "Ш": 440,
      "Щ": 441,
      "Ъ": 442,
      "Ы": 443,
      "Ь": 444,
      "Э": 445,
      "Ю": 446,
      "Я": 447,
      "а": 448,
      "б": 449,
      "в": 450,
      "г": 451,
      "д": 452,
      "е": 453,
      "ж": 454,
      "з": 455,
      "и": 456,
      "к": 457,
      "л": 458,
      "м": 459,
      "н": 460,
      "о": 461,
      "п": 462,
      "р": 463,
      "с": 464,
      "т": 465,
      "у": 466,
      "ф": 467,
      "х": 468,
      "ц": 469,
      "ч": 470,
      "ш": 471,
      "щ": 472,
      "ъ": 473,
      "ы": 474,
      "ь": 475,
      "э": 476,
      "ю": 477,
      "я": 478,
      "ђ": 479,
      "є": 480,
      "ѕ": 481,
      "і": 482,
      "ј": 483,
      "љ": 484,
      "њ": 485,
      "ћ": 486,
      "џ": 487,
      "ѡ": 488,
      "Ѣ": 489,
      "ѣ": 490,
      "ѧ": 491,
      "Ѫ": 492,
      "ѫ": 493,
      "ѳ": 494,
      "Ѵ": 495,
      "ѵ": 496,
      "Ѽ": 497,
      "Ѿ": 498,
      "Ґ": 499,
      "ґ": 500,
      "ғ": 501,
      "Қ": 502,
      "қ": 503,
      "ҝ": 504,
      "ҟ": 505,
      "ң": 506,
      "ҧ": 507,
      "ҫ": 508,
      "Ҭ": 509,
      "ҭ": 510,
      "Ү": 511,
      "ү": 512,
      "Һ": 513,
      "һ": 514,
      "Ӏ": 515,
      "ӏ": 516,
      "ә": 517,
      "Ө": 518,
      "ө": 519,
      "Ԁ": 520,
      "ԁ": 521,
      "Ԍ": 522,
      "ԛ": 523,
      "Ԝ": 524,
      "ԝ": 525,
      "Ա": 526,
      "Բ": 527,
      "Գ": 528,
      "Դ": 529,
      "Ե": 530,
      "Զ": 531,
      "Ը": 532,
      "Թ": 533,
      "Լ": 534,
      "Խ": 535,
      "Կ": 536,
      "Հ": 537,
      "Ձ": 538,
      "Ղ": 539,
      "Մ": 540,
      "Յ": 541,
      "Ն": 542,
      "Ո": 543,
      "Պ": 544,
      "Ջ": 545,
      "Ռ": 546,
      "Ս": 547,
      "Վ": 548,
      "Տ": 549,
      "Ր": 550,
      "Ւ": 551,
      "Ք": 552,
      "ՙ": 553,
      "՚": 554,
      "՝": 555,
      "ՠ": 556,
      "ա": 557,
      "բ": 558,
      "գ": 559,
      "դ": 560,
      "ե": 561,
      "զ": 562,
      "է": 563,
      "ը": 564,
      "թ": 565,
      "ժ": 566,
      "ի": 567,
      "լ": 568,
      "խ": 569,
      "ծ": 570,
      "կ": 571,
      "հ": 572,
      "ձ": 573,
      "ղ": 574,
      "ճ": 575,
      "մ": 576,
      "յ": 577,
      "ն": 578,
      "շ": 579,
      "ո": 580,
      "չ": 581,
      "պ": 582,
      "ջ": 583,
      "ռ": 584,
      "ս": 585,
      "վ": 586,
      "տ": 587,
      "ր": 588,
      "ց": 589,
      "ւ": 590,
      "փ": 591,
      "ք": 592,
      "օ": 593,
      "ֆ": 594,
      "և": 595,
      "։": 596,
      "־": 597,
      "א": 598,
      "ב": 599,
      "ג": 600,
      "ד": 601,
      "ה": 602,
      "ו": 603,
      "ז": 604,
      "ח": 605,
      "ט": 606,
      "י": 607,
      "ך": 608,
      "כ": 609,
      "ל": 610,
      "ם": 611,
      "מ": 612,
      "ן": 613,
      "נ": 614,
      "ס": 615,
      "ע": 616,
      "ף": 617,
      "פ": 618,
      "ץ": 619,
      "צ": 620,
      "ק": 621,
      "ר": 622,
      "ש": 623,
      "ת": 624,
      "ױ": 625,
      "ײ": 626,
      "׳": 627,
      "״": 628,
      "؂": 629,
      "،": 630,
      "؛": 631,
      "؟": 632,
      "ء": 633,
      "ا": 634,
      "ب": 635,
      "ة": 636,
      "ت": 637,
      "ث": 638,
      "ج": 639,
      "ح": 640,
      "خ": 641,
      "د": 642,
      "ذ": 643,
      "ر": 644,
      "ز": 645,
      "س": 646,
      "ش": 647,
      "ص": 648,
      "ض": 649,
      "ط": 650,
      "ظ": 651,
      "ع": 652,
      "غ": 653,
      "ـ": 654,
      "ف": 655,
      "ق": 656,
      "ك": 657,
      "ل": 658,
      "م": 659,
      "ن": 660,
      "ه": 661,
      "و": 662,
      "ى": 663,
      "ي": 664,
      "٠": 665,
      "١": 666,
      "٢": 667,
      "٣": 668,
      "٤": 669,
      "٥": 670,
      "٦": 671,
      "٧": 672,
      "٨": 673,
      "٩": 674,
      "٪": 675,
      "٫": 676,
      "ٱ": 677,
      "ٹ": 678,
      "ٽ": 679,
      "پ": 680,
      "ٿ": 681,
      "چ": 682,
      "ڈ": 683,
      "ڑ": 684,
      "ژ": 685,
      "ڙ": 686,
      "ڤ": 687,
      "ک": 688,
      "ڪ": 689,
      "گ": 690,
      "ں": 691,
      "ھ": 692,
      "ہ": 693,
      "ۃ": 694,
      "ۆ": 695,
      "ۇ": 696,
      "ی": 697,
      "ے": 698,
      "۔": 699,
      "ە": 700,
      "۝": 701,
      "۞": 702,
      "ۥ": 703,
      "ۦ": 704,
      "۰": 705,
      "۱": 706,
      "۲": 707,
      "۳": 708,
      "۴": 709,
      "۵": 710,
      "۶": 711,
      "۷": 712,
      "۸": 713,
      "۹": 714,
      "ۼ": 715,
      "ܐ": 716,
      "ܒ": 717,
      "ܓ": 718,
      "ܕ": 719,
      "ܗ": 720,
      "ܘ": 721,
      "ܙ": 722,
      "ܚ": 723,
      "ܛ": 724,
      "ܝ": 725,
      "ܟ": 726,
      "ܠ": 727,
      "ܡ": 728,
      "ܢ": 729,
      "ܣ": 730,
      "ܥ": 731,
      "ܦ": 732,
      "ܩ": 733,
      "ܪ": 734,
      "ܫ": 735,
      "ܬ": 736,
      "޹": 737,
      "ߊ": 738,
      "ߋ": 739,
      "ߌ": 740,
      "ߍ": 741,
      "ߎ": 742,
      "ߏ": 743,
      "ߐ": 744,
      "ߒ": 745,
      "ߓ": 746,
      "ߔ": 747,
      "ߕ": 748,
      "ߖ": 749,
      "ߗ": 750,
      "ߘ": 751,
      "ߙ": 752,
      "ߚ": 753,
      "ߛ": 754,
      "ߜ": 755,
      "ߝ": 756,
      "ߞ": 757,
      "ߟ": 758,
      "ߡ": 759,
      "ߢ": 760,
      "ߣ": 761,
      "ߤ": 762,
      "ߥ": 763,
      "ߦ": 764,
      "अ": 765,
      "आ": 766,
      "इ": 767,
      "ई": 768,
      "उ": 769,
      "ऊ": 770,
      "ऋ": 771,
      "ऍ": 772,
      "ए": 773,
      "ऐ": 774,
      "ऑ": 775,
      "ओ": 776,
      "औ": 777,
      "क": 778,
      "ख": 779,
      "ग": 780,
      "घ": 781,
      "च": 782,
      "छ": 783,
      "ज": 784,
      "झ": 785,
      "ञ": 786,
      "ट": 787,
      "ठ": 788,
      "ड": 789,
      "ढ": 790,
      "ण": 791,
      "त": 792,
      "थ": 793,
      "द": 794,
      "ध": 795,
      "न": 796,
      "प": 797,
      "फ": 798,
      "ब": 799,
      "भ": 800,
      "म": 801,
      "य": 802,
      "र": 803,
      "ल": 804,
      "ळ": 805,
      "व": 806,
      "श": 807,
      "ष": 808,
      "स": 809,
      "ह": 810,
      "ॐ": 811,
      "।": 812,
      "॥": 813,
      "०": 814,
      "१": 815,
      "२": 816,
      "३": 817,
      "४": 818,
      "५": 819,
      "६": 820,
      "७": 821,
      "८": 822,
      "९": 823,
      "॰": 824,
      "অ": 825,
      "আ": 826,
      "ই": 827,
      "উ": 828,
      "ঊ": 829,
      "এ": 830,
      "ও": 831,
      "ক": 832,
      "খ": 833,
      "গ": 834,
      "ঘ": 835,
      "ঙ": 836,
      "চ": 837,
      "ছ": 838,
      "জ": 839,
      "ঞ": 840,
      "ট": 841,
      "ঠ": 842,
      "ড": 843,
      "ঢ": 844,
      "ণ": 845,
      "ত": 846,
      "থ": 847,
      "দ": 848,
      "ধ": 849,
      "ন": 850,
      "প": 851,
      "ফ": 852,
      "ব": 853,
      "ভ": 854,
      "ম": 855,
      "য": 856,
      "র": 857,
      "ল": 858,
      "শ": 859,
      "ষ": 860,
      "স": 861,
      "হ": 862,
      "ৎ": 863,
      "০": 864,
      "১": 865,
      "২": 866,
      "৩": 867,
      "৪": 868,
      "৫": 869,
      "৬": 870,
      "৭": 871,
      "৮": 872,
      "৯": 873,
      "ৰ": 874,
      "ৱ": 875,
      "৳": 876,
      "ਅ": 877,
      "ਆ": 878,
      "ਈ": 879,
      "ਉ": 880,
      "ਕ": 881,
      "ਖ": 882,
      "ਗ": 883,
      "ਘ": 884,
      "ਚ": 885,
      "ਛ": 886,
      "ਜ": 887,
      "ਞ": 888,
      "ਟ": 889,
      "ਠ": 890,
      "ਡ": 891,
      "ਣ": 892,
      "ਤ": 893,
      "ਥ": 894,
      "ਦ": 895,
      "ਨ": 896,
      "ਪ": 897,
      "ਬ": 898,
      "ਭ": 899,
      "ਮ": 900,
      "ਰ": 901,
      "ਲ": 902,
      "ਵ": 903,
      "ਸ": 904,
      "ਹ": 905,
      "ੜ": 906,
      "੧": 907,
      "੭": 908,
      "અ": 909,
      "આ": 910,
      "ઇ": 911,
      "ઈ": 912,
      "ઉ": 913,
      "એ": 914,
      "ઓ": 915,
      "ક": 916,
      "ખ": 917,
      "ગ": 918,
      "ઘ": 919,
      "ચ": 920,
      "છ": 921,
      "જ": 922,
      "ઝ": 923,
      "ઞ": 924,
      "ટ": 925,
      "ઠ": 926,
      "ડ": 927,
      "ણ": 928,
      "ત": 929,
      "થ": 930,
      "દ": 931,
      "ધ": 932,
      "ન": 933,
      "પ": 934,
      "ફ": 935,
      "બ": 936,
      "ભ": 937,
      "મ": 938,
      "ય": 939,
      "ર": 940,
      "લ": 941,
      "ળ": 942,
      "વ": 943,
      "શ": 944,
      "ષ": 945,
      "સ": 946,
      "હ": 947,
      "૬": 948,
      "૮": 949,
      "ஃ": 950,
      "அ": 951,
      "ஆ": 952,
      "இ": 953,
      "ஈ": 954,
      "உ": 955,
      "ஊ": 956,
      "எ": 957,
      "ஏ": 958,
      "ஐ": 959,
      "ஒ": 960,
      "க": 961,
      "ங": 962,
      "ச": 963,
      "ஜ": 964,
      "ஞ": 965,
      "ட": 966,
      "ண": 967,
      "த": 968,
      "ந": 969,
      "ன": 970,
      "ப": 971,
      "ம": 972,
      "ய": 973,
      "ர": 974,
      "ற": 975,
      "ல": 976,
      "ள": 977,
      "ழ": 978,
      "வ": 979,
      "ஷ": 980,
      "ஸ": 981,
      "ஹ": 982,
      "అ": 983,
      "ఆ": 984,
      "ఇ": 985,
      "ఉ": 986,
      "ఎ": 987,
      "ఒ": 988,
      "క": 989,
      "ఖ": 990,
      "గ": 991,
      "చ": 992,
      "జ": 993,
      "ట": 994,
      "డ": 995,
      "ణ": 996,
      "త": 997,
      "థ": 998,
      "ద": 999,
      "ధ": 1000,
      "న": 1001,
      "ప": 1002,
      "ఫ": 1003,
      "బ": 1004,
      "మ": 1005,
      "య": 1006,
      "ర": 1007,
      "ల": 1008,
      "ళ": 1009,
      "వ": 1010,
      "శ": 1011,
      "ష": 1012,
      "స": 1013,
      "హ": 1014,
      "ಅ": 1015,
      "ಈ": 1016,
      "ಏ": 1017,
      "ಓ": 1018,
      "ಕ": 1019,
      "ಗ": 1020,
      "ಚ": 1021,
      "ಜ": 1022,
      "ಟ": 1023,
      "ಠ": 1024,
      "ಡ": 1025,
      "ತ": 1026,
      "ಥ": 1027,
      "ದ": 1028,
      "ನ": 1029,
      "ಪ": 1030,
      "ಫ": 1031,
      "ಭ": 1032,
      "ಮ": 1033,
      "ಯ": 1034,
      "ರ": 1035,
      "ಲ": 1036,
      "ಳ": 1037,
      "ವ": 1038,
      "ಶ": 1039,
      "ಸ": 1040,
      "ಹ": 1041,
      "അ": 1042,
      "ആ": 1043,
      "ഇ": 1044,
      "ഈ": 1045,
      "ഉ": 1046,
      "എ": 1047,
      "ഒ": 1048,
      "ക": 1049,
      "ഗ": 1050,
      "ങ": 1051,
      "ച": 1052,
      "ജ": 1053,
      "ഞ": 1054,
      "ട": 1055,
      "ഡ": 1056,
      "ണ": 1057,
      "ത": 1058,
      "ഥ": 1059,
      "ദ": 1060,
      "ധ": 1061,
      "ന": 1062,
      "പ": 1063,
      "ഫ": 1064,
      "ബ": 1065,
      "ഭ": 1066,
      "മ": 1067,
      "യ": 1068,
      "ര": 1069,
      "റ": 1070,
      "ല": 1071,
      "ള": 1072,
      "ഴ": 1073,
      "വ": 1074,
      "ശ": 1075,
      "ഷ": 1076,
      "സ": 1077,
      "ഹ": 1078,
      "ൻ": 1079,
      "ർ": 1080,
      "ൽ": 1081,
      "ൾ": 1082,
      "අ": 1083,
      "ආ": 1084,
      "ඇ": 1085,
      "ඉ": 1086,
      "උ": 1087,
      "එ": 1088,
      "ඒ": 1089,
      "ඔ": 1090,
      "ඕ": 1091,
      "ක": 1092,
      "ග": 1093,
      "ඟ": 1094,
      "ච": 1095,
      "ජ": 1096,
      "ට": 1097,
      "ඩ": 1098,
      "ණ": 1099,
      "ඬ": 1100,
      "ත": 1101,
      "ථ": 1102,
      "ද": 1103,
      "ධ": 1104,
      "න": 1105,
      "ඳ": 1106,
      "ප": 1107,
      "බ": 1108,
      "භ": 1109,
      "ම": 1110,
      "ඹ": 1111,
      "ය": 1112,
      "ර": 1113,
      "ල": 1114,
      "ව": 1115,
      "ශ": 1116,
      "ෂ": 1117,
      "ස": 1118,
      "හ": 1119,
      "ළ": 1120,
      "ෆ": 1121,
      "ก": 1122,
      "ข": 1123,
      "ค": 1124,
      "ง": 1125,
      "จ": 1126,
      "ฉ": 1127,
      "ช": 1128,
      "ซ": 1129,
      "ญ": 1130,
      "ฎ": 1131,
      "ฏ": 1132,
      "ฐ": 1133,
      "ฑ": 1134,
      "ฒ": 1135,
      "ณ": 1136,
      "ด": 1137,
      "ต": 1138,
      "ถ": 1139,
      "ท": 1140,
      "ธ": 1141,
      "น": 1142,
      "บ": 1143,
      "ป": 1144,
      "ผ": 1145,
      "ฝ": 1146,
      "พ": 1147,
      "ฟ": 1148,
      "ภ": 1149,
      "ม": 1150,
      "ย": 1151,
      "ร": 1152,
      "ฤ": 1153,
      "ล": 1154,
      "ว": 1155,
      "ศ": 1156,
      "ษ": 1157,
      "ส": 1158,
      "ห": 1159,
      "อ": 1160,
      "ฮ": 1161,
      "ฯ": 1162,
      "ะ": 1163,
      "า": 1164,
      "ำ": 1165,
      "฿": 1166,
      "เ": 1167,
      "แ": 1168,
      "โ": 1169,
      "ใ": 1170,
      "ไ": 1171,
      "ๆ": 1172,
      "๏": 1173,
      "๐": 1174,
      "๑": 1175,
      "๒": 1176,
      "๓": 1177,
      "๔": 1178,
      "๕": 1179,
      "๖": 1180,
      "๙": 1181,
      "ກ": 1182,
      "ຂ": 1183,
      "ຄ": 1184,
      "ງ": 1185,
      "ຈ": 1186,
      "ຊ": 1187,
      "ຍ": 1188,
      "ດ": 1189,
      "ຕ": 1190,
      "ຖ": 1191,
      "ທ": 1192,
      "ນ": 1193,
      "ບ": 1194,
      "ປ": 1195,
      "ຜ": 1196,
      "ຝ": 1197,
      "ພ": 1198,
      "ຟ": 1199,
      "ມ": 1200,
      "ຢ": 1201,
      "ຣ": 1202,
      "ລ": 1203,
      "ວ": 1204,
      "ສ": 1205,
      "ຫ": 1206,
      "ອ": 1207,
      "ຮ": 1208,
      "ະ": 1209,
      "າ": 1210,
      "ຳ": 1211,
      "ຽ": 1212,
      "ເ": 1213,
      "ແ": 1214,
      "ໂ": 1215,
      "ໃ": 1216,
      "ໄ": 1217,
      "ໆ": 1218,
      "ໜ": 1219,
      "ໝ": 1220,
      "་": 1221,
      "ག": 1222,
      "ང": 1223,
      "ཆ": 1224,
      "ད": 1225,
      "ན": 1226,
      "པ": 1227,
      "བ": 1228,
      "ར": 1229,
      "ས": 1230,
      "က": 1231,
      "ခ": 1232,
      "င": 1233,
      "စ": 1234,
      "ဆ": 1235,
      "ည": 1236,
      "တ": 1237,
      "ထ": 1238,
      "န": 1239,
      "ပ": 1240,
      "ဘ": 1241,
      "မ": 1242,
      "ယ": 1243,
      "ရ": 1244,
      "လ": 1245,
      "သ": 1246,
      "အ": 1247,
      "၀": 1248,
      "။": 1249,
      "ၚ": 1250,
      "ၾ": 1251,
      "႔": 1252,
      "Ⴉ": 1253,
      "Ⴌ": 1254,
      "Ⴎ": 1255,
      "Ⴝ": 1256,
      "ა": 1257,
      "ბ": 1258,
      "გ": 1259,
      "დ": 1260,
      "ე": 1261,
      "ვ": 1262,
      "ზ": 1263,
      "თ": 1264,
      "ი": 1265,
      "კ": 1266,
      "ლ": 1267,
      "მ": 1268,
      "ნ": 1269,
      "ო": 1270,
      "პ": 1271,
      "ჟ": 1272,
      "რ": 1273,
      "ს": 1274,
      "ტ": 1275,
      "უ": 1276,
      "ფ": 1277,
      "ქ": 1278,
      "ღ": 1279,
      "ყ": 1280,
      "შ": 1281,
      "ჩ": 1282,
      "ც": 1283,
      "ძ": 1284,
      "წ": 1285,
      "ჭ": 1286,
      "ხ": 1287,
      "ჯ": 1288,
      "ჰ": 1289,
      "ჷ": 1290,
      "ჸ": 1291,
      "ᄀ": 1292,
      "ᄁ": 1293,
      "ᄂ": 1294,
      "ᄃ": 1295,
      "ᄄ": 1296,
      "ᄅ": 1297,
      "ᄆ": 1298,
      "ᄇ": 1299,
      "ᄈ": 1300,
      "ᄉ": 1301,
      "ᄊ": 1302,
      "ᄋ": 1303,
      "ᄌ": 1304,
      "ᄍ": 1305,
      "ᄎ": 1306,
      "ᄏ": 1307,
      "ᄐ": 1308,
      "ᄑ": 1309,
      "ᄒ": 1310,
      "ᅀ": 1311,
      "ᅡ": 1312,
      "ᅢ": 1313,
      "ᅣ": 1314,
      "ᅤ": 1315,
      "ᅥ": 1316,
      "ᅦ": 1317,
      "ᅧ": 1318,
      "ᅨ": 1319,
      "ᅩ": 1320,
      "ᅪ": 1321,
      "ᅫ": 1322,
      "ᅬ": 1323,
      "ᅭ": 1324,
      "ᅮ": 1325,
      "ᅯ": 1326,
      "ᅰ": 1327,
      "ᅱ": 1328,
      "ᅲ": 1329,
      "ᅳ": 1330,
      "ᅴ": 1331,
      "ᅵ": 1332,
      "ᆨ": 1333,
      "ᆩ": 1334,
      "ᆪ": 1335,
      "ᆫ": 1336,
      "ᆬ": 1337,
      "ᆭ": 1338,
      "ᆮ": 1339,
      "ᆯ": 1340,
      "ᆰ": 1341,
      "ᆱ": 1342,
      "ᆲ": 1343,
      "ᆵ": 1344,
      "ᆶ": 1345,
      "ᆷ": 1346,
      "ᆸ": 1347,
      "ᆹ": 1348,
      "ᆺ": 1349,
      "ᆻ": 1350,
      "ᆼ": 1351,
      "ᆽ": 1352,
      "ᆾ": 1353,
      "ᆿ": 1354,
      "ᇀ": 1355,
      "ᇁ": 1356,
      "ᇂ": 1357,
      "ሀ": 1358,
      "ሁ": 1359,
      "ሂ": 1360,
      "ሃ": 1361,
      "ሄ": 1362,
      "ህ": 1363,
      "ሆ": 1364,
      "ለ": 1365,
      "ሉ": 1366,
      "ሊ": 1367,
      "ላ": 1368,
      "ሌ": 1369,
      "ል": 1370,
      "ሎ": 1371,
      "ሔ": 1372,
      "ሕ": 1373,
      "መ": 1374,
      "ሙ": 1375,
      "ሚ": 1376,
      "ማ": 1377,
      "ም": 1378,
      "ሞ": 1379,
      "ሠ": 1380,
      "ሣ": 1381,
      "ሥ": 1382,
      "ረ": 1383,
      "ሩ": 1384,
      "ሪ": 1385,
      "ራ": 1386,
      "ሬ": 1387,
      "ር": 1388,
      "ሮ": 1389,
      "ሰ": 1390,
      "ሱ": 1391,
      "ሲ": 1392,
      "ሳ": 1393,
      "ስ": 1394,
      "ሸ": 1395,
      "ሺ": 1396,
      "ሻ": 1397,
      "ሽ": 1398,
      "ቀ": 1399,
      "ቁ": 1400,
      "ቂ": 1401,
      "ቃ": 1402,
      "ቄ": 1403,
      "ቅ": 1404,
      "ቆ": 1405,
      "ቋ": 1406,
      "በ": 1407,
      "ቡ": 1408,
      "ቢ": 1409,
      "ባ": 1410,
      "ቤ": 1411,
      "ብ": 1412,
      "ቦ": 1413,
      "ቨ": 1414,
      "ተ": 1415,
      "ቱ": 1416,
      "ቲ": 1417,
      "ታ": 1418,
      "ቴ": 1419,
      "ት": 1420,
      "ቶ": 1421,
      "ቷ": 1422,
      "ቸ": 1423,
      "ቹ": 1424,
      "ቻ": 1425,
      "ች": 1426,
      "ቿ": 1427,
      "ነ": 1428,
      "ኑ": 1429,
      "ኒ": 1430,
      "ና": 1431,
      "ኔ": 1432,
      "ን": 1433,
      "ኖ": 1434,
      "ኘ": 1435,
      "ኙ": 1436,
      "ኚ": 1437,
      "ኛ": 1438,
      "ኝ": 1439,
      "ኞ": 1440,
      "አ": 1441,
      "ኢ": 1442,
      "ኤ": 1443,
      "እ": 1444,
      "ኦ": 1445,
      "ከ": 1446,
      "ኩ": 1447,
      "ኪ": 1448,
      "ካ": 1449,
      "ክ": 1450,
      "ኮ": 1451,
      "ኳ": 1452,
      "ኴ": 1453,
      "ወ": 1454,
      "ዉ": 1455,
      "ዊ": 1456,
      "ዋ": 1457,
      "ው": 1458,
      "ዎ": 1459,
      "ዐ": 1460,
      "ዓ": 1461,
      "ዕ": 1462,
      "ዘ": 1463,
      "ዙ": 1464,
      "ዚ": 1465,
      "ዛ": 1466,
      "ዜ": 1467,
      "ዝ": 1468,
      "ዞ": 1469,
      "የ": 1470,
      "ዩ": 1471,
      "ዪ": 1472,
      "ያ": 1473,
      "ዬ": 1474,
      "ይ": 1475,
      "ዮ": 1476,
      "ደ": 1477,
      "ዱ": 1478,
      "ዲ": 1479,
      "ዳ": 1480,
      "ዴ": 1481,
      "ድ": 1482,
      "ዶ": 1483,
      "ጀ": 1484,
      "ጂ": 1485,
      "ጃ": 1486,
      "ጅ": 1487,
      "ገ": 1488,
      "ጉ": 1489,
      "ጊ": 1490,
      "ጋ": 1491,
      "ግ": 1492,
      "ጠ": 1493,
      "ጡ": 1494,
      "ጣ": 1495,
      "ጥ": 1496,
      "ጨ": 1497,
      "ጪ": 1498,
      "ጭ": 1499,
      "ጲ": 1500,
      "ጽ": 1501,
      "ጾ": 1502,
      "ፀ": 1503,
      "ፁ": 1504,
      "ፈ": 1505,
      "ፉ": 1506,
      "ፋ": 1507,
      "ፍ": 1508,
      "ፎ": 1509,
      "ፒ": 1510,
      "ፓ": 1511,
      "፡": 1512,
      "።": 1513,
      "፣": 1514,
      "፤": 1515,
      "፧": 1516,
      "Ꭲ": 1517,
      "Ꭷ": 1518,
      "Ꭺ": 1519,
      "Ꮇ": 1520,
      "Ꮋ": 1521,
      "Ꮒ": 1522,
      "Ꮹ": 1523,
      "Ᏼ": 1524,
      "ᐃ": 1525,
      "ᐄ": 1526,
      "ᐅ": 1527,
      "ᐈ": 1528,
      "ᐊ": 1529,
      "ᐟ": 1530,
      "ᐠ": 1531,
      "ᐢ": 1532,
      "ᐣ": 1533,
      "ᐤ": 1534,
      "ᐧ": 1535,
      "ᐨ": 1536,
      "ᐱ": 1537,
      "ᐳ": 1538,
      "ᐸ": 1539,
      "ᑉ": 1540,
      "ᑌ": 1541,
      "ᑎ": 1542,
      "ᑏ": 1543,
      "ᑐ": 1544,
      "ᑕ": 1545,
      "ᑖ": 1546,
      "ᑦ": 1547,
      "ᑫ": 1548,
      "ᑭ": 1549,
      "ᑮ": 1550,
      "ᑲ": 1551,
      "ᑳ": 1552,
      "ᒃ": 1553,
      "ᒋ": 1554,
      "ᒍ": 1555,
      "ᒐ": 1556,
      "ᒡ": 1557,
      "ᒣ": 1558,
      "ᒥ": 1559,
      "ᒪ": 1560,
      "ᒻ": 1561,
      "ᓂ": 1562,
      "ᓄ": 1563,
      "ᓇ": 1564,
      "ᓈ": 1565,
      "ᓐ": 1566,
      "ᓓ": 1567,
      "ᓕ": 1568,
      "ᓗ": 1569,
      "ᓘ": 1570,
      "ᓚ": 1571,
      "ᓪ": 1572,
      "ᓭ": 1573,
      "ᓯ": 1574,
      "ᓱ": 1575,
      "ᓴ": 1576,
      "ᔨ": 1577,
      "ᔪ": 1578,
      "ᔫ": 1579,
      "ᔭ": 1580,
      "ᔮ": 1581,
      "ᔾ": 1582,
      "ᕆ": 1583,
      "ᕇ": 1584,
      "ᕉ": 1585,
      "ᕋ": 1586,
      "ᕐ": 1587,
      "ᕒ": 1588,
      "ᕕ": 1589,
      "ᕗ": 1590,
      "ᕙ": 1591,
      "ᕝ": 1592,
      "ᕤ": 1593,
      "ᕦ": 1594,
      "ᕬ": 1595,
      "ᕿ": 1596,
      "ᖁ": 1597,
      "ᖃ": 1598,
      "ᖅ": 1599,
      "ᖆ": 1600,
      "ᖉ": 1601,
      "ᖊ": 1602,
      "ᖏ": 1603,
      "ᖑ": 1604,
      "ᖓ": 1605,
      "ᖕ": 1606,
      "ᖗ": 1607,
      "ᖚ": 1608,
      "ᖢ": 1609,
      "ᖽ": 1610,
      "ᗪ": 1611,
      "ᘈ": 1612,
      "ᘊ": 1613,
      "ᘖ": 1614,
      "ᘛ": 1615,
      "ᙵ": 1616,
      "ᚠ": 1617,
      "ᚢ": 1618,
      "ᚦ": 1619,
      "ᚨ": 1620,
      "ᚫ": 1621,
      "ᚱ": 1622,
      "ᚴ": 1623,
      "ᚹ": 1624,
      "ᚼ": 1625,
      "ᚾ": 1626,
      "ᛁ": 1627,
      "ᛅ": 1628,
      "ᛊ": 1629,
      "ᛋ": 1630,
      "ᛏ": 1631,
      "ᛒ": 1632,
      "ᛖ": 1633,
      "ᛘ": 1634,
      "ᛚ": 1635,
      "ᛞ": 1636,
      "ᛟ": 1637,
      "ᛦ": 1638,
      "᛬": 1639,
      "᛭": 1640,
      "ᜂ": 1641,
      "ក": 1642,
      "ខ": 1643,
      "គ": 1644,
      "ង": 1645,
      "ច": 1646,
      "ជ": 1647,
      "ឈ": 1648,
      "ដ": 1649,
      "ឌ": 1650,
      "ណ": 1651,
      "ត": 1652,
      "ទ": 1653,
      "ធ": 1654,
      "ន": 1655,
      "ប": 1656,
      "ផ": 1657,
      "ព": 1658,
      "ភ": 1659,
      "ម": 1660,
      "យ": 1661,
      "រ": 1662,
      "ល": 1663,
      "វ": 1664,
      "ស": 1665,
      "ហ": 1666,
      "អ": 1667,
      "ឲ": 1668,
      "៖": 1669,
      "ᥙ": 1670,
      "ᥱ": 1671,
      "᧐": 1672,
      "᱐": 1673,
      "᱑": 1674,
      "᱒": 1675,
      "᱖": 1676,
      "ᱚ": 1677,
      "ᱜ": 1678,
      "ᱟ": 1679,
      "ᱠ": 1680,
      "ᱢ": 1681,
      "ᱥ": 1682,
      "ᱨ": 1683,
      "ᱮ": 1684,
      "ᱱ": 1685,
      "ᱴ": 1686,
      "ᱵ": 1687,
      "ᱷ": 1688,
      "ᴀ": 1689,
      "ᴄ": 1690,
      "ᴅ": 1691,
      "ᴇ": 1692,
      "ᴋ": 1693,
      "ᴍ": 1694,
      "ᴏ": 1695,
      "ᴖ": 1696,
      "ᴘ": 1697,
      "ᴛ": 1698,
      "ᴜ": 1699,
      "ᴠ": 1700,
      "ᴡ": 1701,
      "ᴥ": 1702,
      "ᴬ": 1703,
      "ᴺ": 1704,
      "ᴼ": 1705,
      "ᴿ": 1706,
      "ᵁ": 1707,
      "ᵄ": 1708,
      "ᵉ": 1709,
      "ᵊ": 1710,
      "ᵐ": 1711,
      "ᵑ": 1712,
      "ᵒ": 1713,
      "ᵺ": 1714,
      "ᵻ": 1715,
      "ᶏ": 1716,
      "ᶐ": 1717,
      "ᶛ": 1718,
      "ᶟ": 1719,
      "ẚ": 1720,
      "᾽": 1721,
      "᾿": 1722,
      "​": 1723,
      "‌": 1724,
      "‍": 1725,
      "‎": 1726,
      "‏": 1727,
      "‐": 1728,
      "‑": 1729,
      "‒": 1730,
      "–": 1731,
      "—": 1732,
      "―": 1733,
      "‖": 1734,
      "‘": 1735,
      "’": 1736,
      "‚": 1737,
      "‛": 1738,
      "“": 1739,
      "”": 1740,
      "„": 1741,
      "‟": 1742,
      "†": 1743,
      "‡": 1744,
      "•": 1745,
      "‣": 1746,
      "․": 1747,
      "‥": 1748,
      "…": 1749,
      "‧": 1750,
      "‪": 1751,
      "‫": 1752,
      "‬": 1753,
      "‭": 1754,
      "‰": 1755,
      "′": 1756,
      "″": 1757,
      "‴": 1758,
      "‹": 1759,
      "›": 1760,
      "※": 1761,
      "‼": 1762,
      "‾": 1763,
      "‿": 1764,
      "⁂": 1765,
      "⁃": 1766,
      "⁄": 1767,
      "⁉": 1768,
      "⁎": 1769,
      "⁝": 1770,
      "⁠": 1771,
      "⁡": 1772,
      "⁢": 1773,
      "⁣": 1774,
      "⁦": 1775,
      "⁩": 1776,
      "⁰": 1777,
      "⁴": 1778,
      "⁵": 1779,
      "⁶": 1780,
      "⁷": 1781,
      "⁸": 1782,
      "⁹": 1783,
      "⁻": 1784,
      "⁽": 1785,
      "⁾": 1786,
      "ⁿ": 1787,
      "₀": 1788,
      "₁": 1789,
      "₂": 1790,
      "₃": 1791,
      "₄": 1792,
      "₅": 1793,
      "₆": 1794,
      "₇": 1795,
      "₈": 1796,
      "₋": 1797,
      "ₗ": 1798,
      "₠": 1799,
      "₡": 1800,
      "₤": 1801,
      "₦": 1802,
      "₨": 1803,
      "₩": 1804,
      "₪": 1805,
      "€": 1806,
      "₮": 1807,
      "₱": 1808,
      "₳": 1809,
      "₴": 1810,
      "₵": 1811,
      "₸": 1812,
      "₹": 1813,
      "₽": 1814,
      "₾": 1815,
      "⃀": 1816,
      "ℂ": 1817,
      "℃": 1818,
      "℅": 1819,
      "ℇ": 1820,
      "℉": 1821,
      "ℏ": 1822,
      "ℑ": 1823,
      "ℒ": 1824,
      "ℓ": 1825,
      "ℕ": 1826,
      "№": 1827,
      "℗": 1828,
      "℘": 1829,
      "ℛ": 1830,
      "ℜ": 1831,
      "ℝ": 1832,
      "℠": 1833,
      "™": 1834,
      "℮": 1835,
      "ℯ": 1836,
      "ℳ": 1837,
      "ℵ": 1838,
      "ℹ": 1839,
      "⅓": 1840,
      "⅔": 1841,
      "⅘": 1842,
      "⅛": 1843,
      "⅜": 1844,
      "⅝": 1845,
      "⅞": 1846,
      "⅟": 1847,
      "Ⅰ": 1848,
      "Ⅱ": 1849,
      "Ⅲ": 1850,
      "Ⅴ": 1851,
      "Ⅶ": 1852,
      "ⅰ": 1853,
      "ⅱ": 1854,
      "ⅼ": 1855,
      "ⅽ": 1856,
      "ⅾ": 1857,
      "←": 1858,
      "↑": 1859,
      "→": 1860,
      "↓": 1861,
      "↔": 1862,
      "↘": 1863,
      "↦": 1864,
      "↩": 1865,
      "↪": 1866,
      "↯": 1867,
      "↳": 1868,
      "↵": 1869,
      "↷": 1870,
      "↻": 1871,
      "⇄": 1872,
      "⇋": 1873,
      "⇌": 1874,
      "⇐": 1875,
      "⇑": 1876,
      "⇒": 1877,
      "⇓": 1878,
      "⇔": 1879,
      "⇥": 1880,
      "⇧": 1881,
      "⇨": 1882,
      "⇪": 1883,
      "⇬": 1884,
      "⇸": 1885,
      "∀": 1886,
      "∂": 1887,
      "∃": 1888,
      "∅": 1889,
      "∆": 1890,
      "∇": 1891,
      "∈": 1892,
      "∊": 1893,
      "∋": 1894,
      "∎": 1895,
      "∏": 1896,
      "∑": 1897,
      "−": 1898,
      "∓": 1899,
      "∕": 1900,
      "∗": 1901,
      "∘": 1902,
      "∙": 1903,
      "√": 1904,
      "∝": 1905,
      "∞": 1906,
      "∣": 1907,
      "∥": 1908,
      "∧": 1909,
      "∨": 1910,
      "∩": 1911,
      "∪": 1912,
      "∫": 1913,
      "∮": 1914,
      "∴": 1915,
      "∶": 1916,
      "∻": 1917,
      "∼": 1918,
      "∿": 1919,
      "≅": 1920,
      "≈": 1921,
      "≐": 1922,
      "≟": 1923,
      "≡": 1924,
      "≤": 1925,
      "≥": 1926,
      "≦": 1927,
      "≧": 1928,
      "≪": 1929,
      "≫": 1930,
      "≳": 1931,
      "≻": 1932,
      "≼": 1933,
      "≽": 1934,
      "⊂": 1935,
      "⊃": 1936,
      "⊆": 1937,
      "⊇": 1938,
      "⊊": 1939,
      "⊋": 1940,
      "⊕": 1941,
      "⊖": 1942,
      "⊗": 1943,
      "⊙": 1944,
      "⊞": 1945,
      "⊠": 1946,
      "⊤": 1947,
      "⊥": 1948,
      "⋅": 1949,
      "⋆": 1950,
      "⋘": 1951,
      "⋙": 1952,
      "⋮": 1953,
      "⋯": 1954,
      "⌀": 1955,
      "⌃": 1956,
      "⌈": 1957,
      "⌉": 1958,
      "⌊": 1959,
      "⌋": 1960,
      "⌒": 1961,
      "⌘": 1962,
      "⌚": 1963,
      "⌛": 1964,
      "⌥": 1965,
      "⌦": 1966,
      "⌽": 1967,
      "⌿": 1968,
      "⍋": 1969,
      "⍨": 1970,
      "⍳": 1971,
      "⍴": 1972,
      "⍵": 1973,
      "⍾": 1974,
      "⎉": 1975,
      "⎧": 1976,
      "⎩": 1977,
      "⎮": 1978,
      "⎯": 1979,
      "⏐": 1980,
      "⏤": 1981,
      "⏨": 1982,
      "⏩": 1983,
      "⏰": 1984,
      "⏱": 1985,
      "␇": 1986,
      "␔": 1987,
      "␣": 1988,
      "①": 1989,
      "②": 1990,
      "③": 1991,
      "④": 1992,
      "⑤": 1993,
      "⑥": 1994,
      "⑦": 1995,
      "⑧": 1996,
      "⑸": 1997,
      "⑹": 1998,
      "Ⓐ": 1999,
      "Ⓒ": 2000,
      "Ⓟ": 2001,
      "Ⓡ": 2002,
      "Ⓣ": 2003,
      "ⓒ": 2004,
      "ⓔ": 2005,
      "ⓘ": 2006,
      "ⓛ": 2007,
      "ⓞ": 2008,
      "ⓥ": 2009,
      "─": 2010,
      "━": 2011,
      "│": 2012,
      "┌": 2013,
      "┐": 2014,
      "└": 2015,
      "┘": 2016,
      "├": 2017,
      "┤": 2018,
      "┬": 2019,
      "┼": 2020,
      "╁": 2021,
      "╋": 2022,
      "═": 2023,
      "║": 2024,
      "╥": 2025,
      "╨": 2026,
      "╰": 2027,
      "▀": 2028,
      "▄": 2029,
      "█": 2030,
      "▍": 2031,
      "░": 2032,
      "▒": 2033,
      "▓": 2034,
      "■": 2035,
      "□": 2036,
      "▪": 2037,
      "▫": 2038,
      "▬": 2039,
      "▯": 2040,
      "▲": 2041,
      "△": 2042,
      "▴": 2043,
      "▵": 2044,
      "▶": 2045,
      "▷": 2046,
      "▸": 2047,
      "►": 2048,
      "▻": 2049,
      "▼": 2050,
      "▽": 2051,
      "◀": 2052,
      "◄": 2053,
      "◆": 2054,
      "◇": 2055,
      "◈": 2056,
      "◉": 2057,
      "◊": 2058,
      "○": 2059,
      "◌": 2060,
      "◎": 2061,
      "●": 2062,
      "◘": 2063,
      "◙": 2064,
      "◡": 2065,
      "◢": 2066,
      "◦": 2067,
      "◪": 2068,
      "◯": 2069,
      "◼": 2070,
      "◾": 2071,
      "☀": 2072,
      "☁": 2073,
      "☂": 2074,
      "☄": 2075,
      "★": 2076,
      "☆": 2077,
      "☉": 2078,
      "☎": 2079,
      "☑": 2080,
      "☔": 2081,
      "☕": 2082,
      "☘": 2083,
      "☙": 2084,
      "☛": 2085,
      "☜": 2086,
      "☝": 2087,
      "☞": 2088,
      "☠": 2089,
      "☧": 2090,
      "☫": 2091,
      "☯": 2092,
      "☰": 2093,
      "☱": 2094,
      "☳": 2095,
      "☴": 2096,
      "☹": 2097,
      "☺": 2098,
      "☻": 2099,
      "☼": 2100,
      "♀": 2101,
      "♂": 2102,
      "♈": 2103,
      "♊": 2104,
      "♐": 2105,
      "♑": 2106,
      "♒": 2107,
      "♔": 2108,
      "♛": 2109,
      "♠": 2110,
      "♡": 2111,
      "♢": 2112,
      "♣": 2113,
      "♤": 2114,
      "♥": 2115,
      "♦": 2116,
      "♧": 2117,
      "♪": 2118,
      "♫": 2119,
      "♬": 2120,
      "♭": 2121,
      "♮": 2122,
      "♯": 2123,
      "♻": 2124,
      "♾": 2125,
      "⚇": 2126,
      "⚓": 2127,
      "⚔": 2128,
      "⚙": 2129,
      "⚛": 2130,
      "⚜": 2131,
      "⚠": 2132,
      "⚡": 2133,
      "⚥": 2134,
      "⚫": 2135,
      "⚬": 2136,
      "⚭": 2137,
      "⚱": 2138,
      "⚲": 2139,
      "⚽": 2140,
      "⚾": 2141,
      "⛅": 2142,
      "⛈": 2143,
      "⛪": 2144,
      "⛱": 2145,
      "⛳": 2146,
      "⛴": 2147,
      "⛽": 2148,
      "✂": 2149,
      "✅": 2150,
      "✈": 2151,
      "✉": 2152,
      "✊": 2153,
      "✋": 2154,
      "✌": 2155,
      "✍": 2156,
      "✏": 2157,
      "✒": 2158,
      "✓": 2159,
      "✔": 2160,
      "✕": 2161,
      "✖": 2162,
      "✚": 2163,
      "✝": 2164,
      "✞": 2165,
      "✡": 2166,
      "✦": 2167,
      "✧": 2168,
      "✨": 2169,
      "✩": 2170,
      "✪": 2171,
      "✫": 2172,
      "✮": 2173,
      "✯": 2174,
      "✰": 2175,
      "✲": 2176,
      "✳": 2177,
      "✵": 2178,
      "✶": 2179,
      "✷": 2180,
      "✸": 2181,
      "✻": 2182,
      "✽": 2183,
      "✿": 2184,
      "❀": 2185,
      "❁": 2186,
      "❄": 2187,
      "❉": 2188,
      "❊": 2189,
      "❋": 2190,
      "❌": 2191,
      "❑": 2192,
      "❓": 2193,
      "❔": 2194,
      "❕": 2195,
      "❖": 2196,
      "❗": 2197,
      "❛": 2198,
      "❝": 2199,
      "❣": 2200,
      "❤": 2201,
      "❥": 2202,
      "❦": 2203,
      "❮": 2204,
      "❯": 2205,
      "❶": 2206,
      "➊": 2207,
      "➋": 2208,
      "➌": 2209,
      "➍": 2210,
      "➔": 2211,
      "➕": 2212,
      "➖": 2213,
      "➚": 2214,
      "➜": 2215,
      "➝": 2216,
      "➞": 2217,
      "➟": 2218,
      "➡": 2219,
      "➢": 2220,
      "➤": 2221,
      "➥": 2222,
      "➦": 2223,
      "➨": 2224,
      "➯": 2225,
      "➲": 2226,
      "➹": 2227,
      "➽": 2228,
      "⟨": 2229,
      "⟩": 2230,
      "⟵": 2231,
      "⟶": 2232,
      "⠀": 2233,
      "⠁": 2234,
      "⠋": 2235,
      "⠙": 2236,
      "⠟": 2237,
      "⠻": 2238,
      "⠿": 2239,
      "⡈": 2240,
      "⡟": 2241,
      "⡷": 2242,
      "⡿": 2243,
      "⢀": 2244,
      "⢁": 2245,
      "⢻": 2246,
      "⢿": 2247,
      "⣉": 2248,
      "⣌": 2249,
      "⣠": 2250,
      "⣦": 2251,
      "⣧": 2252,
      "⣴": 2253,
      "⣶": 2254,
      "⣷": 2255,
      "⣼": 2256,
      "⣾": 2257,
      "⣿": 2258,
      "⤷": 2259,
      "⦁": 2260,
      "⦿": 2261,
      "⧼": 2262,
      "⧽": 2263,
      "⩔": 2264,
      "⩾": 2265,
      "⪉": 2266,
      "⬅": 2267,
      "⬆": 2268,
      "⬇": 2269,
      "⭐": 2270,
      "⭕": 2271,
      "⮑": 2272,
      "Ⱡ": 2273,
      "ⱥ": 2274,
      "Ɑ": 2275,
      "Ɐ": 2276,
      "Ɒ": 2277,
      "ⱷ": 2278,
      "ⲁ": 2279,
      "Ⲃ": 2280,
      "ⲃ": 2281,
      "ⲇ": 2282,
      "ⲉ": 2283,
      "ⲓ": 2284,
      "ⲗ": 2285,
      "ⲙ": 2286,
      "ⲛ": 2287,
      "ⲟ": 2288,
      "ⲡ": 2289,
      "Ⲣ": 2290,
      "ⲣ": 2291,
      "ⲧ": 2292,
      "Ⲩ": 2293,
      "ⲩ": 2294,
      "ⲱ": 2295,
      "ⴰ": 2296,
      "ⵉ": 2297,
      "ⵎ": 2298,
      "ⵖ": 2299,
      "ⵜ": 2300,
      "ⵣ": 2301,
      "、": 2302,
      "。": 2303,
      "々": 2304,
      "〇": 2305,
      "〈": 2306,
      "〉": 2307,
      "《": 2308,
      "》": 2309,
      "「": 2310,
      "」": 2311,
      "『": 2312,
      "』": 2313,
      "【": 2314,
      "】": 2315,
      "〒": 2316,
      "〖": 2317,
      "〗": 2318,
      "〜": 2319,
      "〝": 2320,
      "〞": 2321,
      "〟": 2322,
      "ぁ": 2323,
      "あ": 2324,
      "い": 2325,
      "う": 2326,
      "ぇ": 2327,
      "え": 2328,
      "お": 2329,
      "か": 2330,
      "き": 2331,
      "く": 2332,
      "け": 2333,
      "こ": 2334,
      "さ": 2335,
      "し": 2336,
      "す": 2337,
      "せ": 2338,
      "そ": 2339,
      "た": 2340,
      "ち": 2341,
      "っ": 2342,
      "つ": 2343,
      "て": 2344,
      "と": 2345,
      "な": 2346,
      "に": 2347,
      "ぬ": 2348,
      "ね": 2349,
      "の": 2350,
      "は": 2351,
      "ひ": 2352,
      "ふ": 2353,
      "へ": 2354,
      "ほ": 2355,
      "ま": 2356,
      "み": 2357,
      "む": 2358,
      "め": 2359,
      "も": 2360,
      "ゃ": 2361,
      "や": 2362,
      "ゅ": 2363,
      "ゆ": 2364,
      "ょ": 2365,
      "よ": 2366,
      "ら": 2367,
      "り": 2368,
      "る": 2369,
      "れ": 2370,
      "ろ": 2371,
      "わ": 2372,
      "ゐ": 2373,
      "ゑ": 2374,
      "を": 2375,
      "ん": 2376,
      "ゝ": 2377,
      "ァ": 2378,
      "ア": 2379,
      "ィ": 2380,
      "イ": 2381,
      "ゥ": 2382,
      "ウ": 2383,
      "ェ": 2384,
      "エ": 2385,
      "ォ": 2386,
      "オ": 2387,
      "カ": 2388,
      "キ": 2389,
      "ク": 2390,
      "ケ": 2391,
      "コ": 2392,
      "サ": 2393,
      "シ": 2394,
      "ス": 2395,
      "セ": 2396,
      "ソ": 2397,
      "タ": 2398,
      "チ": 2399,
      "ッ": 2400,
      "ツ": 2401,
      "テ": 2402,
      "ト": 2403,
      "ナ": 2404,
      "ニ": 2405,
      "ヌ": 2406,
      "ネ": 2407,
      "ノ": 2408,
      "ハ": 2409,
      "ヒ": 2410,
      "フ": 2411,
      "ヘ": 2412,
      "ホ": 2413,
      "マ": 2414,
      "ミ": 2415,
      "ム": 2416,
      "メ": 2417,
      "モ": 2418,
      "ャ": 2419,
      "ヤ": 2420,
      "ュ": 2421,
      "ユ": 2422,
      "ョ": 2423,
      "ヨ": 2424,
      "ラ": 2425,
      "リ": 2426,
      "ル": 2427,
      "レ": 2428,
      "ロ": 2429,
      "ヮ": 2430,
      "ワ": 2431,
      "ヰ": 2432,
      "ヱ": 2433,
      "ヲ": 2434,
      "ン": 2435,
      "ヶ": 2436,
      "・": 2437,
      "ー": 2438,
      "ヽ": 2439,
      "ㄌ": 2440,
      "ㄢ": 2441,
      "ㄣ": 2442,
      "ㄤ": 2443,
      "ㄥ": 2444,
      "ㄦ": 2445,
      "ㄧ": 2446,
      "ㄨ": 2447,
      "ㄱ": 2448,
      "ㄴ": 2449,
      "ㄷ": 2450,
      "ㅅ": 2451,
      "ㅋ": 2452,
      "ㅎ": 2453,
      "ㅏ": 2454,
      "ㅕ": 2455,
      "ㅗ": 2456,
      "ㅡ": 2457,
      "ㅤ": 2458,
      "ㅺ": 2459,
      "ㅻ": 2460,
      "ㅼ": 2461,
      "ㅽ": 2462,
      "ㆍ": 2463,
      "㎝": 2464,
      "㎟": 2465,
      "㎡": 2466,
      "㞎": 2467,
      "䩢": 2468,
      "一": 2469,
      "丁": 2470,
      "七": 2471,
      "万": 2472,
      "丈": 2473,
      "三": 2474,
      "上": 2475,
      "下": 2476,
      "不": 2477,
      "与": 2478,
      "专": 2479,
      "且": 2480,
      "丕": 2481,
      "世": 2482,
      "丘": 2483,
      "丙": 2484,
      "业": 2485,
      "丛": 2486,
      "东": 2487,
      "丝": 2488,
      "丞": 2489,
      "丟": 2490,
      "両": 2491,
      "两": 2492,
      "严": 2493,
      "並": 2494,
      "丧": 2495,
      "丨": 2496,
      "个": 2497,
      "丫": 2498,
      "中": 2499,
      "丰": 2500,
      "串": 2501,
      "临": 2502,
      "丶": 2503,
      "丸": 2504,
      "丹": 2505,
      "为": 2506,
      "主": 2507,
      "丼": 2508,
      "丽": 2509,
      "举": 2510,
      "乃": 2511,
      "久": 2512,
      "么": 2513,
      "义": 2514,
      "之": 2515,
      "乌": 2516,
      "乎": 2517,
      "乏": 2518,
      "乐": 2519,
      "乔": 2520,
      "乗": 2521,
      "乘": 2522,
      "乙": 2523,
      "九": 2524,
      "乞": 2525,
      "也": 2526,
      "习": 2527,
      "乡": 2528,
      "书": 2529,
      "买": 2530,
      "乱": 2531,
      "乳": 2532,
      "乾": 2533,
      "亀": 2534,
      "了": 2535,
      "予": 2536,
      "争": 2537,
      "事": 2538,
      "二": 2539,
      "于": 2540,
      "云": 2541,
      "互": 2542,
      "五": 2543,
      "井": 2544,
      "亚": 2545,
      "些": 2546,
      "亜": 2547,
      "亞": 2548,
      "亡": 2549,
      "交": 2550,
      "亥": 2551,
      "亦": 2552,
      "产": 2553,
      "亨": 2554,
      "享": 2555,
      "京": 2556,
      "亭": 2557,
      "亮": 2558,
      "亲": 2559,
      "人": 2560,
      "亿": 2561,
      "什": 2562,
      "仁": 2563,
      "仅": 2564,
      "今": 2565,
      "介": 2566,
      "仍": 2567,
      "从": 2568,
      "仏": 2569,
      "仔": 2570,
      "仕": 2571,
      "他": 2572,
      "付": 2573,
      "仙": 2574,
      "仟": 2575,
      "代": 2576,
      "令": 2577,
      "以": 2578,
      "仪": 2579,
      "们": 2580,
      "仮": 2581,
      "仲": 2582,
      "件": 2583,
      "价": 2584,
      "任": 2585,
      "份": 2586,
      "仿": 2587,
      "企": 2588,
      "伊": 2589,
      "伍": 2590,
      "伏": 2591,
      "休": 2592,
      "众": 2593,
      "优": 2594,
      "伙": 2595,
      "会": 2596,
      "伝": 2597,
      "伟": 2598,
      "传": 2599,
      "伤": 2600,
      "伦": 2601,
      "伪": 2602,
      "伯": 2603,
      "估": 2604,
      "伴": 2605,
      "伸": 2606,
      "伺": 2607,
      "似": 2608,
      "伽": 2609,
      "但": 2610,
      "佈": 2611,
      "位": 2612,
      "低": 2613,
      "住": 2614,
      "佐": 2615,
      "佑": 2616,
      "体": 2617,
      "何": 2618,
      "余": 2619,
      "佛": 2620,
      "作": 2621,
      "你": 2622,
      "佢": 2623,
      "佩": 2624,
      "佬": 2625,
      "佳": 2626,
      "併": 2627,
      "佺": 2628,
      "佾": 2629,
      "使": 2630,
      "侃": 2631,
      "來": 2632,
      "例": 2633,
      "供": 2634,
      "依": 2635,
      "侠": 2636,
      "価": 2637,
      "侦": 2638,
      "侧": 2639,
      "侬": 2640,
      "侯": 2641,
      "侵": 2642,
      "便": 2643,
      "係": 2644,
      "促": 2645,
      "俄": 2646,
      "俊": 2647,
      "俏": 2648,
      "保": 2649,
      "俞": 2650,
      "俟": 2651,
      "信": 2652,
      "修": 2653,
      "俯": 2654,
      "俱": 2655,
      "俳": 2656,
      "俶": 2657,
      "俺": 2658,
      "俾": 2659,
      "倉": 2660,
      "個": 2661,
      "倍": 2662,
      "們": 2663,
      "倒": 2664,
      "倗": 2665,
      "候": 2666,
      "倚": 2667,
      "借": 2668,
      "倡": 2669,
      "値": 2670,
      "倫": 2671,
      "倭": 2672,
      "值": 2673,
      "倾": 2674,
      "假": 2675,
      "偏": 2676,
      "做": 2677,
      "停": 2678,
      "健": 2679,
      "側": 2680,
      "偵": 2681,
      "偶": 2682,
      "偷": 2683,
      "偿": 2684,
      "傅": 2685,
      "傍": 2686,
      "傑": 2687,
      "備": 2688,
      "储": 2689,
      "傩": 2690,
      "催": 2691,
      "傳": 2692,
      "傷": 2693,
      "傻": 2694,
      "傾": 2695,
      "像": 2696,
      "僕": 2697,
      "僖": 2698,
      "僧": 2699,
      "價": 2700,
      "儀": 2701,
      "儒": 2702,
      "儘": 2703,
      "儚": 2704,
      "償": 2705,
      "優": 2706,
      "儲": 2707,
      "儺": 2708,
      "儿": 2709,
      "允": 2710,
      "元": 2711,
      "兄": 2712,
      "充": 2713,
      "兆": 2714,
      "先": 2715,
      "光": 2716,
      "克": 2717,
      "兌": 2718,
      "免": 2719,
      "兎": 2720,
      "児": 2721,
      "兒": 2722,
      "兔": 2723,
      "党": 2724,
      "兜": 2725,
      "入": 2726,
      "內": 2727,
      "全": 2728,
      "兩": 2729,
      "八": 2730,
      "公": 2731,
      "六": 2732,
      "兰": 2733,
      "共": 2734,
      "关": 2735,
      "兴": 2736,
      "兵": 2737,
      "其": 2738,
      "具": 2739,
      "典": 2740,
      "养": 2741,
      "兼": 2742,
      "兽": 2743,
      "冀": 2744,
      "内": 2745,
      "円": 2746,
      "冇": 2747,
      "冉": 2748,
      "冊": 2749,
      "册": 2750,
      "再": 2751,
      "冑": 2752,
      "冒": 2753,
      "冓": 2754,
      "写": 2755,
      "军": 2756,
      "农": 2757,
      "冠": 2758,
      "冥": 2759,
      "冦": 2760,
      "冬": 2761,
      "冯": 2762,
      "冰": 2763,
      "冲": 2764,
      "决": 2765,
      "况": 2766,
      "冷": 2767,
      "冻": 2768,
      "准": 2769,
      "凌": 2770,
      "凍": 2771,
      "减": 2772,
      "凝": 2773,
      "几": 2774,
      "凡": 2775,
      "凤": 2776,
      "処": 2777,
      "凯": 2778,
      "凰": 2779,
      "凱": 2780,
      "凸": 2781,
      "凹": 2782,
      "出": 2783,
      "击": 2784,
      "函": 2785,
      "刀": 2786,
      "刃": 2787,
      "分": 2788,
      "切": 2789,
      "刊": 2790,
      "刑": 2791,
      "划": 2792,
      "列": 2793,
      "刘": 2794,
      "则": 2795,
      "刚": 2796,
      "创": 2797,
      "初": 2798,
      "判": 2799,
      "別": 2800,
      "利": 2801,
      "别": 2802,
      "刮": 2803,
      "到": 2804,
      "制": 2805,
      "刷": 2806,
      "刺": 2807,
      "刻": 2808,
      "剁": 2809,
      "剂": 2810,
      "則": 2811,
      "削": 2812,
      "前": 2813,
      "剑": 2814,
      "剛": 2815,
      "剣": 2816,
      "剤": 2817,
      "剥": 2818,
      "剧": 2819,
      "剪": 2820,
      "副": 2821,
      "割": 2822,
      "創": 2823,
      "劃": 2824,
      "劇": 2825,
      "劉": 2826,
      "劍": 2827,
      "劑": 2828,
      "劔": 2829,
      "力": 2830,
      "办": 2831,
      "功": 2832,
      "加": 2833,
      "务": 2834,
      "动": 2835,
      "助": 2836,
      "努": 2837,
      "励": 2838,
      "劲": 2839,
      "効": 2840,
      "势": 2841,
      "勁": 2842,
      "勇": 2843,
      "勉": 2844,
      "勋": 2845,
      "勒": 2846,
      "動": 2847,
      "勘": 2848,
      "務": 2849,
      "勝": 2850,
      "勞": 2851,
      "勢": 2852,
      "勤": 2853,
      "勵": 2854,
      "勻": 2855,
      "勾": 2856,
      "包": 2857,
      "匕": 2858,
      "化": 2859,
      "北": 2860,
      "匟": 2861,
      "匠": 2862,
      "匪": 2863,
      "匯": 2864,
      "匹": 2865,
      "区": 2866,
      "医": 2867,
      "區": 2868,
      "十": 2869,
      "千": 2870,
      "卅": 2871,
      "升": 2872,
      "午": 2873,
      "卉": 2874,
      "半": 2875,
      "卍": 2876,
      "华": 2877,
      "协": 2878,
      "卓": 2879,
      "協": 2880,
      "单": 2881,
      "南": 2882,
      "単": 2883,
      "博": 2884,
      "卜": 2885,
      "卞": 2886,
      "占": 2887,
      "卡": 2888,
      "卧": 2889,
      "卫": 2890,
      "印": 2891,
      "危": 2892,
      "即": 2893,
      "却": 2894,
      "卵": 2895,
      "卷": 2896,
      "卸": 2897,
      "卻": 2898,
      "厂": 2899,
      "厄": 2900,
      "厅": 2901,
      "历": 2902,
      "压": 2903,
      "厕": 2904,
      "厚": 2905,
      "原": 2906,
      "厥": 2907,
      "厦": 2908,
      "厨": 2909,
      "厭": 2910,
      "厲": 2911,
      "去": 2912,
      "县": 2913,
      "参": 2914,
      "參": 2915,
      "又": 2916,
      "叉": 2917,
      "及": 2918,
      "友": 2919,
      "双": 2920,
      "反": 2921,
      "収": 2922,
      "发": 2923,
      "叔": 2924,
      "取": 2925,
      "受": 2926,
      "变": 2927,
      "叠": 2928,
      "叡": 2929,
      "叢": 2930,
      "口": 2931,
      "古": 2932,
      "句": 2933,
      "另": 2934,
      "叨": 2935,
      "只": 2936,
      "叫": 2937,
      "召": 2938,
      "可": 2939,
      "台": 2940,
      "史": 2941,
      "右": 2942,
      "叶": 2943,
      "号": 2944,
      "司": 2945,
      "吁": 2946,
      "吃": 2947,
      "各": 2948,
      "合": 2949,
      "吉": 2950,
      "吊": 2951,
      "吋": 2952,
      "同": 2953,
      "名": 2954,
      "后": 2955,
      "吏": 2956,
      "吐": 2957,
      "向": 2958,
      "吓": 2959,
      "吕": 2960,
      "吖": 2961,
      "吗": 2962,
      "君": 2963,
      "吞": 2964,
      "吡": 2965,
      "否": 2966,
      "吧": 2967,
      "含": 2968,
      "听": 2969,
      "启": 2970,
      "吳": 2971,
      "吴": 2972,
      "吸": 2973,
      "吹": 2974,
      "吻": 2975,
      "吾": 2976,
      "呀": 2977,
      "呂": 2978,
      "呈": 2979,
      "呉": 2980,
      "告": 2981,
      "呑": 2982,
      "员": 2983,
      "呢": 2984,
      "周": 2985,
      "味": 2986,
      "呸": 2987,
      "呼": 2988,
      "命": 2989,
      "咁": 2990,
      "咄": 2991,
      "和": 2992,
      "咏": 2993,
      "咒": 2994,
      "咖": 2995,
      "咗": 2996,
      "咩": 2997,
      "咪": 2998,
      "咭": 2999,
      "咯": 3000,
      "咲": 3001,
      "咸": 3002,
      "哀": 3003,
      "品": 3004,
      "哄": 3005,
      "哇": 3006,
      "哈": 3007,
      "响": 3008,
      "哎": 3009,
      "員": 3010,
      "哥": 3011,
      "哪": 3012,
      "哲": 3013,
      "哺": 3014,
      "唇": 3015,
      "唉": 3016,
      "唐": 3017,
      "唔": 3018,
      "售": 3019,
      "唯": 3020,
      "唱": 3021,
      "唸": 3022,
      "商": 3023,
      "啊": 3024,
      "問": 3025,
      "啞": 3026,
      "啟": 3027,
      "啡": 3028,
      "啦": 3029,
      "啧": 3030,
      "喂": 3031,
      "善": 3032,
      "喉": 3033,
      "喔": 3034,
      "喘": 3035,
      "喜": 3036,
      "喝": 3037,
      "喧": 3038,
      "喪": 3039,
      "喬": 3040,
      "單": 3041,
      "喱": 3042,
      "営": 3043,
      "喷": 3044,
      "喺": 3045,
      "喻": 3046,
      "喽": 3047,
      "嗎": 3048,
      "嗯": 3049,
      "嘅": 3050,
      "嘉": 3051,
      "嘘": 3052,
      "嘢": 3053,
      "嘩": 3054,
      "嘿": 3055,
      "噛": 3056,
      "噤": 3057,
      "器": 3058,
      "噪": 3059,
      "噴": 3060,
      "嚴": 3061,
      "囉": 3062,
      "囊": 3063,
      "囍": 3064,
      "四": 3065,
      "回": 3066,
      "因": 3067,
      "团": 3068,
      "団": 3069,
      "园": 3070,
      "困": 3071,
      "囲": 3072,
      "図": 3073,
      "围": 3074,
      "固": 3075,
      "国": 3076,
      "图": 3077,
      "圃": 3078,
      "圆": 3079,
      "圈": 3080,
      "國": 3081,
      "圍": 3082,
      "圏": 3083,
      "園": 3084,
      "圓": 3085,
      "圖": 3086,
      "團": 3087,
      "土": 3088,
      "圣": 3089,
      "圧": 3090,
      "在": 3091,
      "圭": 3092,
      "地": 3093,
      "圳": 3094,
      "场": 3095,
      "圾": 3096,
      "址": 3097,
      "坂": 3098,
      "均": 3099,
      "坊": 3100,
      "坏": 3101,
      "坐": 3102,
      "坑": 3103,
      "块": 3104,
      "坚": 3105,
      "坛": 3106,
      "坡": 3107,
      "坤": 3108,
      "坦": 3109,
      "坪": 3110,
      "坳": 3111,
      "垂": 3112,
      "垃": 3113,
      "型": 3114,
      "垒": 3115,
      "垠": 3116,
      "垢": 3117,
      "垣": 3118,
      "垫": 3119,
      "垮": 3120,
      "埋": 3121,
      "城": 3122,
      "埔": 3123,
      "埕": 3124,
      "域": 3125,
      "埥": 3126,
      "執": 3127,
      "培": 3128,
      "基": 3129,
      "堀": 3130,
      "堂": 3131,
      "堅": 3132,
      "堆": 3133,
      "堕": 3134,
      "堡": 3135,
      "堤": 3136,
      "堧": 3137,
      "堪": 3138,
      "報": 3139,
      "場": 3140,
      "塊": 3141,
      "塑": 3142,
      "塔": 3143,
      "塗": 3144,
      "塘": 3145,
      "塙": 3146,
      "塚": 3147,
      "塞": 3148,
      "塢": 3149,
      "塩": 3150,
      "填": 3151,
      "塵": 3152,
      "塾": 3153,
      "境": 3154,
      "墅": 3155,
      "墓": 3156,
      "増": 3157,
      "增": 3158,
      "墨": 3159,
      "壁": 3160,
      "壇": 3161,
      "壓": 3162,
      "壞": 3163,
      "壩": 3164,
      "士": 3165,
      "壮": 3166,
      "壯": 3167,
      "声": 3168,
      "売": 3169,
      "壽": 3170,
      "处": 3171,
      "备": 3172,
      "変": 3173,
      "复": 3174,
      "夏": 3175,
      "夕": 3176,
      "外": 3177,
      "多": 3178,
      "夜": 3179,
      "够": 3180,
      "夠": 3181,
      "夢": 3182,
      "大": 3183,
      "夨": 3184,
      "天": 3185,
      "太": 3186,
      "夫": 3187,
      "央": 3188,
      "失": 3189,
      "头": 3190,
      "夹": 3191,
      "夺": 3192,
      "奄": 3193,
      "奇": 3194,
      "奈": 3195,
      "奉": 3196,
      "奋": 3197,
      "奎": 3198,
      "奏": 3199,
      "契": 3200,
      "奔": 3201,
      "奖": 3202,
      "套": 3203,
      "奠": 3204,
      "奥": 3205,
      "奧": 3206,
      "奪": 3207,
      "女": 3208,
      "奴": 3209,
      "奶": 3210,
      "她": 3211,
      "好": 3212,
      "如": 3213,
      "妃": 3214,
      "妄": 3215,
      "妇": 3216,
      "妈": 3217,
      "妍": 3218,
      "妖": 3219,
      "妥": 3220,
      "妨": 3221,
      "妫": 3222,
      "妮": 3223,
      "妹": 3224,
      "妻": 3225,
      "姆": 3226,
      "姉": 3227,
      "始": 3228,
      "姍": 3229,
      "姑": 3230,
      "姓": 3231,
      "委": 3232,
      "姚": 3233,
      "姣": 3234,
      "姦": 3235,
      "姫": 3236,
      "姬": 3237,
      "姮": 3238,
      "姿": 3239,
      "威": 3240,
      "娘": 3241,
      "娛": 3242,
      "娜": 3243,
      "娱": 3244,
      "婁": 3245,
      "婆": 3246,
      "婉": 3247,
      "婕": 3248,
      "婚": 3249,
      "婦": 3250,
      "婧": 3251,
      "婴": 3252,
      "婷": 3253,
      "媒": 3254,
      "媚": 3255,
      "媛": 3256,
      "媯": 3257,
      "媽": 3258,
      "嫩": 3259,
      "嬉": 3260,
      "子": 3261,
      "孔": 3262,
      "孕": 3263,
      "字": 3264,
      "存": 3265,
      "孙": 3266,
      "孝": 3267,
      "孟": 3268,
      "季": 3269,
      "孤": 3270,
      "学": 3271,
      "孩": 3272,
      "孫": 3273,
      "學": 3274,
      "宁": 3275,
      "它": 3276,
      "宅": 3277,
      "宇": 3278,
      "守": 3279,
      "安": 3280,
      "宋": 3281,
      "完": 3282,
      "宏": 3283,
      "宗": 3284,
      "官": 3285,
      "宙": 3286,
      "定": 3287,
      "宜": 3288,
      "宝": 3289,
      "实": 3290,
      "実": 3291,
      "宠": 3292,
      "审": 3293,
      "客": 3294,
      "宣": 3295,
      "室": 3296,
      "宥": 3297,
      "宪": 3298,
      "宫": 3299,
      "宮": 3300,
      "宰": 3301,
      "害": 3302,
      "家": 3303,
      "宸": 3304,
      "容": 3305,
      "宽": 3306,
      "宾": 3307,
      "宿": 3308,
      "寂": 3309,
      "寃": 3310,
      "寄": 3311,
      "寅": 3312,
      "密": 3313,
      "寇": 3314,
      "富": 3315,
      "寒": 3316,
      "寓": 3317,
      "寛": 3318,
      "寝": 3319,
      "察": 3320,
      "寡": 3321,
      "寥": 3322,
      "實": 3323,
      "寧": 3324,
      "寨": 3325,
      "審": 3326,
      "寫": 3327,
      "寬": 3328,
      "寮": 3329,
      "寰": 3330,
      "寶": 3331,
      "寸": 3332,
      "对": 3333,
      "寺": 3334,
      "寻": 3335,
      "导": 3336,
      "対": 3337,
      "寿": 3338,
      "封": 3339,
      "専": 3340,
      "射": 3341,
      "将": 3342,
      "將": 3343,
      "專": 3344,
      "尊": 3345,
      "尋": 3346,
      "對": 3347,
      "導": 3348,
      "小": 3349,
      "少": 3350,
      "尔": 3351,
      "尚": 3352,
      "尝": 3353,
      "尤": 3354,
      "就": 3355,
      "尹": 3356,
      "尺": 3357,
      "尻": 3358,
      "尼": 3359,
      "尽": 3360,
      "尾": 3361,
      "尿": 3362,
      "局": 3363,
      "屁": 3364,
      "层": 3365,
      "屄": 3366,
      "居": 3367,
      "屆": 3368,
      "屈": 3369,
      "届": 3370,
      "屋": 3371,
      "屏": 3372,
      "展": 3373,
      "属": 3374,
      "屠": 3375,
      "層": 3376,
      "屬": 3377,
      "屯": 3378,
      "山": 3379,
      "屹": 3380,
      "岁": 3381,
      "岐": 3382,
      "岛": 3383,
      "岡": 3384,
      "岩": 3385,
      "岬": 3386,
      "岭": 3387,
      "岳": 3388,
      "岸": 3389,
      "峒": 3390,
      "峡": 3391,
      "峰": 3392,
      "島": 3393,
      "峽": 3394,
      "崇": 3395,
      "崎": 3396,
      "崔": 3397,
      "崖": 3398,
      "崙": 3399,
      "崩": 3400,
      "崽": 3401,
      "嵌": 3402,
      "嵐": 3403,
      "嵬": 3404,
      "嶋": 3405,
      "嶺": 3406,
      "嶽": 3407,
      "巍": 3408,
      "川": 3409,
      "州": 3410,
      "巡": 3411,
      "巢": 3412,
      "巣": 3413,
      "工": 3414,
      "左": 3415,
      "巧": 3416,
      "巨": 3417,
      "巫": 3418,
      "差": 3419,
      "己": 3420,
      "已": 3421,
      "巴": 3422,
      "巷": 3423,
      "巻": 3424,
      "巽": 3425,
      "巾": 3426,
      "币": 3427,
      "市": 3428,
      "布": 3429,
      "帅": 3430,
      "帆": 3431,
      "师": 3432,
      "希": 3433,
      "帐": 3434,
      "帕": 3435,
      "帖": 3436,
      "帝": 3437,
      "帥": 3438,
      "带": 3439,
      "師": 3440,
      "席": 3441,
      "帮": 3442,
      "帯": 3443,
      "帰": 3444,
      "帳": 3445,
      "帶": 3446,
      "常": 3447,
      "幅": 3448,
      "幕": 3449,
      "幡": 3450,
      "幣": 3451,
      "幫": 3452,
      "干": 3453,
      "平": 3454,
      "年": 3455,
      "并": 3456,
      "幸": 3457,
      "幹": 3458,
      "幻": 3459,
      "幼": 3460,
      "幾": 3461,
      "广": 3462,
      "庁": 3463,
      "広": 3464,
      "庄": 3465,
      "庆": 3466,
      "床": 3467,
      "序": 3468,
      "库": 3469,
      "应": 3470,
      "底": 3471,
      "店": 3472,
      "庙": 3473,
      "府": 3474,
      "废": 3475,
      "度": 3476,
      "座": 3477,
      "庫": 3478,
      "庭": 3479,
      "庵": 3480,
      "康": 3481,
      "庹": 3482,
      "庾": 3483,
      "廃": 3484,
      "廉": 3485,
      "廖": 3486,
      "廚": 3487,
      "廟": 3488,
      "廠": 3489,
      "廢": 3490,
      "廣": 3491,
      "廳": 3492,
      "延": 3493,
      "廷": 3494,
      "建": 3495,
      "廻": 3496,
      "廿": 3497,
      "开": 3498,
      "弁": 3499,
      "异": 3500,
      "弃": 3501,
      "弄": 3502,
      "弉": 3503,
      "弊": 3504,
      "式": 3505,
      "引": 3506,
      "弗": 3507,
      "弘": 3508,
      "弟": 3509,
      "张": 3510,
      "弥": 3511,
      "弦": 3512,
      "弧": 3513,
      "弯": 3514,
      "弱": 3515,
      "張": 3516,
      "強": 3517,
      "弹": 3518,
      "强": 3519,
      "弾": 3520,
      "彈": 3521,
      "归": 3522,
      "当": 3523,
      "录": 3524,
      "彙": 3525,
      "形": 3526,
      "彤": 3527,
      "彥": 3528,
      "彦": 3529,
      "彩": 3530,
      "彪": 3531,
      "彬": 3532,
      "彭": 3533,
      "彰": 3534,
      "影": 3535,
      "役": 3536,
      "彻": 3537,
      "彼": 3538,
      "往": 3539,
      "征": 3540,
      "径": 3541,
      "待": 3542,
      "很": 3543,
      "律": 3544,
      "後": 3545,
      "徐": 3546,
      "徑": 3547,
      "徒": 3548,
      "従": 3549,
      "得": 3550,
      "從": 3551,
      "御": 3552,
      "復": 3553,
      "循": 3554,
      "微": 3555,
      "徳": 3556,
      "徴": 3557,
      "徵": 3558,
      "德": 3559,
      "徹": 3560,
      "徽": 3561,
      "心": 3562,
      "必": 3563,
      "忌": 3564,
      "忍": 3565,
      "志": 3566,
      "忘": 3567,
      "忙": 3568,
      "応": 3569,
      "忠": 3570,
      "快": 3571,
      "念": 3572,
      "忽": 3573,
      "怀": 3574,
      "态": 3575,
      "怎": 3576,
      "怒": 3577,
      "怕": 3578,
      "怖": 3579,
      "怛": 3580,
      "思": 3581,
      "怡": 3582,
      "急": 3583,
      "性": 3584,
      "怨": 3585,
      "怪": 3586,
      "总": 3587,
      "恋": 3588,
      "恐": 3589,
      "恒": 3590,
      "恢": 3591,
      "恥": 3592,
      "恩": 3593,
      "恪": 3594,
      "恬": 3595,
      "恭": 3596,
      "息": 3597,
      "恰": 3598,
      "恵": 3599,
      "恶": 3600,
      "恼": 3601,
      "悅": 3602,
      "悉": 3603,
      "悍": 3604,
      "悔": 3605,
      "悟": 3606,
      "悠": 3607,
      "患": 3608,
      "悦": 3609,
      "您": 3610,
      "悩": 3611,
      "悪": 3612,
      "悲": 3613,
      "情": 3614,
      "惊": 3615,
      "惑": 3616,
      "惜": 3617,
      "惠": 3618,
      "惡": 3619,
      "惧": 3620,
      "惯": 3621,
      "惰": 3622,
      "想": 3623,
      "愈": 3624,
      "愉": 3625,
      "愍": 3626,
      "意": 3627,
      "愚": 3628,
      "愛": 3629,
      "感": 3630,
      "慈": 3631,
      "態": 3632,
      "慎": 3633,
      "慕": 3634,
      "慘": 3635,
      "慢": 3636,
      "慣": 3637,
      "慧": 3638,
      "慨": 3639,
      "慮": 3640,
      "慰": 3641,
      "慶": 3642,
      "慾": 3643,
      "憂": 3644,
      "憎": 3645,
      "憓": 3646,
      "憩": 3647,
      "憲": 3648,
      "憶": 3649,
      "懂": 3650,
      "應": 3651,
      "懐": 3652,
      "懷": 3653,
      "懸": 3654,
      "懼": 3655,
      "懿": 3656,
      "戀": 3657,
      "戈": 3658,
      "戊": 3659,
      "戎": 3660,
      "戏": 3661,
      "成": 3662,
      "我": 3663,
      "戒": 3664,
      "或": 3665,
      "战": 3666,
      "戚": 3667,
      "戦": 3668,
      "截": 3669,
      "戯": 3670,
      "戰": 3671,
      "戲": 3672,
      "戴": 3673,
      "戶": 3674,
      "户": 3675,
      "戸": 3676,
      "戻": 3677,
      "房": 3678,
      "所": 3679,
      "扁": 3680,
      "手": 3681,
      "才": 3682,
      "扎": 3683,
      "扑": 3684,
      "打": 3685,
      "托": 3686,
      "扛": 3687,
      "扣": 3688,
      "扥": 3689,
      "执": 3690,
      "扩": 3691,
      "扫": 3692,
      "扬": 3693,
      "扭": 3694,
      "扰": 3695,
      "扱": 3696,
      "扶": 3697,
      "批": 3698,
      "找": 3699,
      "承": 3700,
      "技": 3701,
      "抄": 3702,
      "把": 3703,
      "抎": 3704,
      "抑": 3705,
      "投": 3706,
      "抗": 3707,
      "折": 3708,
      "抛": 3709,
      "抜": 3710,
      "択": 3711,
      "抣": 3712,
      "护": 3713,
      "报": 3714,
      "抮": 3715,
      "抯": 3716,
      "抱": 3717,
      "抵": 3718,
      "抹": 3719,
      "抽": 3720,
      "担": 3721,
      "拉": 3722,
      "拍": 3723,
      "拎": 3724,
      "拐": 3725,
      "拒": 3726,
      "拓": 3727,
      "拔": 3728,
      "招": 3729,
      "拜": 3730,
      "拟": 3731,
      "拠": 3732,
      "拡": 3733,
      "拥": 3734,
      "择": 3735,
      "括": 3736,
      "拯": 3737,
      "拳": 3738,
      "拼": 3739,
      "拾": 3740,
      "拿": 3741,
      "持": 3742,
      "指": 3743,
      "按": 3744,
      "挑": 3745,
      "挙": 3746,
      "挟": 3747,
      "挡": 3748,
      "挪": 3749,
      "振": 3750,
      "挺": 3751,
      "捉": 3752,
      "捌": 3753,
      "捏": 3754,
      "捐": 3755,
      "捕": 3756,
      "损": 3757,
      "换": 3758,
      "捣": 3759,
      "捨": 3760,
      "据": 3761,
      "捲": 3762,
      "掃": 3763,
      "授": 3764,
      "掉": 3765,
      "掌": 3766,
      "排": 3767,
      "掘": 3768,
      "掛": 3769,
      "掠": 3770,
      "採": 3771,
      "探": 3772,
      "接": 3773,
      "控": 3774,
      "推": 3775,
      "掩": 3776,
      "掲": 3777,
      "揀": 3778,
      "揃": 3779,
      "描": 3780,
      "提": 3781,
      "插": 3782,
      "揚": 3783,
      "換": 3784,
      "握": 3785,
      "揭": 3786,
      "揮": 3787,
      "援": 3788,
      "損": 3789,
      "搖": 3790,
      "搜": 3791,
      "搞": 3792,
      "搬": 3793,
      "搭": 3794,
      "搵": 3795,
      "摄": 3796,
      "摇": 3797,
      "摘": 3798,
      "摩": 3799,
      "摻": 3800,
      "撃": 3801,
      "撐": 3802,
      "撑": 3803,
      "撒": 3804,
      "撕": 3805,
      "撤": 3806,
      "撫": 3807,
      "播": 3808,
      "撮": 3809,
      "撼": 3810,
      "擁": 3811,
      "擅": 3812,
      "擇": 3813,
      "擊": 3814,
      "操": 3815,
      "據": 3816,
      "擦": 3817,
      "擬": 3818,
      "擯": 3819,
      "擴": 3820,
      "擷": 3821,
      "擾": 3822,
      "攀": 3823,
      "攂": 3824,
      "攔": 3825,
      "攖": 3826,
      "攚": 3827,
      "攜": 3828,
      "攝": 3829,
      "支": 3830,
      "收": 3831,
      "改": 3832,
      "攻": 3833,
      "放": 3834,
      "政": 3835,
      "故": 3836,
      "效": 3837,
      "敌": 3838,
      "敎": 3839,
      "敏": 3840,
      "救": 3841,
      "敖": 3842,
      "敗": 3843,
      "敘": 3844,
      "教": 3845,
      "敛": 3846,
      "散": 3847,
      "敦": 3848,
      "敬": 3849,
      "数": 3850,
      "敲": 3851,
      "整": 3852,
      "敵": 3853,
      "敷": 3854,
      "數": 3855,
      "文": 3856,
      "斌": 3857,
      "斑": 3858,
      "斓": 3859,
      "斗": 3860,
      "料": 3861,
      "斜": 3862,
      "斟": 3863,
      "斤": 3864,
      "断": 3865,
      "斯": 3866,
      "新": 3867,
      "斷": 3868,
      "方": 3869,
      "於": 3870,
      "施": 3871,
      "旁": 3872,
      "旅": 3873,
      "旋": 3874,
      "族": 3875,
      "旗": 3876,
      "无": 3877,
      "既": 3878,
      "日": 3879,
      "旦": 3880,
      "旧": 3881,
      "旨": 3882,
      "早": 3883,
      "旭": 3884,
      "旱": 3885,
      "时": 3886,
      "旺": 3887,
      "昂": 3888,
      "昆": 3889,
      "昇": 3890,
      "昌": 3891,
      "明": 3892,
      "昏": 3893,
      "易": 3894,
      "昔": 3895,
      "昕": 3896,
      "昙": 3897,
      "星": 3898,
      "映": 3899,
      "春": 3900,
      "昨": 3901,
      "昭": 3902,
      "是": 3903,
      "显": 3904,
      "晁": 3905,
      "時": 3906,
      "晉": 3907,
      "晋": 3908,
      "晌": 3909,
      "晏": 3910,
      "晓": 3911,
      "晖": 3912,
      "晚": 3913,
      "晟": 3914,
      "晨": 3915,
      "普": 3916,
      "景": 3917,
      "晰": 3918,
      "晴": 3919,
      "晶": 3920,
      "智": 3921,
      "暁": 3922,
      "暂": 3923,
      "暑": 3924,
      "暖": 3925,
      "暗": 3926,
      "暦": 3927,
      "暫": 3928,
      "暴": 3929,
      "曇": 3930,
      "曉": 3931,
      "曙": 3932,
      "曜": 3933,
      "曬": 3934,
      "曲": 3935,
      "更": 3936,
      "書": 3937,
      "曹": 3938,
      "曼": 3939,
      "曽": 3940,
      "曾": 3941,
      "替": 3942,
      "最": 3943,
      "會": 3944,
      "月": 3945,
      "有": 3946,
      "朋": 3947,
      "服": 3948,
      "朗": 3949,
      "朙": 3950,
      "望": 3951,
      "朝": 3952,
      "期": 3953,
      "木": 3954,
      "未": 3955,
      "末": 3956,
      "本": 3957,
      "札": 3958,
      "术": 3959,
      "朱": 3960,
      "朴": 3961,
      "朵": 3962,
      "机": 3963,
      "朽": 3964,
      "杂": 3965,
      "权": 3966,
      "杆": 3967,
      "杈": 3968,
      "杉": 3969,
      "李": 3970,
      "材": 3971,
      "村": 3972,
      "杖": 3973,
      "杜": 3974,
      "杞": 3975,
      "束": 3976,
      "杠": 3977,
      "条": 3978,
      "来": 3979,
      "杨": 3980,
      "杩": 3981,
      "杭": 3982,
      "杯": 3983,
      "杰": 3984,
      "東": 3985,
      "杵": 3986,
      "松": 3987,
      "板": 3988,
      "极": 3989,
      "构": 3990,
      "析": 3991,
      "林": 3992,
      "枚": 3993,
      "果": 3994,
      "枝": 3995,
      "架": 3996,
      "柄": 3997,
      "柏": 3998,
      "某": 3999,
      "染": 4000,
      "柔": 4001,
      "柘": 4002,
      "柚": 4003,
      "柜": 4004,
      "查": 4005,
      "柯": 4006,
      "柱": 4007,
      "柳": 4008,
      "柵": 4009,
      "査": 4010,
      "柽": 4011,
      "柿": 4012,
      "栄": 4013,
      "栅": 4014,
      "标": 4015,
      "栋": 4016,
      "栏": 4017,
      "树": 4018,
      "栗": 4019,
      "校": 4020,
      "株": 4021,
      "样": 4022,
      "核": 4023,
      "根": 4024,
      "格": 4025,
      "栾": 4026,
      "桁": 4027,
      "桂": 4028,
      "桃": 4029,
      "框": 4030,
      "案": 4031,
      "桌": 4032,
      "桐": 4033,
      "桑": 4034,
      "桓": 4035,
      "桜": 4036,
      "档": 4037,
      "桥": 4038,
      "桿": 4039,
      "梁": 4040,
      "梅": 4041,
      "梆": 4042,
      "條": 4043,
      "梦": 4044,
      "梭": 4045,
      "梯": 4046,
      "械": 4047,
      "梵": 4048,
      "梶": 4049,
      "检": 4050,
      "棄": 4051,
      "棉": 4052,
      "棋": 4053,
      "棍": 4054,
      "棒": 4055,
      "棚": 4056,
      "棟": 4057,
      "棣": 4058,
      "森": 4059,
      "棱": 4060,
      "棲": 4061,
      "椅": 4062,
      "椋": 4063,
      "植": 4064,
      "椎": 4065,
      "椒": 4066,
      "検": 4067,
      "椤": 4068,
      "椪": 4069,
      "椰": 4070,
      "椹": 4071,
      "楂": 4072,
      "楊": 4073,
      "楚": 4074,
      "楞": 4075,
      "業": 4076,
      "極": 4077,
      "楷": 4078,
      "楽": 4079,
      "概": 4080,
      "榕": 4081,
      "榜": 4082,
      "榮": 4083,
      "構": 4084,
      "槍": 4085,
      "様": 4086,
      "槽": 4087,
      "樂": 4088,
      "樓": 4089,
      "標": 4090,
      "模": 4091,
      "樣": 4092,
      "権": 4093,
      "横": 4094,
      "樹": 4095,
      "橋": 4096,
      "橘": 4097,
      "橙": 4098,
      "機": 4099,
      "橡": 4100,
      "橱": 4101,
      "檀": 4102,
      "檔": 4103,
      "檚": 4104,
      "檛": 4105,
      "檜": 4106,
      "檢": 4107,
      "櫃": 4108,
      "櫻": 4109,
      "欄": 4110,
      "欅": 4111,
      "權": 4112,
      "欝": 4113,
      "欠": 4114,
      "次": 4115,
      "欢": 4116,
      "欣": 4117,
      "欧": 4118,
      "欲": 4119,
      "欺": 4120,
      "款": 4121,
      "歇": 4122,
      "歉": 4123,
      "歌": 4124,
      "歐": 4125,
      "歓": 4126,
      "歡": 4127,
      "止": 4128,
      "正": 4129,
      "此": 4130,
      "步": 4131,
      "武": 4132,
      "歩": 4133,
      "歯": 4134,
      "歲": 4135,
      "歳": 4136,
      "歴": 4137,
      "歷": 4138,
      "歸": 4139,
      "死": 4140,
      "殊": 4141,
      "残": 4142,
      "殖": 4143,
      "殘": 4144,
      "段": 4145,
      "殷": 4146,
      "殺": 4147,
      "殼": 4148,
      "殿": 4149,
      "毅": 4150,
      "母": 4151,
      "毎": 4152,
      "每": 4153,
      "毒": 4154,
      "比": 4155,
      "毕": 4156,
      "毛": 4157,
      "毫": 4158,
      "毬": 4159,
      "氏": 4160,
      "民": 4161,
      "气": 4162,
      "氖": 4163,
      "気": 4164,
      "氙": 4165,
      "氛": 4166,
      "氟": 4167,
      "氢": 4168,
      "氣": 4169,
      "氦": 4170,
      "氧": 4171,
      "氩": 4172,
      "氪": 4173,
      "水": 4174,
      "氵": 4175,
      "永": 4176,
      "汁": 4177,
      "求": 4178,
      "汇": 4179,
      "汉": 4180,
      "汎": 4181,
      "汐": 4182,
      "汗": 4183,
      "汚": 4184,
      "汝": 4185,
      "江": 4186,
      "池": 4187,
      "污": 4188,
      "汤": 4189,
      "汪": 4190,
      "汰": 4191,
      "汲": 4192,
      "汴": 4193,
      "決": 4194,
      "汽": 4195,
      "沁": 4196,
      "沃": 4197,
      "沈": 4198,
      "沉": 4199,
      "沒": 4200,
      "沖": 4201,
      "沙": 4202,
      "沛": 4203,
      "沟": 4204,
      "没": 4205,
      "沢": 4206,
      "沪": 4207,
      "沮": 4208,
      "河": 4209,
      "油": 4210,
      "治": 4211,
      "沼": 4212,
      "沿": 4213,
      "況": 4214,
      "泉": 4215,
      "泌": 4216,
      "法": 4217,
      "泛": 4218,
      "泡": 4219,
      "波": 4220,
      "泣": 4221,
      "泥": 4222,
      "注": 4223,
      "泪": 4224,
      "泰": 4225,
      "泳": 4226,
      "泽": 4227,
      "泾": 4228,
      "洋": 4229,
      "洗": 4230,
      "洙": 4231,
      "洛": 4232,
      "洞": 4233,
      "津": 4234,
      "洪": 4235,
      "洲": 4236,
      "洹": 4237,
      "活": 4238,
      "派": 4239,
      "流": 4240,
      "浄": 4241,
      "浅": 4242,
      "测": 4243,
      "济": 4244,
      "浏": 4245,
      "浓": 4246,
      "浙": 4247,
      "浜": 4248,
      "浠": 4249,
      "浣": 4250,
      "浦": 4251,
      "浩": 4252,
      "浪": 4253,
      "浮": 4254,
      "浴": 4255,
      "海": 4256,
      "浸": 4257,
      "浼": 4258,
      "涂": 4259,
      "消": 4260,
      "涉": 4261,
      "涓": 4262,
      "涔": 4263,
      "涙": 4264,
      "涛": 4265,
      "涝": 4266,
      "涡": 4267,
      "润": 4268,
      "涨": 4269,
      "涪": 4270,
      "液": 4271,
      "涵": 4272,
      "涼": 4273,
      "淆": 4274,
      "淇": 4275,
      "淋": 4276,
      "淑": 4277,
      "淔": 4278,
      "淘": 4279,
      "淡": 4280,
      "淨": 4281,
      "淬": 4282,
      "淮": 4283,
      "深": 4284,
      "淳": 4285,
      "淵": 4286,
      "混": 4287,
      "淺": 4288,
      "添": 4289,
      "清": 4290,
      "済": 4291,
      "渋": 4292,
      "渍": 4293,
      "渐": 4294,
      "渕": 4295,
      "渚": 4296,
      "減": 4297,
      "渡": 4298,
      "渦": 4299,
      "温": 4300,
      "測": 4301,
      "港": 4302,
      "渲": 4303,
      "游": 4304,
      "湖": 4305,
      "湘": 4306,
      "湛": 4307,
      "湟": 4308,
      "湯": 4309,
      "湲": 4310,
      "湾": 4311,
      "湿": 4312,
      "満": 4313,
      "溅": 4314,
      "源": 4315,
      "準": 4316,
      "溜": 4317,
      "溢": 4318,
      "溪": 4319,
      "溫": 4320,
      "溶": 4321,
      "滋": 4322,
      "滎": 4323,
      "滑": 4324,
      "滕": 4325,
      "滚": 4326,
      "滞": 4327,
      "满": 4328,
      "滤": 4329,
      "滨": 4330,
      "滴": 4331,
      "滿": 4332,
      "漁": 4333,
      "漂": 4334,
      "漆": 4335,
      "漏": 4336,
      "演": 4337,
      "漠": 4338,
      "漢": 4339,
      "漣": 4340,
      "漫": 4341,
      "漸": 4342,
      "漾": 4343,
      "漿": 4344,
      "潁": 4345,
      "潇": 4346,
      "潔": 4347,
      "潘": 4348,
      "潜": 4349,
      "潟": 4350,
      "潤": 4351,
      "潭": 4352,
      "潮": 4353,
      "澄": 4354,
      "澜": 4355,
      "澤": 4356,
      "澥": 4357,
      "澱": 4358,
      "澳": 4359,
      "澶": 4360,
      "澹": 4361,
      "激": 4362,
      "濁": 4363,
      "濂": 4364,
      "濃": 4365,
      "濕": 4366,
      "濛": 4367,
      "濞": 4368,
      "濟": 4369,
      "濤": 4370,
      "濮": 4371,
      "濱": 4372,
      "瀉": 4373,
      "瀛": 4374,
      "瀧": 4375,
      "瀬": 4376,
      "瀹": 4377,
      "灏": 4378,
      "灞": 4379,
      "灣": 4380,
      "火": 4381,
      "灬": 4382,
      "灯": 4383,
      "灰": 4384,
      "灵": 4385,
      "災": 4386,
      "灾": 4387,
      "炉": 4388,
      "炎": 4389,
      "炒": 4390,
      "炔": 4391,
      "炜": 4392,
      "炫": 4393,
      "炭": 4394,
      "点": 4395,
      "為": 4396,
      "烃": 4397,
      "烈": 4398,
      "烏": 4399,
      "烘": 4400,
      "烤": 4401,
      "烦": 4402,
      "烧": 4403,
      "烬": 4404,
      "热": 4405,
      "烯": 4406,
      "烷": 4407,
      "焊": 4408,
      "焙": 4409,
      "無": 4410,
      "焦": 4411,
      "焯": 4412,
      "焰": 4413,
      "焱": 4414,
      "然": 4415,
      "焼": 4416,
      "煙": 4417,
      "煚": 4418,
      "照": 4419,
      "煩": 4420,
      "煮": 4421,
      "煲": 4422,
      "熄": 4423,
      "熊": 4424,
      "熔": 4425,
      "熟": 4426,
      "熱": 4427,
      "熳": 4428,
      "燃": 4429,
      "燈": 4430,
      "燉": 4431,
      "燕": 4432,
      "營": 4433,
      "燥": 4434,
      "燦": 4435,
      "爆": 4436,
      "爛": 4437,
      "爭": 4438,
      "爱": 4439,
      "父": 4440,
      "爷": 4441,
      "爸": 4442,
      "爺": 4443,
      "爽": 4444,
      "爾": 4445,
      "片": 4446,
      "版": 4447,
      "牌": 4448,
      "牙": 4449,
      "牛": 4450,
      "牢": 4451,
      "牧": 4452,
      "物": 4453,
      "牲": 4454,
      "特": 4455,
      "牺": 4456,
      "牽": 4457,
      "犬": 4458,
      "犯": 4459,
      "状": 4460,
      "犹": 4461,
      "狀": 4462,
      "狂": 4463,
      "狐": 4464,
      "狗": 4465,
      "狙": 4466,
      "独": 4467,
      "狭": 4468,
      "狮": 4469,
      "狱": 4470,
      "狼": 4471,
      "猜": 4472,
      "猪": 4473,
      "猫": 4474,
      "献": 4475,
      "猴": 4476,
      "猿": 4477,
      "獄": 4478,
      "獅": 4479,
      "獎": 4480,
      "獣": 4481,
      "獨": 4482,
      "獲": 4483,
      "獸": 4484,
      "玄": 4485,
      "率": 4486,
      "玉": 4487,
      "王": 4488,
      "玕": 4489,
      "玛": 4490,
      "玡": 4491,
      "玩": 4492,
      "玫": 4493,
      "环": 4494,
      "现": 4495,
      "玹": 4496,
      "玻": 4497,
      "珀": 4498,
      "珍": 4499,
      "珠": 4500,
      "珪": 4501,
      "班": 4502,
      "現": 4503,
      "球": 4504,
      "琅": 4505,
      "理": 4506,
      "琉": 4507,
      "琛": 4508,
      "琳": 4509,
      "琴": 4510,
      "琼": 4511,
      "瑋": 4512,
      "瑕": 4513,
      "瑛": 4514,
      "瑜": 4515,
      "瑞": 4516,
      "瑟": 4517,
      "瑪": 4518,
      "瑰": 4519,
      "瑾": 4520,
      "璃": 4521,
      "璇": 4522,
      "璋": 4523,
      "璐": 4524,
      "璞": 4525,
      "璧": 4526,
      "環": 4527,
      "璽": 4528,
      "瓊": 4529,
      "瓜": 4530,
      "瓢": 4531,
      "瓣": 4532,
      "瓦": 4533,
      "瓶": 4534,
      "瓷": 4535,
      "甄": 4536,
      "甘": 4537,
      "甚": 4538,
      "甜": 4539,
      "生": 4540,
      "產": 4541,
      "産": 4542,
      "用": 4543,
      "甯": 4544,
      "田": 4545,
      "由": 4546,
      "甲": 4547,
      "申": 4548,
      "电": 4549,
      "男": 4550,
      "町": 4551,
      "画": 4552,
      "畀": 4553,
      "界": 4554,
      "留": 4555,
      "畝": 4556,
      "畢": 4557,
      "略": 4558,
      "番": 4559,
      "畫": 4560,
      "異": 4561,
      "當": 4562,
      "畿": 4563,
      "疆": 4564,
      "疎": 4565,
      "疏": 4566,
      "疑": 4567,
      "疗": 4568,
      "疫": 4569,
      "疮": 4570,
      "疵": 4571,
      "疾": 4572,
      "病": 4573,
      "症": 4574,
      "痉": 4575,
      "痊": 4576,
      "痔": 4577,
      "痛": 4578,
      "痢": 4579,
      "痪": 4580,
      "瘟": 4581,
      "瘫": 4582,
      "療": 4583,
      "癌": 4584,
      "癒": 4585,
      "癟": 4586,
      "発": 4587,
      "登": 4588,
      "發": 4589,
      "白": 4590,
      "百": 4591,
      "的": 4592,
      "皆": 4593,
      "皇": 4594,
      "皓": 4595,
      "皮": 4596,
      "皿": 4597,
      "盂": 4598,
      "盆": 4599,
      "盈": 4600,
      "益": 4601,
      "盎": 4602,
      "监": 4603,
      "盒": 4604,
      "盖": 4605,
      "盗": 4606,
      "盘": 4607,
      "盛": 4608,
      "盟": 4609,
      "盡": 4610,
      "監": 4611,
      "盤": 4612,
      "盧": 4613,
      "目": 4614,
      "盲": 4615,
      "直": 4616,
      "相": 4617,
      "盼": 4618,
      "盾": 4619,
      "省": 4620,
      "眉": 4621,
      "看": 4622,
      "県": 4623,
      "眞": 4624,
      "真": 4625,
      "眠": 4626,
      "眭": 4627,
      "眸": 4628,
      "眼": 4629,
      "眾": 4630,
      "着": 4631,
      "睇": 4632,
      "睛": 4633,
      "睡": 4634,
      "督": 4635,
      "睿": 4636,
      "瞑": 4637,
      "瞧": 4638,
      "瞬": 4639,
      "瞭": 4640,
      "瞳": 4641,
      "瞻": 4642,
      "矛": 4643,
      "矜": 4644,
      "矢": 4645,
      "知": 4646,
      "矩": 4647,
      "短": 4648,
      "矯": 4649,
      "石": 4650,
      "码": 4651,
      "砂": 4652,
      "砍": 4653,
      "研": 4654,
      "砲": 4655,
      "破": 4656,
      "砷": 4657,
      "础": 4658,
      "硅": 4659,
      "硕": 4660,
      "硬": 4661,
      "确": 4662,
      "硼": 4663,
      "碌": 4664,
      "碍": 4665,
      "碑": 4666,
      "碗": 4667,
      "碧": 4668,
      "碩": 4669,
      "碱": 4670,
      "碳": 4671,
      "確": 4672,
      "碼": 4673,
      "磁": 4674,
      "磅": 4675,
      "磊": 4676,
      "磐": 4677,
      "磡": 4678,
      "磨": 4679,
      "磯": 4680,
      "磷": 4681,
      "礁": 4682,
      "礎": 4683,
      "礙": 4684,
      "礫": 4685,
      "示": 4686,
      "礼": 4687,
      "社": 4688,
      "祈": 4689,
      "祉": 4690,
      "祐": 4691,
      "祖": 4692,
      "祝": 4693,
      "神": 4694,
      "祢": 4695,
      "祥": 4696,
      "票": 4697,
      "祭": 4698,
      "祸": 4699,
      "禁": 4700,
      "禄": 4701,
      "禇": 4702,
      "禎": 4703,
      "福": 4704,
      "禪": 4705,
      "禮": 4706,
      "禰": 4707,
      "禹": 4708,
      "离": 4709,
      "禽": 4710,
      "秀": 4711,
      "私": 4712,
      "秉": 4713,
      "秋": 4714,
      "种": 4715,
      "科": 4716,
      "秒": 4717,
      "秘": 4718,
      "租": 4719,
      "秦": 4720,
      "秩": 4721,
      "积": 4722,
      "称": 4723,
      "移": 4724,
      "稀": 4725,
      "稅": 4726,
      "程": 4727,
      "稍": 4728,
      "税": 4729,
      "稚": 4730,
      "稜": 4731,
      "稣": 4732,
      "種": 4733,
      "稱": 4734,
      "稳": 4735,
      "稻": 4736,
      "稽": 4737,
      "稿": 4738,
      "穂": 4739,
      "穆": 4740,
      "積": 4741,
      "穎": 4742,
      "穏": 4743,
      "穝": 4744,
      "穩": 4745,
      "穴": 4746,
      "究": 4747,
      "空": 4748,
      "穿": 4749,
      "突": 4750,
      "窄": 4751,
      "窓": 4752,
      "窗": 4753,
      "窝": 4754,
      "窟": 4755,
      "窩": 4756,
      "窶": 4757,
      "竇": 4758,
      "立": 4759,
      "竖": 4760,
      "站": 4761,
      "竜": 4762,
      "竞": 4763,
      "竟": 4764,
      "章": 4765,
      "童": 4766,
      "竭": 4767,
      "端": 4768,
      "競": 4769,
      "竹": 4770,
      "竺": 4771,
      "笑": 4772,
      "笔": 4773,
      "笙": 4774,
      "笛": 4775,
      "笠": 4776,
      "符": 4777,
      "笨": 4778,
      "笪": 4779,
      "第": 4780,
      "笴": 4781,
      "筆": 4782,
      "等": 4783,
      "筋": 4784,
      "筑": 4785,
      "筒": 4786,
      "答": 4787,
      "策": 4788,
      "筚": 4789,
      "筝": 4790,
      "签": 4791,
      "简": 4792,
      "箇": 4793,
      "箏": 4794,
      "箔": 4795,
      "算": 4796,
      "管": 4797,
      "箭": 4798,
      "箱": 4799,
      "節": 4800,
      "篁": 4801,
      "範": 4802,
      "篆": 4803,
      "篇": 4804,
      "築": 4805,
      "篌": 4806,
      "簡": 4807,
      "簧": 4808,
      "簽": 4809,
      "籇": 4810,
      "籍": 4811,
      "籠": 4812,
      "籬": 4813,
      "米": 4814,
      "类": 4815,
      "粉": 4816,
      "粒": 4817,
      "粗": 4818,
      "粘": 4819,
      "粟": 4820,
      "粤": 4821,
      "粮": 4822,
      "精": 4823,
      "粿": 4824,
      "糊": 4825,
      "糍": 4826,
      "糕": 4827,
      "糖": 4828,
      "糙": 4829,
      "糟": 4830,
      "糧": 4831,
      "糯": 4832,
      "糸": 4833,
      "系": 4834,
      "糾": 4835,
      "紀": 4836,
      "約": 4837,
      "紅": 4838,
      "紋": 4839,
      "納": 4840,
      "紐": 4841,
      "純": 4842,
      "紗": 4843,
      "紙": 4844,
      "級": 4845,
      "紛": 4846,
      "素": 4847,
      "索": 4848,
      "紧": 4849,
      "紫": 4850,
      "累": 4851,
      "細": 4852,
      "紸": 4853,
      "紹": 4854,
      "終": 4855,
      "組": 4856,
      "絅": 4857,
      "絆": 4858,
      "経": 4859,
      "結": 4860,
      "絕": 4861,
      "絞": 4862,
      "絡": 4863,
      "絢": 4864,
      "給": 4865,
      "統": 4866,
      "絲": 4867,
      "絵": 4868,
      "絶": 4869,
      "綁": 4870,
      "經": 4871,
      "継": 4872,
      "続": 4873,
      "綛": 4874,
      "綜": 4875,
      "綠": 4876,
      "綢": 4877,
      "維": 4878,
      "網": 4879,
      "綺": 4880,
      "綾": 4881,
      "緊": 4882,
      "総": 4883,
      "緒": 4884,
      "線": 4885,
      "緜": 4886,
      "締": 4887,
      "緣": 4888,
      "編": 4889,
      "緩": 4890,
      "練": 4891,
      "縁": 4892,
      "縈": 4893,
      "縣": 4894,
      "縦": 4895,
      "縮": 4896,
      "縱": 4897,
      "總": 4898,
      "績": 4899,
      "繁": 4900,
      "繇": 4901,
      "繋": 4902,
      "織": 4903,
      "繞": 4904,
      "繩": 4905,
      "繰": 4906,
      "繼": 4907,
      "續": 4908,
      "纠": 4909,
      "红": 4910,
      "纤": 4911,
      "约": 4912,
      "级": 4913,
      "纪": 4914,
      "纯": 4915,
      "纳": 4916,
      "纵": 4917,
      "纷": 4918,
      "纸": 4919,
      "纹": 4920,
      "纺": 4921,
      "线": 4922,
      "组": 4923,
      "细": 4924,
      "织": 4925,
      "终": 4926,
      "绍": 4927,
      "经": 4928,
      "结": 4929,
      "绔": 4930,
      "绕": 4931,
      "绘": 4932,
      "给": 4933,
      "绛": 4934,
      "络": 4935,
      "绝": 4936,
      "统": 4937,
      "继": 4938,
      "绩": 4939,
      "续": 4940,
      "绰": 4941,
      "绳": 4942,
      "维": 4943,
      "绵": 4944,
      "综": 4945,
      "绾": 4946,
      "绿": 4947,
      "缁": 4948,
      "缇": 4949,
      "缓": 4950,
      "编": 4951,
      "缘": 4952,
      "缝": 4953,
      "缠": 4954,
      "缩": 4955,
      "缺": 4956,
      "罐": 4957,
      "网": 4958,
      "罕": 4959,
      "罗": 4960,
      "罚": 4961,
      "罢": 4962,
      "罨": 4963,
      "罩": 4964,
      "罪": 4965,
      "置": 4966,
      "罰": 4967,
      "署": 4968,
      "羂": 4969,
      "羅": 4970,
      "羊": 4971,
      "羌": 4972,
      "美": 4973,
      "羔": 4974,
      "羞": 4975,
      "群": 4976,
      "義": 4977,
      "羽": 4978,
      "翅": 4979,
      "習": 4980,
      "翔": 4981,
      "翟": 4982,
      "翠": 4983,
      "翫": 4984,
      "翰": 4985,
      "翻": 4986,
      "翼": 4987,
      "耀": 4988,
      "老": 4989,
      "考": 4990,
      "者": 4991,
      "而": 4992,
      "耐": 4993,
      "耗": 4994,
      "耦": 4995,
      "耳": 4996,
      "耶": 4997,
      "耿": 4998,
      "职": 4999,
      "联": 5000,
      "聖": 5001,
      "聘": 5002,
      "聚": 5003,
      "聞": 5004,
      "聯": 5005,
      "聲": 5006,
      "聴": 5007,
      "職": 5008,
      "聽": 5009,
      "肉": 5010,
      "肌": 5011,
      "肏": 5012,
      "肖": 5013,
      "肚": 5014,
      "肝": 5015,
      "股": 5016,
      "肢": 5017,
      "肤": 5018,
      "肥": 5019,
      "肩": 5020,
      "肯": 5021,
      "育": 5022,
      "胃": 5023,
      "胆": 5024,
      "背": 5025,
      "胞": 5026,
      "胡": 5027,
      "胯": 5028,
      "胰": 5029,
      "胶": 5030,
      "胸": 5031,
      "能": 5032,
      "脂": 5033,
      "脅": 5034,
      "脇": 5035,
      "脈": 5036,
      "脉": 5037,
      "脏": 5038,
      "脐": 5039,
      "脑": 5040,
      "脖": 5041,
      "脚": 5042,
      "脩": 5043,
      "脱": 5044,
      "脽": 5045,
      "脿": 5046,
      "腊": 5047,
      "腎": 5048,
      "腐": 5049,
      "腑": 5050,
      "腔": 5051,
      "腕": 5052,
      "腦": 5053,
      "腰": 5054,
      "腱": 5055,
      "腳": 5056,
      "腸": 5057,
      "腹": 5058,
      "腺": 5059,
      "腻": 5060,
      "腾": 5061,
      "腿": 5062,
      "膏": 5063,
      "膜": 5064,
      "膝": 5065,
      "膠": 5066,
      "膳": 5067,
      "膽": 5068,
      "臂": 5069,
      "臓": 5070,
      "臟": 5071,
      "臣": 5072,
      "臥": 5073,
      "臧": 5074,
      "臨": 5075,
      "自": 5076,
      "臭": 5077,
      "至": 5078,
      "致": 5079,
      "臺": 5080,
      "舆": 5081,
      "與": 5082,
      "興": 5083,
      "舉": 5084,
      "舊": 5085,
      "舌": 5086,
      "舍": 5087,
      "舎": 5088,
      "舒": 5089,
      "舖": 5090,
      "舜": 5091,
      "舞": 5092,
      "舟": 5093,
      "航": 5094,
      "般": 5095,
      "舰": 5096,
      "舵": 5097,
      "舶": 5098,
      "船": 5099,
      "艦": 5100,
      "良": 5101,
      "色": 5102,
      "艳": 5103,
      "艶": 5104,
      "艸": 5105,
      "艺": 5106,
      "艾": 5107,
      "节": 5108,
      "芋": 5109,
      "芒": 5110,
      "芙": 5111,
      "芝": 5112,
      "芥": 5113,
      "芦": 5114,
      "芬": 5115,
      "芯": 5116,
      "花": 5117,
      "芳": 5118,
      "芸": 5119,
      "芻": 5120,
      "芽": 5121,
      "苋": 5122,
      "苏": 5123,
      "苑": 5124,
      "苓": 5125,
      "苗": 5126,
      "苟": 5127,
      "若": 5128,
      "苦": 5129,
      "苯": 5130,
      "英": 5131,
      "苹": 5132,
      "苻": 5133,
      "茂": 5134,
      "范": 5135,
      "茅": 5136,
      "茉": 5137,
      "茎": 5138,
      "茵": 5139,
      "茶": 5140,
      "荃": 5141,
      "草": 5142,
      "荐": 5143,
      "荒": 5144,
      "荘": 5145,
      "荡": 5146,
      "荣": 5147,
      "荧": 5148,
      "药": 5149,
      "荵": 5150,
      "荷": 5151,
      "荼": 5152,
      "莉": 5153,
      "莊": 5154,
      "莎": 5155,
      "莓": 5156,
      "莫": 5157,
      "获": 5158,
      "莹": 5159,
      "菁": 5160,
      "菅": 5161,
      "菊": 5162,
      "菌": 5163,
      "菓": 5164,
      "菖": 5165,
      "菜": 5166,
      "菟": 5167,
      "菠": 5168,
      "菩": 5169,
      "華": 5170,
      "菱": 5171,
      "菲": 5172,
      "菴": 5173,
      "菸": 5174,
      "萃": 5175,
      "萊": 5176,
      "萌": 5177,
      "萍": 5178,
      "萜": 5179,
      "营": 5180,
      "萧": 5181,
      "萬": 5182,
      "落": 5183,
      "葉": 5184,
      "著": 5185,
      "葛": 5186,
      "董": 5187,
      "葦": 5188,
      "葫": 5189,
      "葬": 5190,
      "蒐": 5191,
      "蒙": 5192,
      "蒜": 5193,
      "蒲": 5194,
      "蒸": 5195,
      "蒺": 5196,
      "蒼": 5197,
      "蓅": 5198,
      "蓉": 5199,
      "蓋": 5200,
      "蓝": 5201,
      "蓮": 5202,
      "蔗": 5203,
      "蔡": 5204,
      "蔣": 5205,
      "蔵": 5206,
      "蔻": 5207,
      "蔽": 5208,
      "蕆": 5209,
      "蕴": 5210,
      "蕾": 5211,
      "薄": 5212,
      "薛": 5213,
      "薦": 5214,
      "薩": 5215,
      "薬": 5216,
      "薯": 5217,
      "藉": 5218,
      "藍": 5219,
      "藏": 5220,
      "藜": 5221,
      "藝": 5222,
      "藤": 5223,
      "藻": 5224,
      "蘆": 5225,
      "蘇": 5226,
      "蘊": 5227,
      "蘋": 5228,
      "蘭": 5229,
      "蘿": 5230,
      "虎": 5231,
      "虑": 5232,
      "虔": 5233,
      "處": 5234,
      "虚": 5235,
      "虛": 5236,
      "虜": 5237,
      "虞": 5238,
      "號": 5239,
      "虫": 5240,
      "虹": 5241,
      "虽": 5242,
      "虾": 5243,
      "蚀": 5244,
      "蚬": 5245,
      "蛇": 5246,
      "蛉": 5247,
      "蛋": 5248,
      "蛍": 5249,
      "蛙": 5250,
      "蛟": 5251,
      "蛮": 5252,
      "蜀": 5253,
      "蜂": 5254,
      "蜜": 5255,
      "蜻": 5256,
      "蝗": 5257,
      "蝙": 5258,
      "蝠": 5259,
      "蝦": 5260,
      "蝶": 5261,
      "融": 5262,
      "螫": 5263,
      "螯": 5264,
      "蟲": 5265,
      "蟹": 5266,
      "蠅": 5267,
      "蠟": 5268,
      "蠶": 5269,
      "蠻": 5270,
      "血": 5271,
      "衆": 5272,
      "行": 5273,
      "衍": 5274,
      "術": 5275,
      "街": 5276,
      "衛": 5277,
      "衝": 5278,
      "衡": 5279,
      "衣": 5280,
      "补": 5281,
      "表": 5282,
      "衫": 5283,
      "衬": 5284,
      "衰": 5285,
      "衿": 5286,
      "袁": 5287,
      "袈": 5288,
      "袋": 5289,
      "袖": 5290,
      "被": 5291,
      "袭": 5292,
      "袿": 5293,
      "裁": 5294,
      "裂": 5295,
      "装": 5296,
      "裏": 5297,
      "裕": 5298,
      "裙": 5299,
      "補": 5300,
      "裝": 5301,
      "裟": 5302,
      "裡": 5303,
      "裸": 5304,
      "製": 5305,
      "複": 5306,
      "褥": 5307,
      "褰": 5308,
      "襄": 5309,
      "襪": 5310,
      "襲": 5311,
      "西": 5312,
      "要": 5313,
      "覃": 5314,
      "覆": 5315,
      "見": 5316,
      "規": 5317,
      "視": 5318,
      "覚": 5319,
      "覧": 5320,
      "親": 5321,
      "観": 5322,
      "覺": 5323,
      "覽": 5324,
      "觀": 5325,
      "见": 5326,
      "观": 5327,
      "规": 5328,
      "视": 5329,
      "览": 5330,
      "觉": 5331,
      "觋": 5332,
      "角": 5333,
      "觚": 5334,
      "解": 5335,
      "触": 5336,
      "觸": 5337,
      "言": 5338,
      "訂": 5339,
      "計": 5340,
      "訊": 5341,
      "討": 5342,
      "訓": 5343,
      "託": 5344,
      "記": 5345,
      "訟": 5346,
      "訣": 5347,
      "訥": 5348,
      "訪": 5349,
      "設": 5350,
      "許": 5351,
      "訳": 5352,
      "訴": 5353,
      "診": 5354,
      "註": 5355,
      "証": 5356,
      "評": 5357,
      "詛": 5358,
      "詞": 5359,
      "詠": 5360,
      "詢": 5361,
      "試": 5362,
      "詩": 5363,
      "詰": 5364,
      "話": 5365,
      "該": 5366,
      "詳": 5367,
      "詹": 5368,
      "誌": 5369,
      "認": 5370,
      "誓": 5371,
      "誕": 5372,
      "誘": 5373,
      "語": 5374,
      "誤": 5375,
      "誥": 5376,
      "說": 5377,
      "説": 5378,
      "読": 5379,
      "課": 5380,
      "調": 5381,
      "談": 5382,
      "請": 5383,
      "諒": 5384,
      "論": 5385,
      "諛": 5386,
      "諧": 5387,
      "諮": 5388,
      "諸": 5389,
      "諺": 5390,
      "諾": 5391,
      "謂": 5392,
      "謎": 5393,
      "講": 5394,
      "謝": 5395,
      "謡": 5396,
      "謹": 5397,
      "證": 5398,
      "識": 5399,
      "譙": 5400,
      "譜": 5401,
      "譠": 5402,
      "警": 5403,
      "譯": 5404,
      "議": 5405,
      "護": 5406,
      "讀": 5407,
      "變": 5408,
      "讓": 5409,
      "讚": 5410,
      "计": 5411,
      "订": 5412,
      "认": 5413,
      "讨": 5414,
      "让": 5415,
      "训": 5416,
      "议": 5417,
      "讯": 5418,
      "记": 5419,
      "讲": 5420,
      "许": 5421,
      "论": 5422,
      "讼": 5423,
      "设": 5424,
      "访": 5425,
      "诀": 5426,
      "证": 5427,
      "评": 5428,
      "识": 5429,
      "诉": 5430,
      "诊": 5431,
      "词": 5432,
      "译": 5433,
      "试": 5434,
      "诗": 5435,
      "诚": 5436,
      "话": 5437,
      "诞": 5438,
      "询": 5439,
      "该": 5440,
      "详": 5441,
      "语": 5442,
      "误": 5443,
      "诲": 5444,
      "说": 5445,
      "请": 5446,
      "诸": 5447,
      "诺": 5448,
      "读": 5449,
      "课": 5450,
      "谁": 5451,
      "调": 5452,
      "谈": 5453,
      "谋": 5454,
      "谐": 5455,
      "谓": 5456,
      "谢": 5457,
      "谦": 5458,
      "谭": 5459,
      "谷": 5460,
      "豆": 5461,
      "豈": 5462,
      "豊": 5463,
      "豐": 5464,
      "象": 5465,
      "豪": 5466,
      "豫": 5467,
      "豬": 5468,
      "貌": 5469,
      "貓": 5470,
      "貘": 5471,
      "貝": 5472,
      "貞": 5473,
      "負": 5474,
      "財": 5475,
      "貢": 5476,
      "貧": 5477,
      "貨": 5478,
      "販": 5479,
      "貪": 5480,
      "貫": 5481,
      "責": 5482,
      "貯": 5483,
      "貴": 5484,
      "買": 5485,
      "貸": 5486,
      "費": 5487,
      "貼": 5488,
      "貿": 5489,
      "賀": 5490,
      "資": 5491,
      "賊": 5492,
      "賓": 5493,
      "賞": 5494,
      "賢": 5495,
      "賣": 5496,
      "賦": 5497,
      "質": 5498,
      "賭": 5499,
      "賴": 5500,
      "賺": 5501,
      "購": 5502,
      "賽": 5503,
      "贏": 5504,
      "贝": 5505,
      "负": 5506,
      "贡": 5507,
      "财": 5508,
      "责": 5509,
      "贤": 5510,
      "败": 5511,
      "质": 5512,
      "贪": 5513,
      "购": 5514,
      "贮": 5515,
      "贴": 5516,
      "贵": 5517,
      "贷": 5518,
      "贸": 5519,
      "费": 5520,
      "贺": 5521,
      "贼": 5522,
      "贾": 5523,
      "赁": 5524,
      "资": 5525,
      "赌": 5526,
      "赏": 5527,
      "赔": 5528,
      "赖": 5529,
      "赞": 5530,
      "赠": 5531,
      "赢": 5532,
      "赤": 5533,
      "赫": 5534,
      "走": 5535,
      "赵": 5536,
      "赶": 5537,
      "起": 5538,
      "超": 5539,
      "越": 5540,
      "趋": 5541,
      "趕": 5542,
      "趙": 5543,
      "趣": 5544,
      "趨": 5545,
      "足": 5546,
      "趾": 5547,
      "跃": 5548,
      "跌": 5549,
      "跑": 5550,
      "距": 5551,
      "跟": 5552,
      "跡": 5553,
      "跨": 5554,
      "路": 5555,
      "跳": 5556,
      "践": 5557,
      "跺": 5558,
      "踊": 5559,
      "踏": 5560,
      "踝": 5561,
      "踪": 5562,
      "踵": 5563,
      "蹂": 5564,
      "蹄": 5565,
      "蹇": 5566,
      "躁": 5567,
      "躍": 5568,
      "身": 5569,
      "躯": 5570,
      "躲": 5571,
      "車": 5572,
      "軌": 5573,
      "軍": 5574,
      "軒": 5575,
      "転": 5576,
      "軻": 5577,
      "較": 5578,
      "載": 5579,
      "輔": 5580,
      "輕": 5581,
      "輝": 5582,
      "輪": 5583,
      "輯": 5584,
      "輸": 5585,
      "輿": 5586,
      "轉": 5587,
      "车": 5588,
      "轧": 5589,
      "轨": 5590,
      "转": 5591,
      "轮": 5592,
      "软": 5593,
      "轰": 5594,
      "轴": 5595,
      "轻": 5596,
      "载": 5597,
      "较": 5598,
      "辅": 5599,
      "辆": 5600,
      "辉": 5601,
      "辊": 5602,
      "辑": 5603,
      "输": 5604,
      "辛": 5605,
      "辜": 5606,
      "辞": 5607,
      "辣": 5608,
      "辦": 5609,
      "辨": 5610,
      "辭": 5611,
      "辯": 5612,
      "辰": 5613,
      "農": 5614,
      "边": 5615,
      "辺": 5616,
      "込": 5617,
      "辽": 5618,
      "达": 5619,
      "迅": 5620,
      "过": 5621,
      "迈": 5622,
      "迎": 5623,
      "运": 5624,
      "近": 5625,
      "返": 5626,
      "还": 5627,
      "这": 5628,
      "进": 5629,
      "远": 5630,
      "违": 5631,
      "连": 5632,
      "迪": 5633,
      "迫": 5634,
      "迭": 5635,
      "述": 5636,
      "迷": 5637,
      "迹": 5638,
      "追": 5639,
      "退": 5640,
      "送": 5641,
      "适": 5642,
      "逃": 5643,
      "逆": 5644,
      "选": 5645,
      "逊": 5646,
      "透": 5647,
      "逐": 5648,
      "递": 5649,
      "途": 5650,
      "這": 5651,
      "通": 5652,
      "逛": 5653,
      "速": 5654,
      "造": 5655,
      "連": 5656,
      "逮": 5657,
      "週": 5658,
      "進": 5659,
      "逸": 5660,
      "逻": 5661,
      "逼": 5662,
      "逾": 5663,
      "遅": 5664,
      "遇": 5665,
      "遊": 5666,
      "運": 5667,
      "遍": 5668,
      "過": 5669,
      "道": 5670,
      "達": 5671,
      "違": 5672,
      "遗": 5673,
      "遞": 5674,
      "遠": 5675,
      "遣": 5676,
      "遥": 5677,
      "適": 5678,
      "遭": 5679,
      "遮": 5680,
      "遲": 5681,
      "遵": 5682,
      "遷": 5683,
      "選": 5684,
      "遺": 5685,
      "遼": 5686,
      "避": 5687,
      "邀": 5688,
      "還": 5689,
      "邊": 5690,
      "邏": 5691,
      "邑": 5692,
      "邓": 5693,
      "邕": 5694,
      "邢": 5695,
      "那": 5696,
      "邦": 5697,
      "邪": 5698,
      "邮": 5699,
      "邵": 5700,
      "邹": 5701,
      "邻": 5702,
      "郎": 5703,
      "郑": 5704,
      "郡": 5705,
      "部": 5706,
      "郭": 5707,
      "郵": 5708,
      "都": 5709,
      "鄄": 5710,
      "鄉": 5711,
      "鄭": 5712,
      "酌": 5713,
      "配": 5714,
      "酒": 5715,
      "酚": 5716,
      "酥": 5717,
      "酪": 5718,
      "酮": 5719,
      "酯": 5720,
      "酰": 5721,
      "酱": 5722,
      "酶": 5723,
      "酷": 5724,
      "酸": 5725,
      "醇": 5726,
      "醉": 5727,
      "醒": 5728,
      "醠": 5729,
      "醫": 5730,
      "醬": 5731,
      "采": 5732,
      "釈": 5733,
      "釉": 5734,
      "释": 5735,
      "釋": 5736,
      "里": 5737,
      "重": 5738,
      "野": 5739,
      "量": 5740,
      "金": 5741,
      "釗": 5742,
      "針": 5743,
      "釣": 5744,
      "釤": 5745,
      "釦": 5746,
      "鈉": 5747,
      "鈍": 5748,
      "鈥": 5749,
      "鈴": 5750,
      "鈾": 5751,
      "鉀": 5752,
      "鉄": 5753,
      "鉗": 5754,
      "鉛": 5755,
      "鉴": 5756,
      "鉾": 5757,
      "銀": 5758,
      "銃": 5759,
      "銘": 5760,
      "銪": 5761,
      "銷": 5762,
      "鋼": 5763,
      "錄": 5764,
      "錐": 5765,
      "錠": 5766,
      "錢": 5767,
      "錦": 5768,
      "錫": 5769,
      "錬": 5770,
      "錮": 5771,
      "錯": 5772,
      "録": 5773,
      "錶": 5774,
      "鍋": 5775,
      "鍛": 5776,
      "鍮": 5777,
      "鍵": 5778,
      "鍺": 5779,
      "鍾": 5780,
      "鎖": 5781,
      "鎧": 5782,
      "鎮": 5783,
      "鏊": 5784,
      "鏡": 5785,
      "鏵": 5786,
      "鐘": 5787,
      "鐚": 5788,
      "鐵": 5789,
      "鑄": 5790,
      "鑅": 5791,
      "鑑": 5792,
      "鑒": 5793,
      "鑫": 5794,
      "针": 5795,
      "钙": 5796,
      "钟": 5797,
      "钢": 5798,
      "钦": 5799,
      "钮": 5800,
      "钰": 5801,
      "钱": 5802,
      "铁": 5803,
      "铃": 5804,
      "铅": 5805,
      "铕": 5806,
      "铜": 5807,
      "铝": 5808,
      "铢": 5809,
      "铨": 5810,
      "铬": 5811,
      "铭": 5812,
      "铵": 5813,
      "银": 5814,
      "铸": 5815,
      "链": 5816,
      "销": 5817,
      "锁": 5818,
      "锂": 5819,
      "锈": 5820,
      "锋": 5821,
      "锐": 5822,
      "锘": 5823,
      "错": 5824,
      "锚": 5825,
      "锛": 5826,
      "锥": 5827,
      "锦": 5828,
      "键": 5829,
      "锻": 5830,
      "镀": 5831,
      "镁": 5832,
      "镇": 5833,
      "镜": 5834,
      "長": 5835,
      "长": 5836,
      "門": 5837,
      "閃": 5838,
      "閉": 5839,
      "開": 5840,
      "閑": 5841,
      "閒": 5842,
      "間": 5843,
      "関": 5844,
      "閣": 5845,
      "閥": 5846,
      "閩": 5847,
      "閱": 5848,
      "閲": 5849,
      "闇": 5850,
      "闊": 5851,
      "闘": 5852,
      "關": 5853,
      "门": 5854,
      "闪": 5855,
      "闫": 5856,
      "闭": 5857,
      "问": 5858,
      "闲": 5859,
      "间": 5860,
      "闹": 5861,
      "闻": 5862,
      "闽": 5863,
      "阀": 5864,
      "阁": 5865,
      "阅": 5866,
      "阈": 5867,
      "阐": 5868,
      "阔": 5869,
      "阝": 5870,
      "队": 5871,
      "阪": 5872,
      "阱": 5873,
      "防": 5874,
      "阳": 5875,
      "阴": 5876,
      "阵": 5877,
      "阶": 5878,
      "阻": 5879,
      "阿": 5880,
      "陀": 5881,
      "附": 5882,
      "际": 5883,
      "陆": 5884,
      "陈": 5885,
      "陌": 5886,
      "降": 5887,
      "限": 5888,
      "院": 5889,
      "陣": 5890,
      "除": 5891,
      "陥": 5892,
      "险": 5893,
      "陪": 5894,
      "陰": 5895,
      "陳": 5896,
      "陵": 5897,
      "陶": 5898,
      "陷": 5899,
      "陸": 5900,
      "険": 5901,
      "陽": 5902,
      "隅": 5903,
      "隆": 5904,
      "隊": 5905,
      "隋": 5906,
      "隍": 5907,
      "階": 5908,
      "随": 5909,
      "隐": 5910,
      "隔": 5911,
      "隙": 5912,
      "際": 5913,
      "障": 5914,
      "隠": 5915,
      "隨": 5916,
      "隱": 5917,
      "隸": 5918,
      "隻": 5919,
      "难": 5920,
      "雀": 5921,
      "雄": 5922,
      "雅": 5923,
      "集": 5924,
      "雍": 5925,
      "雑": 5926,
      "雒": 5927,
      "雕": 5928,
      "雖": 5929,
      "雙": 5930,
      "雜": 5931,
      "離": 5932,
      "難": 5933,
      "雨": 5934,
      "雪": 5935,
      "雯": 5936,
      "雲": 5937,
      "零": 5938,
      "雷": 5939,
      "電": 5940,
      "需": 5941,
      "霆": 5942,
      "震": 5943,
      "霊": 5944,
      "霍": 5945,
      "霖": 5946,
      "霜": 5947,
      "霞": 5948,
      "霧": 5949,
      "露": 5950,
      "霸": 5951,
      "靈": 5952,
      "青": 5953,
      "靖": 5954,
      "静": 5955,
      "靚": 5956,
      "靜": 5957,
      "非": 5958,
      "靠": 5959,
      "靡": 5960,
      "面": 5961,
      "革": 5962,
      "鞋": 5963,
      "鞍": 5964,
      "韋": 5965,
      "韓": 5966,
      "韦": 5967,
      "韩": 5968,
      "韬": 5969,
      "音": 5970,
      "響": 5971,
      "頁": 5972,
      "頂": 5973,
      "頃": 5974,
      "項": 5975,
      "順": 5976,
      "須": 5977,
      "預": 5978,
      "頑": 5979,
      "頓": 5980,
      "領": 5981,
      "頭": 5982,
      "頴": 5983,
      "頻": 5984,
      "頼": 5985,
      "顆": 5986,
      "題": 5987,
      "額": 5988,
      "顏": 5989,
      "顔": 5990,
      "願": 5991,
      "顛": 5992,
      "類": 5993,
      "顥": 5994,
      "顧": 5995,
      "顯": 5996,
      "页": 5997,
      "顶": 5998,
      "项": 5999,
      "顺": 6000,
      "须": 6001,
      "顽": 6002,
      "顾": 6003,
      "顿": 6004,
      "颁": 6005,
      "预": 6006,
      "领": 6007,
      "颐": 6008,
      "频": 6009,
      "颕": 6010,
      "颖": 6011,
      "题": 6012,
      "颜": 6013,
      "额": 6014,
      "颠": 6015,
      "風": 6016,
      "风": 6017,
      "飘": 6018,
      "飙": 6019,
      "飛": 6020,
      "飞": 6021,
      "食": 6022,
      "飯": 6023,
      "飲": 6024,
      "飴": 6025,
      "飼": 6026,
      "飽": 6027,
      "飾": 6028,
      "養": 6029,
      "餐": 6030,
      "餓": 6031,
      "餘": 6032,
      "館": 6033,
      "饑": 6034,
      "饭": 6035,
      "饮": 6036,
      "饰": 6037,
      "饱": 6038,
      "饺": 6039,
      "饼": 6040,
      "饿": 6041,
      "馃": 6042,
      "馆": 6043,
      "首": 6044,
      "香": 6045,
      "馬": 6046,
      "駄": 6047,
      "駅": 6048,
      "駆": 6049,
      "駱": 6050,
      "駿": 6051,
      "騎": 6052,
      "験": 6053,
      "騮": 6054,
      "驅": 6055,
      "驗": 6056,
      "驚": 6057,
      "马": 6058,
      "驱": 6059,
      "驼": 6060,
      "驾": 6061,
      "骆": 6062,
      "骊": 6063,
      "验": 6064,
      "骗": 6065,
      "骞": 6066,
      "骤": 6067,
      "骨": 6068,
      "骰": 6069,
      "體": 6070,
      "高": 6071,
      "髙": 6072,
      "髪": 6073,
      "髮": 6074,
      "鬆": 6075,
      "鬢": 6076,
      "鬥": 6077,
      "鬱": 6078,
      "鬼": 6079,
      "魂": 6080,
      "魄": 6081,
      "魅": 6082,
      "魏": 6083,
      "魔": 6084,
      "魚": 6085,
      "魯": 6086,
      "鮎": 6087,
      "鮑": 6088,
      "鮭": 6089,
      "鮮": 6090,
      "鯨": 6091,
      "鰤": 6092,
      "鱗": 6093,
      "鱧": 6094,
      "鱼": 6095,
      "鲁": 6096,
      "鲍": 6097,
      "鲜": 6098,
      "鳥": 6099,
      "鳩": 6100,
      "鳴": 6101,
      "鴛": 6102,
      "鴦": 6103,
      "鴨": 6104,
      "鴻": 6105,
      "鵜": 6106,
      "鵬": 6107,
      "鵰": 6108,
      "鶴": 6109,
      "鷄": 6110,
      "鷹": 6111,
      "鷺": 6112,
      "鸟": 6113,
      "鸡": 6114,
      "鸭": 6115,
      "鸰": 6116,
      "鸱": 6117,
      "鸿": 6118,
      "鹏": 6119,
      "鹰": 6120,
      "鹿": 6121,
      "麗": 6122,
      "麥": 6123,
      "麵": 6124,
      "麻": 6125,
      "麼": 6126,
      "黃": 6127,
      "黄": 6128,
      "黌": 6129,
      "黎": 6130,
      "黑": 6131,
      "黒": 6132,
      "黔": 6133,
      "默": 6134,
      "點": 6135,
      "黨": 6136,
      "鼈": 6137,
      "鼎": 6138,
      "鼓": 6139,
      "鼠": 6140,
      "鼻": 6141,
      "齊": 6142,
      "齐": 6143,
      "齒": 6144,
      "齢": 6145,
      "齿": 6146,
      "龍": 6147,
      "龔": 6148,
      "龙": 6149,
      "龜": 6150,
      "ꈤ": 6151,
      "ꔉ": 6152,
      "ꕯ": 6153,
      "ꙑ": 6154,
      "ꜣ": 6155,
      "Ꜹ": 6156,
      "ꞌ": 6157,
      "ꞑ": 6158,
      "Ꞓ": 6159,
      "Ꞻ": 6160,
      "ꞻ": 6161,
      "ꟷ": 6162,
      "ꦕ": 6163,
      "ꦥ": 6164,
      "ꦭ": 6165,
      "ꪱ": 6166,
      "ꬱ": 6167,
      "": 6168,
      "": 6169,
      "": 6170,
      "": 6171,
      "": 6172,
      "": 6173,
      "": 6174,
      "": 6175,
      "": 6176,
      "": 6177,
      "": 6178,
      "": 6179,
      "": 6180,
      "": 6181,
      "": 6182,
      "": 6183,
      "": 6184,
      "": 6185,
      "": 6186,
      "": 6187,
      "": 6188,
      "": 6189,
      "": 6190,
      "": 6191,
      "": 6192,
      "": 6193,
      "": 6194,
      "": 6195,
      "": 6196,
      "": 6197,
      "": 6198,
      "": 6199,
      "": 6200,
      "": 6201,
      "": 6202,
      "": 6203,
      "": 6204,
      "": 6205,
      "": 6206,
      "": 6207,
      "": 6208,
      "": 6209,
      "": 6210,
      "": 6211,
      "": 6212,
      "": 6213,
      "": 6214,
      "": 6215,
      "": 6216,
      "": 6217,
      "": 6218,
      "": 6219,
      "": 6220,
      "": 6221,
      "": 6222,
      "": 6223,
      "": 6224,
      "": 6225,
      "": 6226,
      "": 6227,
      "": 6228,
      "": 6229,
      "": 6230,
      "": 6231,
      "": 6232,
      "": 6233,
      "": 6234,
      "": 6235,
      "": 6236,
      "": 6237,
      "": 6238,
      "": 6239,
      "": 6240,
      "": 6241,
      "": 6242,
      "": 6243,
      "": 6244,
      "": 6245,
      "": 6246,
      "": 6247,
      "": 6248,
      "": 6249,
      "": 6250,
      "": 6251,
      "": 6252,
      "": 6253,
      "": 6254,
      "": 6255,
      "": 6256,
      "": 6257,
      "": 6258,
      "": 6259,
      "": 6260,
      "": 6261,
      "": 6262,
      "": 6263,
      "": 6264,
      "": 6265,
      "": 6266,
      "": 6267,
      "": 6268,
      "": 6269,
      "": 6270,
      "": 6271,
      "": 6272,
      "": 6273,
      "": 6274,
      "": 6275,
      "": 6276,
      "": 6277,
      "": 6278,
      "": 6279,
      "": 6280,
      "": 6281,
      "": 6282,
      "": 6283,
      "": 6284,
      "": 6285,
      "": 6286,
      "": 6287,
      "": 6288,
      "": 6289,
      "": 6290,
      "": 6291,
      "": 6292,
      "": 6293,
      "": 6294,
      "": 6295,
      "": 6296,
      "": 6297,
      "": 6298,
      "": 6299,
      "": 6300,
      "": 6301,
      "": 6302,
      "": 6303,
      "": 6304,
      "": 6305,
      "": 6306,
      "": 6307,
      "": 6308,
      "": 6309,
      "": 6310,
      "": 6311,
      "": 6312,
      "": 6313,
      "": 6314,
      "": 6315,
      "": 6316,
      "": 6317,
      "": 6318,
      "": 6319,
      "": 6320,
      "": 6321,
      "": 6322,
      "": 6323,
      "": 6324,
      "": 6325,
      "": 6326,
      "": 6327,
      "": 6328,
      "": 6329,
      "": 6330,
      "": 6331,
      "": 6332,
      "": 6333,
      "": 6334,
      "": 6335,
      "": 6336,
      "": 6337,
      "": 6338,
      "": 6339,
      "": 6340,
      "": 6341,
      "": 6342,
      "": 6343,
      "": 6344,
      "": 6345,
      "": 6346,
      "": 6347,
      "": 6348,
      "": 6349,
      "ﬀ": 6350,
      "ﬁ": 6351,
      "ﬂ": 6352,
      "ﬃ": 6353,
      "ﬄ": 6354,
      "﴾": 6355,
      "﴿": 6356,
      "ﷺ": 6357,
      "ﷻ": 6358,
      "︰": 6359,
      "︱": 6360,
      "︶": 6361,
      "﹞": 6362,
      "﹣": 6363,
      "ﺵ": 6364,
      "ﻡ": 6365,
      "ﻧ": 6366,
      "ﻪ": 6367,
      "ﻮ": 6368,
      "ﻴ": 6369,
      "ﻻ": 6370,
      "﻿": 6371,
      "！": 6372,
      "＃": 6373,
      "＄": 6374,
      "％": 6375,
      "＆": 6376,
      "（": 6377,
      "）": 6378,
      "＊": 6379,
      "＋": 6380,
      "，": 6381,
      "－": 6382,
      "．": 6383,
      "／": 6384,
      "０": 6385,
      "１": 6386,
      "２": 6387,
      "３": 6388,
      "４": 6389,
      "５": 6390,
      "６": 6391,
      "７": 6392,
      "８": 6393,
      "９": 6394,
      "：": 6395,
      "；": 6396,
      "＜": 6397,
      "＝": 6398,
      "＞": 6399,
      "？": 6400,
      "＠": 6401,
      "Ａ": 6402,
      "Ｂ": 6403,
      "Ｃ": 6404,
      "Ｄ": 6405,
      "Ｅ": 6406,
      "Ｆ": 6407,
      "Ｇ": 6408,
      "Ｈ": 6409,
      "Ｉ": 6410,
      "Ｊ": 6411,
      "Ｋ": 6412,
      "Ｌ": 6413,
      "Ｍ": 6414,
      "Ｎ": 6415,
      "Ｏ": 6416,
      "Ｐ": 6417,
      "Ｒ": 6418,
      "Ｓ": 6419,
      "Ｔ": 6420,
      "Ｕ": 6421,
      "Ｖ": 6422,
      "Ｘ": 6423,
      "［": 6424,
      "＼": 6425,
      "］": 6426,
      "＾": 6427,
      "｀": 6428,
      "ａ": 6429,
      "ｂ": 6430,
      "ｃ": 6431,
      "ｅ": 6432,
      "ｇ": 6433,
      "ｈ": 6434,
      "ｉ": 6435,
      "ｋ": 6436,
      "ｌ": 6437,
      "ｍ": 6438,
      "ｎ": 6439,
      "ｒ": 6440,
      "ｓ": 6441,
      "ｔ": 6442,
      "ｖ": 6443,
      "ｘ": 6444,
      "ｙ": 6445,
      "ｚ": 6446,
      "｜": 6447,
      "～": 6448,
      "｡": 6449,
      "｣": 6450,
      "､": 6451,
      "･": 6452,
      "ｧ": 6453,
      "ｩ": 6454,
      "ｪ": 6455,
      "ｭ": 6456,
      "ｯ": 6457,
      "ｳ": 6458,
      "ｴ": 6459,
      "ｺ": 6460,
      "ﾃ": 6461,
      "ﾈ": 6462,
      "ﾉ": 6463,
      "ﾍ": 6464,
      "ﾒ": 6465,
      "ﾓ": 6466,
      "ﾔ": 6467,
      "ﾟ": 6468,
      "ﾠ": 6469,
      "ﾺ": 6470,
      "￡": 6471,
      "￣": 6472,
      "￥": 6473,
      "￼": 6474,
      "�": 6475,
      "￾": 6476,
      "𐀀": 6477,
      "𐀅": 6478,
      "𐀏": 6479,
      "𐀩": 6480,
      "𐀫": 6481,
      "𐀭": 6482,
      "𐌀": 6483,
      "𐌳": 6484,
      "𐌼": 6485,
      "𐌽": 6486,
      "𐌿": 6487,
      "𐍃": 6488,
      "𐎣": 6489,
      "𐎼": 6490,
      "𐏀": 6491,
      "𐐀": 6492,
      "𐞥": 6493,
      "𐤀": 6494,
      "𐤌": 6495,
      "𐤍": 6496,
      "𐤏": 6497,
      "𐭠": 6498,
      "𐭭": 6499,
      "𐭮": 6500,
      "𐰆": 6501,
      "𐰍": 6502,
      "𐰢": 6503,
      "𐰣": 6504,
      "𐰴": 6505,
      "𑀓": 6506,
      "𑀥": 6507,
      "𑀦": 6508,
      "𑀩": 6509,
      "𑀫": 6510,
      "𑀬": 6511,
      "𑀲": 6512,
      "𒀀": 6513,
      "𒁀": 6514,
      "𒂞": 6515,
      "𒂵": 6516,
      "𒃲": 6517,
      "𒄀": 6518,
      "𒄑": 6519,
      "𒅔": 6520,
      "𒆠": 6521,
      "𒈾": 6522,
      "𒉈": 6523,
      "𒉌": 6524,
      "𒉿": 6525,
      "𒌁": 6526,
      "𒌈": 6527,
      "𓅓": 6528,
      "𓆎": 6529,
      "𓆩": 6530,
      "𓆪": 6531,
      "𓊖": 6532,
      "𓏏": 6533,
      "𝐀": 6534,
      "𝐁": 6535,
      "𝐂": 6536,
      "𝐄": 6537,
      "𝐅": 6538,
      "𝐆": 6539,
      "𝐇": 6540,
      "𝐈": 6541,
      "𝐊": 6542,
      "𝐋": 6543,
      "𝐌": 6544,
      "𝐍": 6545,
      "𝐎": 6546,
      "𝐏": 6547,
      "𝐒": 6548,
      "𝐓": 6549,
      "𝐕": 6550,
      "𝐘": 6551,
      "𝐙": 6552,
      "𝐚": 6553,
      "𝐛": 6554,
      "𝐜": 6555,
      "𝐝": 6556,
      "𝐞": 6557,
      "𝐟": 6558,
      "𝐠": 6559,
      "𝐡": 6560,
      "𝐢": 6561,
      "𝐤": 6562,
      "𝐥": 6563,
      "𝐦": 6564,
      "𝐧": 6565,
      "𝐨": 6566,
      "𝐩": 6567,
      "𝐫": 6568,
      "𝐬": 6569,
      "𝐭": 6570,
      "𝐮": 6571,
      "𝐯": 6572,
      "𝐰": 6573,
      "𝐲": 6574,
      "𝐳": 6575,
      "𝐴": 6576,
      "𝐵": 6577,
      "𝐶": 6578,
      "𝐷": 6579,
      "𝐸": 6580,
      "𝐹": 6581,
      "𝐿": 6582,
      "𝑂": 6583,
      "𝑃": 6584,
      "𝑇": 6585,
      "𝑉": 6586,
      "𝑋": 6587,
      "𝑌": 6588,
      "𝑎": 6589,
      "𝑔": 6590,
      "𝑚": 6591,
      "𝑡": 6592,
      "𝑣": 6593,
      "𝑥": 6594,
      "𝑦": 6595,
      "𝒞": 6596,
      "𝒩": 6597,
      "𝒲": 6598,
      "𝓿": 6599,
      "𝔞": 6600,
      "𝔠": 6601,
      "𝔢": 6602,
      "𝔤": 6603,
      "𝔦": 6604,
      "𝔩": 6605,
      "𝔪": 6606,
      "𝔫": 6607,
      "𝔱": 6608,
      "𝔶": 6609,
      "𝗕": 6610,
      "𝗗": 6611,
      "𝗙": 6612,
      "𝗚": 6613,
      "𝗜": 6614,
      "𝗦": 6615,
      "𝗨": 6616,
      "𝗮": 6617,
      "𝗯": 6618,
      "𝗰": 6619,
      "𝗱": 6620,
      "𝗲": 6621,
      "𝗳": 6622,
      "𝗴": 6623,
      "𝗶": 6624,
      "𝗸": 6625,
      "𝗹": 6626,
      "𝗺": 6627,
      "𝗻": 6628,
      "𝗼": 6629,
      "𝗽": 6630,
      "𝗿": 6631,
      "𝘀": 6632,
      "𝘁": 6633,
      "𝘂": 6634,
      "𝘃": 6635,
      "𝘆": 6636,
      "𝘢": 6637,
      "𝘦": 6638,
      "𝘪": 6639,
      "𝘭": 6640,
      "𝘰": 6641,
      "𝘱": 6642,
      "𝙋": 6643,
      "𝙖": 6644,
      "𝙗": 6645,
      "𝙘": 6646,
      "𝙙": 6647,
      "𝙚": 6648,
      "𝙛": 6649,
      "𝙜": 6650,
      "𝙞": 6651,
      "𝙡": 6652,
      "𝙢": 6653,
      "𝙣": 6654,
      "𝙤": 6655,
      "𝙧": 6656,
      "𝙨": 6657,
      "𝙩": 6658,
      "𝙰": 6659,
      "𝙴": 6660,
      "𝙷": 6661,
      "𝙺": 6662,
      "𝙼": 6663,
      "𝙾": 6664,
      "𝚂": 6665,
      "𝚊": 6666,
      "𝚋": 6667,
      "𝚌": 6668,
      "𝚍": 6669,
      "𝚎": 6670,
      "𝚏": 6671,
      "𝚐": 6672,
      "𝚑": 6673,
      "𝚒": 6674,
      "𝚓": 6675,
      "𝚕": 6676,
      "𝚖": 6677,
      "𝚗": 6678,
      "𝚘": 6679,
      "𝚙": 6680,
      "𝚚": 6681,
      "𝚛": 6682,
      "𝚜": 6683,
      "𝚝": 6684,
      "𝚞": 6685,
      "𝚠": 6686,
      "𝚢": 6687,
      "𝛿": 6688,
      "𝜈": 6689,
      "𝜔": 6690,
      "𝟭": 6691,
      "𝟯": 6692,
      "🆕": 6693,
      "🆘": 6694,
      "🇦": 6695,
      "🇧": 6696,
      "🇨": 6697,
      "🇩": 6698,
      "🇪": 6699,
      "🇫": 6700,
      "🇬": 6701,
      "🇮": 6702,
      "🇯": 6703,
      "🇰": 6704,
      "🇱": 6705,
      "🇲": 6706,
      "🇳": 6707,
      "🇵": 6708,
      "🇶": 6709,
      "🇷": 6710,
      "🇸": 6711,
      "🇹": 6712,
      "🇺": 6713,
      "🇽": 6714,
      "🇾": 6715,
      "🇿": 6716,
      "🌀": 6717,
      "🌄": 6718,
      "🌇": 6719,
      "🌈": 6720,
      "🌊": 6721,
      "🌌": 6722,
      "🌎": 6723,
      "🌏": 6724,
      "🌙": 6725,
      "🌝": 6726,
      "🌞": 6727,
      "🌟": 6728,
      "🌠": 6729,
      "🌥": 6730,
      "🌧": 6731,
      "🌭": 6732,
      "🌮": 6733,
      "🌯": 6734,
      "🌱": 6735,
      "🌲": 6736,
      "🌳": 6737,
      "🌴": 6738,
      "🌷": 6739,
      "🌸": 6740,
      "🌹": 6741,
      "🌺": 6742,
      "🌻": 6743,
      "🌼": 6744,
      "🌾": 6745,
      "🌿": 6746,
      "🍀": 6747,
      "🍃": 6748,
      "🍄": 6749,
      "🍅": 6750,
      "🍆": 6751,
      "🍇": 6752,
      "🍋": 6753,
      "🍌": 6754,
      "🍍": 6755,
      "🍎": 6756,
      "🍓": 6757,
      "🍔": 6758,
      "🍕": 6759,
      "🍗": 6760,
      "🍝": 6761,
      "🍟": 6762,
      "🍨": 6763,
      "🍩": 6764,
      "🍬": 6765,
      "🍭": 6766,
      "🍰": 6767,
      "🍳": 6768,
      "🍴": 6769,
      "🍷": 6770,
      "🍸": 6771,
      "🍹": 6772,
      "🍺": 6773,
      "🍻": 6774,
      "🍾": 6775,
      "🎀": 6776,
      "🎁": 6777,
      "🎂": 6778,
      "🎃": 6779,
      "🎅": 6780,
      "🎆": 6781,
      "🎇": 6782,
      "🎈": 6783,
      "🎉": 6784,
      "🎊": 6785,
      "🎌": 6786,
      "🎓": 6787,
      "🎖": 6788,
      "🎗": 6789,
      "🎙": 6790,
      "🎛": 6791,
      "🎣": 6792,
      "🎥": 6793,
      "🎧": 6794,
      "🎨": 6795,
      "🎩": 6796,
      "🎬": 6797,
      "🎭": 6798,
      "🎮": 6799,
      "🎯": 6800,
      "🎱": 6801,
      "🎵": 6802,
      "🎶": 6803,
      "🎷": 6804,
      "🎸": 6805,
      "🎹": 6806,
      "🎼": 6807,
      "🏀": 6808,
      "🏁": 6809,
      "🏂": 6810,
      "🏃": 6811,
      "🏆": 6812,
      "🏎": 6813,
      "🏖": 6814,
      "🏗": 6815,
      "🏘": 6816,
      "🏙": 6817,
      "🏝": 6818,
      "🏡": 6819,
      "🏢": 6820,
      "🏦": 6821,
      "🏧": 6822,
      "🏨": 6823,
      "🏪": 6824,
      "🏫": 6825,
      "🏬": 6826,
      "🏭": 6827,
      "🏮": 6828,
      "🏳": 6829,
      "🏴": 6830,
      "🏻": 6831,
      "🏼": 6832,
      "🏽": 6833,
      "🏾": 6834,
      "🏿": 6835,
      "🐌": 6836,
      "🐍": 6837,
      "🐓": 6838,
      "🐕": 6839,
      "🐘": 6840,
      "🐚": 6841,
      "🐜": 6842,
      "🐞": 6843,
      "🐟": 6844,
      "🐣": 6845,
      "🐤": 6846,
      "🐥": 6847,
      "🐦": 6848,
      "🐩": 6849,
      "🐰": 6850,
      "🐱": 6851,
      "🐴": 6852,
      "🐶": 6853,
      "🐸": 6854,
      "🐻": 6855,
      "🐼": 6856,
      "🐾": 6857,
      "🐿": 6858,
      "👀": 6859,
      "👂": 6860,
      "👄": 6861,
      "👅": 6862,
      "👆": 6863,
      "👇": 6864,
      "👈": 6865,
      "👉": 6866,
      "👊": 6867,
      "👋": 6868,
      "👌": 6869,
      "👍": 6870,
      "👏": 6871,
      "👑": 6872,
      "👓": 6873,
      "👔": 6874,
      "👕": 6875,
      "👖": 6876,
      "👗": 6877,
      "👙": 6878,
      "👚": 6879,
      "👟": 6880,
      "👠": 6881,
      "👣": 6882,
      "👤": 6883,
      "👥": 6884,
      "👦": 6885,
      "👧": 6886,
      "👨": 6887,
      "👩": 6888,
      "👪": 6889,
      "👮": 6890,
      "👯": 6891,
      "👶": 6892,
      "👸": 6893,
      "👻": 6894,
      "👼": 6895,
      "👽": 6896,
      "👾": 6897,
      "💀": 6898,
      "💁": 6899,
      "💃": 6900,
      "💄": 6901,
      "💅": 6902,
      "💆": 6903,
      "💈": 6904,
      "💊": 6905,
      "💋": 6906,
      "💌": 6907,
      "💍": 6908,
      "💎": 6909,
      "💐": 6910,
      "💑": 6911,
      "💓": 6912,
      "💔": 6913,
      "💕": 6914,
      "💖": 6915,
      "💗": 6916,
      "💘": 6917,
      "💙": 6918,
      "💚": 6919,
      "💛": 6920,
      "💜": 6921,
      "💝": 6922,
      "💞": 6923,
      "💡": 6924,
      "💣": 6925,
      "💥": 6926,
      "💦": 6927,
      "💧": 6928,
      "💩": 6929,
      "💪": 6930,
      "💫": 6931,
      "💬": 6932,
      "💭": 6933,
      "💯": 6934,
      "💰": 6935,
      "💱": 6936,
      "💲": 6937,
      "💵": 6938,
      "💸": 6939,
      "💻": 6940,
      "💼": 6941,
      "📀": 6942,
      "📄": 6943,
      "📈": 6944,
      "📋": 6945,
      "📌": 6946,
      "📍": 6947,
      "📏": 6948,
      "📒": 6949,
      "📖": 6950,
      "📘": 6951,
      "📚": 6952,
      "📜": 6953,
      "📝": 6954,
      "📞": 6955,
      "📡": 6956,
      "📢": 6957,
      "📣": 6958,
      "📦": 6959,
      "📩": 6960,
      "📫": 6961,
      "📱": 6962,
      "📲": 6963,
      "📵": 6964,
      "📷": 6965,
      "📸": 6966,
      "📺": 6967,
      "🔂": 6968,
      "🔄": 6969,
      "🔊": 6970,
      "🔌": 6971,
      "🔍": 6972,
      "🔎": 6973,
      "🔓": 6974,
      "🔔": 6975,
      "🔙": 6976,
      "🔛": 6977,
      "🔟": 6978,
      "🔣": 6979,
      "🔥": 6980,
      "🔦": 6981,
      "🔨": 6982,
      "🔰": 6983,
      "🔸": 6984,
      "🔹": 6985,
      "🕉": 6986,
      "🕊": 6987,
      "🕍": 6988,
      "🕳": 6989,
      "🕷": 6990,
      "🕺": 6991,
      "🖐": 6992,
      "🖤": 6993,
      "🖥": 6994,
      "🖼": 6995,
      "🗣": 6996,
      "😀": 6997,
      "😁": 6998,
      "😂": 6999,
      "😃": 7000,
      "😄": 7001,
      "😅": 7002,
      "😆": 7003,
      "😇": 7004,
      "😈": 7005,
      "😉": 7006,
      "😊": 7007,
      "😋": 7008,
      "😌": 7009,
      "😍": 7010,
      "😎": 7011,
      "😏": 7012,
      "😐": 7013,
      "😑": 7014,
      "😓": 7015,
      "😔": 7016,
      "😕": 7017,
      "😖": 7018,
      "😗": 7019,
      "😘": 7020,
      "😛": 7021,
      "😜": 7022,
      "😝": 7023,
      "😞": 7024,
      "😡": 7025,
      "😢": 7026,
      "😣": 7027,
      "😥": 7028,
      "😦": 7029,
      "😨": 7030,
      "😩": 7031,
      "😪": 7032,
      "😫": 7033,
      "😬": 7034,
      "😭": 7035,
      "😮": 7036,
      "😯": 7037,
      "😰": 7038,
      "😱": 7039,
      "😲": 7040,
      "😳": 7041,
      "😴": 7042,
      "😵": 7043,
      "😶": 7044,
      "😹": 7045,
      "😺": 7046,
      "😻": 7047,
      "🙁": 7048,
      "🙂": 7049,
      "🙃": 7050,
      "🙄": 7051,
      "🙇": 7052,
      "🙈": 7053,
      "🙋": 7054,
      "🙌": 7055,
      "🙏": 7056,
      "🚀": 7057,
      "🚑": 7058,
      "🚚": 7059,
      "🚜": 7060,
      "🚨": 7061,
      "🚩": 7062,
      "🚫": 7063,
      "🚬": 7064,
      "🚮": 7065,
      "🚲": 7066,
      "🚴": 7067,
      "🚸": 7068,
      "🛀": 7069,
      "🛈": 7070,
      "🛍": 7071,
      "🛣": 7072,
      "🛰": 7073,
      "🛳": 7074,
      "🤔": 7075,
      "🤕": 7076,
      "🤖": 7077,
      "🤗": 7078,
      "🤘": 7079,
      "🤙": 7080,
      "🤝": 7081,
      "🤞": 7082,
      "🤟": 7083,
      "🤢": 7084,
      "🤣": 7085,
      "🤤": 7086,
      "🤦": 7087,
      "🤩": 7088,
      "🤪": 7089,
      "🤫": 7090,
      "🤭": 7091,
      "🤮": 7092,
      "🤰": 7093,
      "🤳": 7094,
      "🤵": 7095,
      "🤷": 7096,
      "🥂": 7097,
      "🥃": 7098,
      "🥇": 7099,
      "🥊": 7100,
      "🥑": 7101,
      "🥒": 7102,
      "🥓": 7103,
      "🥕": 7104,
      "🥚": 7105,
      "🥛": 7106,
      "🥢": 7107,
      "🥤": 7108,
      "🥥": 7109,
      "🥨": 7110,
      "🥰": 7111,
      "🥳": 7112,
      "🥶": 7113,
      "🥺": 7114,
      "🦀": 7115,
      "🦄": 7116,
      "🦇": 7117,
      "🦉": 7118,
      "🦌": 7119,
      "🦖": 7120,
      "🦗": 7121,
      "🦸": 7122,
      "🧀": 7123,
      "🧐": 7124,
      "🧑": 7125,
      "🧙": 7126,
      "🧚": 7127,
      "🧛": 7128,
      "🧧": 7129,
      "🧱": 7130,
      "🧸": 7131,
      "𣂋": 7132,
      "𣬠": 7133,
      "𣬶": 7134,
      "𨁂": 7135,
      "󠁢": 7136,
      "󠁤": 7137,
      "󠁦": 7138,
      "󠁲": 7139,
      "󠁿": 7140,
      "󾠣": 7141,
      "􀳦": 7142,
      "􏰊": 7143,
      "th": 7144,
      "in": 7145,
      "an": 7146,
      "er": 7147,
      "on": 7148,
      "re": 7149,
      "the": 7150,
      "at": 7151,
      "or": 7152,
      "en": 7153,
      "ou": 7154,
      "es": 7155,
      "al": 7156,
      "is": 7157,
      "to": 7158,
      "ing": 7159,
      "ed": 7160,
      "and": 7161,
      "ar": 7162,
      "of": 7163,
      "it": 7164,
      "as": 7165,
      "ic": 7166,
      "le": 7167,
      "ion": 7168,
      "st": 7169,
      "om": 7170,
      "ent": 7171,
      "il": 7172,
      "ac": 7173,
      "el": 7174,
      "ro": 7175,
      "for": 7176,
      "se": 7177,
      "he": 7178,
      "you": 7179,
      "ve": 7180,
      "ch": 7181,
      "be": 7182,
      "ad": 7183,
      "am": 7184,
      "ow": 7185,
      "ly": 7186,
      "id": 7187,
      "ol": 7188,
      "ay": 7189,
      "im": 7190,
      "ig": 7191,
      "et": 7192,
      "ver": 7193,
      "ith": 7194,
      "ation": 7195,
      "ct": 7196,
      "are": 7197,
      "wh": 7198,
      "ur": 7199,
      "ot": 7200,
      "us": 7201,
      "ter": 7202,
      "with": 7203,
      "that": 7204,
      "ab": 7205,
      "un": 7206,
      "ir": 7207,
      "ce": 7208,
      "ut": 7209,
      "ag": 7210,
      "com": 7211,
      "pro": 7212,
      "con": 7213,
      "The": 7214,
      "lo": 7215,
      "ul": 7216,
      "ers": 7217,
      "tr": 7218,
      "ap": 7219,
      "em": 7220,
      "all": 7221,
      "ill": 7222,
      "op": 7223,
      "res": 7224,
      "ne": 7225,
      "mo": 7226,
      "su": 7227,
      "if": 7228,
      "de": 7229,
      "pl": 7230,
      "fr": 7231,
      "est": 7232,
      "ex": 7233,
      "ere": 7234,
      "ess": 7235,
      "our": 7236,
      "ha": 7237,
      "ke": 7238,
      "we": 7239,
      "out": 7240,
      "pe": 7241,
      "ain": 7242,
      "igh": 7243,
      "so": 7244,
      "ate": 7245,
      "sh": 7246,
      "was": 7247,
      "ment": 7248,
      "oun": 7249,
      "ts": 7250,
      "your": 7251,
      "qu": 7252,
      "ity": 7253,
      "by": 7254,
      "iv": 7255,
      "per": 7256,
      "ies": 7257,
      "one": 7258,
      "art": 7259,
      "od": 7260,
      "from": 7261,
      "ther": 7262,
      "ive": 7263,
      "Th": 7264,
      "ld": 7265,
      "can": 7266,
      "have": 7267,
      "pr": 7268,
      "ant": 7269,
      "um": 7270,
      "po": 7271,
      "wor": 7272,
      "this": 7273,
      "te": 7274,
      "act": 7275,
      "not": 7276,
      "ist": 7277,
      "20": 7278,
      "cl": 7279,
      "In": 7280,
      "end": 7281,
      "ard": 7282,
      "will": 7283,
      "any": 7284,
      "ial": 7285,
      "fe": 7286,
      "ip": 7287,
      "ust": 7288,
      "ome": 7289,
      "co": 7290,
      "gr": 7291,
      "up": 7292,
      "ge": 7293,
      "ind": 7294,
      "do": 7295,
      "ort": 7296,
      "ell": 7297,
      "gh": 7298,
      "ight": 7299,
      "ould": 7300,
      "ie": 7301,
      "ud": 7302,
      "ine": 7303,
      "me": 7304,
      "go": 7305,
      "able": 7306,
      "ide": 7307,
      "ack": 7308,
      "ok": 7309,
      "but": 7310,
      "ak": 7311,
      "ear": 7312,
      "has": 7313,
      "ure": 7314,
      "av": 7315,
      "age": 7316,
      "der": 7317,
      "ice": 7318,
      "ally": 7319,
      "ough": 7320,
      "ach": 7321,
      "ich": 7322,
      "ast": 7323,
      "comp": 7324,
      "19": 7325,
      "tim": 7326,
      "form": 7327,
      "ions": 7328,
      "li": 7329,
      "ated": 7330,
      "bo": 7331,
      "ire": 7332,
      "work": 7333,
      "sp": 7334,
      "du": 7335,
      "own": 7336,
      "ound": 7337,
      "ake": 7338,
      "cre": 7339,
      "af": 7340,
      "use": 7341,
      "fer": 7342,
      "ish": 7343,
      "iz": 7344,
      "ser": 7345,
      "ong": 7346,
      "their": 7347,
      "more": 7348,
      "ia": 7349,
      "ous": 7350,
      "ass": 7351,
      "fo": 7352,
      "ib": 7353,
      "ans": 7354,
      "very": 7355,
      "ite": 7356,
      "ail": 7357,
      "ck": 7358,
      "way": 7359,
      "ev": 7360,
      "my": 7361,
      "port": 7362,
      "which": 7363,
      "its": 7364,
      "they": 7365,
      "ber": 7366,
      "00": 7367,
      "day": 7368,
      "ign": 7369,
      "ance": 7370,
      "other": 7371,
      "ence": 7372,
      "ame": 7373,
      "cr": 7374,
      "get": 7375,
      "It": 7376,
      "str": 7377,
      "ace": 7378,
      "some": 7379,
      "br": 7380,
      "also": 7381,
      "now": 7382,
      "ep": 7383,
      "dis": 7384,
      "ary": 7385,
      "cont": 7386,
      "no": 7387,
      "time": 7388,
      "about": 7389,
      "ical": 7390,
      "Ch": 7391,
      "his": 7392,
      "pre": 7393,
      "ction": 7394,
      "bl": 7395,
      "who": 7396,
      "ely": 7397,
      "year": 7398,
      "An": 7399,
      "We": 7400,
      "man": 7401,
      "ations": 7402,
      "ase": 7403,
      "part": 7404,
      "over": 7405,
      "This": 7406,
      "cess": 7407,
      "new": 7408,
      "St": 7409,
      "ile": 7410,
      "ark": 7411,
      "ree": 7412,
      "ren": 7413,
      "ick": 7414,
      "thing": 7415,
      "ents": 7416,
      "Wh": 7417,
      "aw": 7418,
      "ition": 7419,
      "inter": 7420,
      "ful": 7421,
      "ty": 7422,
      "mer": 7423,
      "int": 7424,
      "ph": 7425,
      "201": 7426,
      "ens": 7427,
      "pos": 7428,
      "pres": 7429,
      "dr": 7430,
      "ian": 7431,
      "cor": 7432,
      "were": 7433,
      "ater": 7434,
      "prov": 7435,
      "spe": 7436,
      "them": 7437,
      "ple": 7438,
      "des": 7439,
      "low": 7440,
      "ors": 7441,
      "been": 7442,
      "her": 7443,
      "when": 7444,
      "ue": 7445,
      "ult": 7446,
      "col": 7447,
      "cial": 7448,
      "off": 7449,
      "comm": 7450,
      "og": 7451,
      "ang": 7452,
      "like": 7453,
      "fir": 7454,
      "ll": 7455,
      "there": 7456,
      "had": 7457,
      "wo": 7458,
      "need": 7459,
      "hel": 7460,
      "than": 7461,
      "enc": 7462,
      "ink": 7463,
      "ci": 7464,
      "serv": 7465,
      "reat": 7466,
      "cent": 7467,
      "ild": 7468,
      "vel": 7469,
      "cho": 7470,
      "most": 7471,
      "ca": 7472,
      "how": 7473,
      "would": 7474,
      "old": 7475,
      "what": 7476,
      "just": 7477,
      "vers": 7478,
      "ory": 7479,
      "ef": 7480,
      "ade": 7481,
      "into": 7482,
      "ting": 7483,
      "bu": 7484,
      "ning": 7485,
      "sy": 7486,
      "min": 7487,
      "ob": 7488,
      "incl": 7489,
      ").": 7490,
      "add": 7491,
      "au": 7492,
      "cur": 7493,
      "thr": 7494,
      "cus": 7495,
      "He": 7496,
      "ople": 7497,
      "ates": 7498,
      "ry": 7499,
      "fin": 7500,
      "coun": 7501,
      "produ": 7502,
      "play": 7503,
      "may": 7504,
      "read": 7505,
      "first": 7506,
      "well": 7507,
      "ating": 7508,
      "sa": 7509,
      "only": 7510,
      "You": 7511,
      "row": 7512,
      "att": 7513,
      "reg": 7514,
      "help": 7515,
      "ied": 7516,
      "bet": 7517,
      "fore": 7518,
      "je": 7519,
      "back": 7520,
      "ual": 7521,
      "Re": 7522,
      "pt": 7523,
      "Un": 7524,
      "people": 7525,
      "make": 7526,
      "lect": 7527,
      "through": 7528,
      "air": 7529,
      "high": 7530,
      "ose": 7531,
      "look": 7532,
      "If": 7533,
      "app": 7534,
      "ices": 7535,
      "under": 7536,
      "med": 7537,
      "200": 7538,
      "land": 7539,
      "ious": 7540,
      "dif": 7541,
      "fl": 7542,
      "As": 7543,
      "vis": 7544,
      "ments": 7545,
      "where": 7546,
      "ins": 7547,
      "red": 7548,
      "mon": 7549,
      "ities": 7550,
      "fect": 7551,
      "arch": 7552,
      "sup": 7553,
      "cer": 7554,
      "know": 7555,
      "many": 7556,
      "see": 7557,
      "os": 7558,
      "),": 7559,
      "ener": 7560,
      "ict": 7561,
      "ject": 7562,
      "two": 7563,
      "ific": 7564,
      "let": 7565,
      "tain": 7566,
      "these": 7567,
      "come": 7568,
      "car": 7569,
      "ons": 7570,
      "every": 7571,
      "set": 7572,
      "peri": 7573,
      "top": 7574,
      "rel": 7575,
      "..": 7576,
      "ational": 7577,
      "10": 7578,
      "then": 7579,
      "line": 7580,
      "ank": 7581,
      "ings": 7582,
      "cal": 7583,
      "gu": 7584,
      "after": 7585,
      "ath": 7586,
      "ress": 7587,
      "cause": 7588,
      "Ne": 7589,
      "iew": 7590,
      "rit": 7591,
      "ise": 7592,
      "pers": 7593,
      "used": 7594,
      "stud": 7595,
      "les": 7596,
      "ily": 7597,
      "urn": 7598,
      "ased": 7599,
      "For": 7600,
      "don": 7601,
      "inv": 7602,
      "bus": 7603,
      "iness": 7604,
      "ible": 7605,
      "Al": 7606,
      "tom": 7607,
      "includ": 7608,
      "requ": 7609,
      "ife": 7610,
      "che": 7611,
      "stem": 7612,
      "tern": 7613,
      "try": 7614,
      "cons": 7615,
      "stand": 7616,
      "years": 7617,
      "Com": 7618,
      "ular": 7619,
      "fun": 7620,
      "uring": 7621,
      "ho": 7622,
      "ten": 7623,
      "mark": 7624,
      "ics": 7625,
      "Ar": 7626,
      "down": 7627,
      "ever": 7628,
      "such": 7629,
      "ces": 7630,
      "ys": 7631,
      "ility": 7632,
      "io": 7633,
      "want": 7634,
      "del": 7635,
      "even": 7636,
      "iss": 7637,
      "good": 7638,
      "als": 7639,
      "ubl": 7640,
      "uch": 7641,
      "lear": 7642,
      "ange": 7643,
      "sel": 7644,
      "sure": 7645,
      "less": 7646,
      "cond": 7647,
      "olog": 7648,
      "ures": 7649,
      "ra": 7650,
      "she": 7651,
      "Con": 7652,
      "ced": 7653,
      "ited": 7654,
      "could": 7655,
      "mem": 7656,
      "view": 7657,
      "ative": 7658,
      "eng": 7659,
      "formation": 7660,
      "aking": 7661,
      "main": 7662,
      "design": 7663,
      "alth": 7664,
      "should": 7665,
      "ix": 7666,
      "ss": 7667,
      "best": 7668,
      "gan": 7669,
      "En": 7670,
      "sub": 7671,
      "sm": 7672,
      "ek": 7673,
      "book": 7674,
      "ble": 7675,
      "home": 7676,
      "stru": 7677,
      "18": 7678,
      "find": 7679,
      "Tr": 7680,
      "ub": 7681,
      "ement": 7682,
      "ident": 7683,
      "differ": 7684,
      "ds": 7685,
      "jo": 7686,
      "sur": 7687,
      "long": 7688,
      "site": 7689,
      "great": 7690,
      "ma": 7691,
      "ext": 7692,
      "bel": 7693,
      "call": 7694,
      "arr": 7695,
      "ann": 7696,
      "And": 7697,
      "system": 7698,
      "velop": 7699,
      "lar": 7700,
      "made": 7701,
      "por": 7702,
      "itt": 7703,
      "each": 7704,
      "much": 7705,
      "amp": 7706,
      "start": 7707,
      "right": 7708,
      "develop": 7709,
      "fam": 7710,
      "ward": 7711,
      "ms": 7712,
      "ash": 7713,
      "business": 7714,
      "chool": 7715,
      "pect": 7716,
      "par": 7717,
      "person": 7718,
      "show": 7719,
      "Se": 7720,
      "num": 7721,
      "gram": 7722,
      "pol": 7723,
      "take": 7724,
      "sim": 7725,
      "because": 7726,
      "here": 7727,
      "atch": 7728,
      "ved": 7729,
      "fol": 7730,
      "Fr": 7731,
      "ven": 7732,
      "Pro": 7733,
      "being": 7734,
      "ways": 7735,
      "led": 7736,
      "ret": 7737,
      "said": 7738,
      "So": 7739,
      "ship": 7740,
      "oup": 7741,
      "ivers": 7742,
      "sk": 7743,
      "product": 7744,
      "care": 7745,
      "inst": 7746,
      "information": 7747,
      "ages": 7748,
      "room": 7749,
      "sol": 7750,
      "clo": 7751,
      "life": 7752,
      "val": 7753,
      "There": 7754,
      "chn": 7755,
      "place": 7756,
      "before": 7757,
      "On": 7758,
      "char": 7759,
      "eas": 7760,
      "ask": 7761,
      "New": 7762,
      "ug": 7763,
      "ality": 7764,
      "world": 7765,
      "provid": 7766,
      "while": 7767,
      "experi": 7768,
      "ner": 7769,
      "cap": 7770,
      "again": 7771,
      "did": 7772,
      "hand": 7773,
      "fact": 7774,
      "ese": 7775,
      "ving": 7776,
      "ually": 7777,
      "gl": 7778,
      "Pr": 7779,
      "ives": 7780,
      "put": 7781,
      "ince": 7782,
      "alk": 7783,
      "det": 7784,
      "ding": 7785,
      "those": 7786,
      "though": 7787,
      "ize": 7788,
      "ional": 7789,
      "does": 7790,
      "ters": 7791,
      "How": 7792,
      "ouse": 7793,
      "him": 7794,
      "think": 7795,
      "ason": 7796,
      "ton": 7797,
      "prof": 7798,
      "fil": 7799,
      "ween": 7800,
      "week": 7801,
      "lead": 7802,
      "ower": 7803,
      "az": 7804,
      "publ": 7805,
      "ata": 7806,
      "sing": 7807,
      "iving": 7808,
      "web": 7809,
      "ican": 7810,
      "Ex": 7811,
      "using": 7812,
      "Be": 7813,
      "irect": 7814,
      "oc": 7815,
      "Amer": 7816,
      "say": 7817,
      "cour": 7818,
      "team": 7819,
      "ax": 7820,
      "fic": 7821,
      "side": 7822,
      "plo": 7823,
      "sign": 7824,
      "different": 7825,
      "search": 7826,
      "around": 7827,
      "plan": 7828,
      "between": 7829,
      "trans": 7830,
      "commun": 7831,
      "No": 7832,
      "free": 7833,
      "last": 7834,
      "lot": 7835,
      "Bo": 7836,
      "leg": 7837,
      "process": 7838,
      "pur": 7839,
      "rent": 7840,
      "market": 7841,
      "post": 7842,
      "present": 7843,
      "var": 7844,
      "12": 7845,
      "both": 7846,
      "iel": 7847,
      "run": 7848,
      "But": 7849,
      "ier": 7850,
      "found": 7851,
      "child": 7852,
      "program": 7853,
      "ient": 7854,
      "iver": 7855,
      "15": 7856,
      "akes": 7857,
      "Cl": 7858,
      "They": 7859,
      "De": 7860,
      "To": 7861,
      "gener": 7862,
      "cover": 7863,
      "ature": 7864,
      "self": 7865,
      "list": 7866,
      "support": 7867,
      "light": 7868,
      "Le": 7869,
      "ave": 7870,
      "dec": 7871,
      "ior": 7872,
      "30": 7873,
      "Mo": 7874,
      "plic": 7875,
      "avail": 7876,
      "same": 7877,
      "offer": 7878,
      "head": 7879,
      "ness": 7880,
      "techn": 7881,
      "ized": 7882,
      "follow": 7883,
      "too": 7884,
      "Co": 7885,
      "ider": 7886,
      "allow": 7887,
      "water": 7888,
      "ists": 7889,
      "cept": 7890,
      "order": 7891,
      "Ro": 7892,
      "point": 7893,
      "Gr": 7894,
      "ired": 7895,
      "import": 7896,
      "including": 7897,
      "going": 7898,
      "poss": 7899,
      "cut": 7900,
      "199": 7901,
      "blo": 7902,
      "writ": 7903,
      "Ad": 7904,
      "organ": 7905,
      "build": 7906,
      "oper": 7907,
      "during": 7908,
      "service": 7909,
      "Sh": 7910,
      "ished": 7911,
      "cle": 7912,
      "miss": 7913,
      "bre": 7914,
      "really": 7915,
      "company": 7916,
      "ale": 7917,
      "loc": 7918,
      "still": 7919,
      "ety": 7920,
      "iend": 7921,
      "ines": 7922,
      "gy": 7923,
      "arm": 7924,
      "ves": 7925,
      "sto": 7926,
      "net": 7927,
      "resp": 7928,
      "three": 7929,
      "available": 7930,
      "pat": 7931,
      "adv": 7932,
      "number": 7933,
      "open": 7934,
      "small": 7935,
      "real": 7936,
      "incre": 7937,
      "ology": 7938,
      "aph": 7939,
      "ames": 7940,
      "When": 7941,
      "feel": 7942,
      "partic": 7943,
      "project": 7944,
      "bers": 7945,
      "sit": 7946,
      "Pl": 7947,
      "000": 7948,
      "issu": 7949,
      "ustr": 7950,
      "Wor": 7951,
      "ital": 7952,
      "At": 7953,
      "few": 7954,
      "ural": 7955,
      "school": 7956,
      "uc": 7957,
      "class": 7958,
      "group": 7959,
      "What": 7960,
      "pay": 7961,
      "ross": 7962,
      "love": 7963,
      "power": 7964,
      "Jo": 7965,
      "spec": 7966,
      "month": 7967,
      "unt": 7968,
      "que": 7969,
      "perform": 7970,
      "level": 7971,
      "opt": 7972,
      "friend": 7973,
      "cy": 7974,
      "health": 7975,
      "tem": 7976,
      "based": 7977,
      "ically": 7978,
      "Col": 7979,
      "ability": 7980,
      "data": 7981,
      "keep": 7982,
      "50": 7983,
      "exam": 7984,
      "ah": 7985,
      "ars": 7986,
      "ittle": 7987,
      "contin": 7988,
      "load": 7989,
      "gg": 7990,
      "Br": 7991,
      "press": 7992,
      "met": 7993,
      "family": 7994,
      "ants": 7995,
      "ude": 7996,
      "interest": 7997,
      "Is": 7998,
      "mus": 7999,
      "Or": 8000,
      "effect": 8001,
      "pass": 8002,
      "fac": 8003,
      "experience": 8004,
      "All": 8005,
      "direct": 8006,
      "won": 8007,
      "happ": 8008,
      "bod": 8009,
      "rece": 8010,
      "rest": 8011,
      "ences": 8012,
      "With": 8013,
      "services": 8014,
      "pop": 8015,
      "second": 8016,
      "enter": 8017,
      "cost": 8018,
      "without": 8019,
      "gre": 8020,
      "ger": 8021,
      "US": 8022,
      "area": 8023,
      "grow": 8024,
      "cas": 8025,
      "ik": 8026,
      "provide": 8027,
      "test": 8028,
      "vir": 8029,
      "nor": 8030,
      "ather": 8031,
      "ets": 8032,
      "must": 8033,
      "important": 8034,
      "ium": 8035,
      "Chr": 8036,
      "plac": 8037,
      "soci": 8038,
      "always": 8039,
      "11": 8040,
      "manag": 8041,
      "quest": 8042,
      "vent": 8043,
      "ont": 8044,
      "iversity": 8045,
      "ution": 8046,
      "itch": 8047,
      "appro": 8048,
      "son": 8049,
      "aren": 8050,
      "kn": 8051,
      "change": 8052,
      "bor": 8053,
      "fort": 8054,
      "cell": 8055,
      "dep": 8056,
      "ared": 8057,
      "tw": 8058,
      "got": 8059,
      "graph": 8060,
      "proper": 8061,
      "things": 8062,
      "contro": 8063,
      "nex": 8064,
      "contr": 8065,
      "ready": 8066,
      "quality": 8067,
      "ff": 8068,
      "special": 8069,
      "16": 8070,
      "Can": 8071,
      "ball": 8072,
      "ights": 8073,
      "little": 8074,
      "ury": 8075,
      "came": 8076,
      "outh": 8077,
      "better": 8078,
      "ards": 8079,
      "ately": 8080,
      "ric": 8081,
      "suc": 8082,
      "aut": 8083,
      "oth": 8084,
      "lim": 8085,
      "proble": 8086,
      "online": 8087,
      "within": 8088,
      "She": 8089,
      "ploy": 8090,
      "game": 8091,
      "law": 8092,
      "Nor": 8093,
      "17": 8094,
      "Ser": 8095,
      "ients": 8096,
      "since": 8097,
      "Our": 8098,
      "next": 8099,
      "sum": 8100,
      "full": 8101,
      "house": 8102,
      "state": 8103,
      ".\"": 8104,
      "comple": 8105,
      "bro": 8106,
      "appe": 8107,
      "current": 8108,
      "another": 8109,
      "ential": 8110,
      "prom": 8111,
      "big": 8112,
      "hist": 8113,
      "access": 8114,
      "pho": 8115,
      "count": 8116,
      "days": 8117,
      "hard": 8118,
      "key": 8119,
      "ivid": 8120,
      "train": 8121,
      "American": 8122,
      "Go": 8123,
      "rele": 8124,
      "consider": 8125,
      "aim": 8126,
      "ived": 8127,
      "local": 8128,
      "ism": 8129,
      "ply": 8130,
      "give": 8131,
      "struct": 8132,
      "working": 8133,
      "equ": 8134,
      "ond": 8135,
      "la": 8136,
      "bal": 8137,
      "oney": 8138,
      "public": 8139,
      "ator": 8140,
      "joy": 8141,
      "sof": 8142,
      "activ": 8143,
      "Af": 8144,
      "addition": 8145,
      "ense": 8146,
      "ped": 8147,
      "might": 8148,
      "Lo": 8149,
      "profess": 8150,
      "ours": 8151,
      "ord": 8152,
      "chang": 8153,
      "Ind": 8154,
      "14": 8155,
      "custom": 8156,
      "gin": 8157,
      "something": 8158,
      "ield": 8159,
      "Man": 8160,
      "pract": 8161,
      "comes": 8162,
      "ft": 8163,
      "invest": 8164,
      "ibut": 8165,
      "Bl": 8166,
      "ues": 8167,
      "ency": 8168,
      "Dr": 8169,
      "ele": 8170,
      "win": 8171,
      "els": 8172,
      "sc": 8173,
      "sever": 8174,
      "ended": 8175,
      "elect": 8176,
      "198": 8177,
      "prote": 8178,
      "ben": 8179,
      "photo": 8180,
      "making": 8181,
      "Ac": 8182,
      "move": 8183,
      "ica": 8184,
      "bit": 8185,
      "pain": 8186,
      "sal": 8187,
      "My": 8188,
      "hold": 8189,
      "di": 8190,
      "case": 8191,
      "Res": 8192,
      "13": 8193,
      "ted": 8194,
      "body": 8195,
      "name": 8196,
      "cu": 8197,
      "Do": 8198,
      "mill": 8199,
      "known": 8200,
      "success": 8201,
      "visit": 8202,
      "tow": 8203,
      "Ph": 8204,
      "uro": 8205,
      "never": 8206,
      "research": 8207,
      "These": 8208,
      "und": 8209,
      "iven": 8210,
      "gover": 8211,
      "That": 8212,
      "istr": 8213,
      "Coun": 8214,
      "conne": 8215,
      "dem": 8216,
      "25": 8217,
      "Mar": 8218,
      "rem": 8219,
      "until": 8220,
      "thor": 8221,
      "face": 8222,
      "looking": 8223,
      "mat": 8224,
      "products": 8225,
      "ina": 8226,
      "four": 8227,
      "children": 8228,
      "event": 8229,
      "nam": 8230,
      "ste": 8231,
      "ush": 8232,
      "hum": 8233,
      "possible": 8234,
      "exp": 8235,
      "inal": 8236,
      "food": 8237,
      "meet": 8238,
      "recor": 8239,
      "ified": 8240,
      "ope": 8241,
      "large": 8242,
      "ones": 8243,
      "ending": 8244,
      "away": 8245,
      "belie": 8246,
      "students": 8247,
      "tra": 8248,
      "along": 8249,
      "action": 8250,
      "trad": 8251,
      "ery": 8252,
      "applic": 8253,
      "link": 8254,
      "against": 8255,
      "ER": 8256,
      "gether": 8257,
      "often": 8258,
      "ping": 8259,
      "tru": 8260,
      "today": 8261,
      "ister": 8262,
      "men": 8263,
      "employ": 8264,
      "ley": 8265,
      "IN": 8266,
      "hy": 8267,
      "University": 8268,
      "sty": 8269,
      "nment": 8270,
      "bed": 8271,
      "Christ": 8272,
      "ime": 8273,
      "ling": 8274,
      "bas": 8275,
      "pot": 8276,
      "website": 8277,
      "ization": 8278,
      "understand": 8279,
      "itions": 8280,
      "One": 8281,
      "check": 8282,
      "aterial": 8283,
      "ote": 8284,
      "stat": 8285,
      "buy": 8286,
      "national": 8287,
      "wr": 8288,
      "ems": 8289,
      "ision": 8290,
      "job": 8291,
      "course": 8292,
      ".,": 8293,
      "24": 8294,
      "aster": 8295,
      "turn": 8296,
      "dev": 8297,
      "jor": 8298,
      "After": 8299,
      "pan": 8300,
      "ris": 8301,
      "fully": 8302,
      "ore": 8303,
      "ably": 8304,
      "together": 8305,
      "needs": 8306,
      "near": 8307,
      "ute": 8308,
      "vol": 8309,
      "money": 8310,
      "non": 8311,
      "report": 8312,
      "called": 8313,
      "shop": 8314,
      "ults": 8315,
      "include": 8316,
      "Car": 8317,
      "coming": 8318,
      "dom": 8319,
      "member": 8320,
      "ground": 8321,
      "learn": 8322,
      "feat": 8323,
      "ird": 8324,
      "vide": 8325,
      "expect": 8326,
      "treat": 8327,
      "aper": 8328,
      "ks": 8329,
      "easy": 8330,
      "ey": 8331,
      "ique": 8332,
      "ively": 8333,
      "night": 8334,
      "AN": 8335,
      "ised": 8336,
      "wom": 8337,
      "gen": 8338,
      "season": 8339,
      "ories": 8340,
      "whe": 8341,
      "orig": 8342,
      "Ap": 8343,
      "lab": 8344,
      "!!": 8345,
      "However": 8346,
      "having": 8347,
      "members": 8348,
      "ills": 8349,
      "ids": 8350,
      "ividual": 8351,
      "ify": 8352,
      "ails": 8353,
      "ump": 8354,
      "rop": 8355,
      "ref": 8356,
      "several": 8357,
      "hol": 8358,
      "music": 8359,
      "times": 8360,
      "material": 8361,
      "enjoy": 8362,
      "icle": 8363,
      "hip": 8364,
      "page": 8365,
      "uary": 8366,
      "sw": 8367,
      "United": 8368,
      "control": 8369,
      "ded": 8370,
      "unch": 8371,
      "city": 8372,
      "personal": 8373,
      "100": 8374,
      "aff": 8375,
      "model": 8376,
      "community": 8377,
      "certain": 8378,
      "create": 8379,
      "May": 8380,
      "specific": 8381,
      "lection": 8382,
      "197": 8383,
      "lik": 8384,
      "works": 8385,
      "vi": 8386,
      "wood": 8387,
      "Te": 8388,
      "hn": 8389,
      "conom": 8390,
      "focus": 8391,
      "kind": 8392,
      "date": 8393,
      "development": 8394,
      "left": 8395,
      "ats": 8396,
      "compan": 8397,
      "become": 8398,
      "educ": 8399,
      "ney": 8400,
      "share": 8401,
      "hal": 8402,
      "crip": 8403,
      "individual": 8404,
      "country": 8405,
      "vious": 8406,
      "God": 8407,
      "viron": 8408,
      "short": 8409,
      "ike": 8410,
      "mber": 8411,
      "beaut": 8412,
      "major": 8413,
      "later": 8414,
      "mit": 8415,
      "space": 8416,
      "itive": 8417,
      "ians": 8418,
      "teach": 8419,
      "aring": 8420,
      "position": 8421,
      "tal": 8422,
      "why": 8423,
      "thod": 8424,
      "recent": 8425,
      "field": 8426,
      "perfect": 8427,
      "review": 8428,
      "ream": 8429,
      "aud": 8430,
      "town": 8431,
      "40": 8432,
      "ances": 8433,
      "benef": 8434,
      "mult": 8435,
      "exper": 8436,
      "step": 8437,
      "mil": 8438,
      "RE": 8439,
      "...": 8440,
      "far": 8441,
      "past": 8442,
      "ron": 8443,
      "result": 8444,
      "pack": 8445,
      "social": 8446,
      "Euro": 8447,
      "Sy": 8448,
      "anal": 8449,
      "vari": 8450,
      "gn": 8451,
      "Fe": 8452,
      "means": 8453,
      "ster": 8454,
      "AT": 8455,
      "urther": 8456,
      "Po": 8457,
      "pecial": 8458,
      "compet": 8459,
      "portun": 8460,
      "60": 8461,
      "hot": 8462,
      "flo": 8463,
      "require": 8464,
      "mission": 8465,
      "early": 8466,
      "enn": 8467,
      "others": 8468,
      "cording": 8469,
      "offic": 8470,
      "road": 8471,
      "makes": 8472,
      "round": 8473,
      "uck": 8474,
      "example": 8475,
      "ined": 8476,
      "Me": 8477,
      "connect": 8478,
      "done": 8479,
      "Gu": 8480,
      "contact": 8481,
      "contain": 8482,
      "remain": 8483,
      "charac": 8484,
      "typ": 8485,
      "John": 8486,
      "tell": 8487,
      "clear": 8488,
      "ino": 8489,
      "une": 8490,
      "2018": 8491,
      "Intern": 8492,
      "ulation": 8493,
      "ustry": 8494,
      "band": 8495,
      "board": 8496,
      "urch": 8497,
      "omet": 8498,
      "comb": 8499,
      "ides": 8500,
      "price": 8501,
      "live": 8502,
      "opportun": 8503,
      "den": 8504,
      "camp": 8505,
      "ought": 8506,
      "return": 8507,
      "abl": 8508,
      "trav": 8509,
      "nat": 8510,
      "ination": 8511,
      "Thank": 8512,
      "range": 8513,
      "ove": 8514,
      "deal": 8515,
      "Des": 8516,
      "quick": 8517,
      "ane": 8518,
      "ensive": 8519,
      ",”": 8520,
      "Med": 8521,
      "ateg": 8522,
      "ising": 8523,
      "ON": 8524,
      "redu": 8525,
      "complet": 8526,
      "sl": 8527,
      "government": 8528,
      "install": 8529,
      "depend": 8530,
      "bur": 8531,
      "across": 8532,
      "wind": 8533,
      "claim": 8534,
      "fav": 8535,
      "particular": 8536,
      "ither": 8537,
      "dam": 8538,
      "utes": 8539,
      "iting": 8540,
      "mar": 8541,
      "uture": 8542,
      "acy": 8543,
      "vo": 8544,
      "vironment": 8545,
      "conf": 8546,
      "ago": 8547,
      "pie": 8548,
      "defin": 8549,
      "enough": 8550,
      "mal": 8551,
      "dist": 8552,
      "clean": 8553,
      "tool": 8554,
      "talk": 8555,
      "bar": 8556,
      "prove": 8557,
      "ilt": 8558,
      "elf": 8559,
      "foot": 8560,
      "cript": 8561,
      "walk": 8562,
      "imes": 8563,
      "grad": 8564,
      "already": 8565,
      "mind": 8566,
      "priv": 8567,
      "purch": 8568,
      "cing": 8569,
      "ount": 8570,
      "invol": 8571,
      "phone": 8572,
      "building": 8573,
      "mean": 8574,
      "story": 8575,
      "mp": 8576,
      "sour": 8577,
      "def": 8578,
      "iful": 8579,
      "reach": 8580,
      "IS": 8581,
      "ners": 8582,
      "ww": 8583,
      "ctor": 8584,
      "gar": 8585,
      "Ste": 8586,
      "22": 8587,
      "front": 8588,
      "below": 8589,
      "sch": 8590,
      "wa": 8591,
      "plain": 8592,
      "ford": 8593,
      "type": 8594,
      "aid": 8595,
      "due": 8596,
      "sell": 8597,
      "refer": 8598,
      "distr": 8599,
      "cult": 8600,
      "AS": 8601,
      "cred": 8602,
      "imp": 8603,
      "million": 8604,
      "Europe": 8605,
      "aps": 8606,
      "once": 8607,
      "study": 8608,
      "wide": 8609,
      "given": 8610,
      "started": 8611,
      "polit": 8612,
      "getting": 8613,
      "value": 8614,
      "ints": 8615,
      "World": 8616,
      "series": 8617,
      "companies": 8618,
      "industry": 8619,
      "strong": 8620,
      "flu": 8621,
      "mag": 8622,
      "following": 8623,
      "South": 8624,
      "wards": 8625,
      "war": 8626,
      "Of": 8627,
      "ured": 8628,
      "stit": 8629,
      "single": 8630,
      "econom": 8631,
      "hours": 8632,
      "box": 8633,
      "author": 8634,
      "IT": 8635,
      "stop": 8636,
      "track": 8637,
      "--": 8638,
      "AR": 8639,
      "Fo": 8640,
      "least": 8641,
      "Mon": 8642,
      "Ger": 8643,
      "future": 8644,
      "roll": 8645,
      "curity": 8646,
      "establ": 8647,
      "Your": 8648,
      "ival": 8649,
      "Min": 8650,
      "flow": 8651,
      "ift": 8652,
      "AC": 8653,
      "ilities": 8654,
      "period": 8655,
      "ged": 8656,
      "Not": 8657,
      "ports": 8658,
      "ips": 8659,
      "video": 8660,
      "ral": 8661,
      "Sp": 8662,
      "scre": 8663,
      "offers": 8664,
      "reason": 8665,
      "card": 8666,
      "brand": 8667,
      "doing": 8668,
      "Some": 8669,
      "bring": 8670,
      "National": 8671,
      "mot": 8672,
      "ull": 8673,
      "21": 8674,
      "ork": 8675,
      "stay": 8676,
      "II": 8677,
      "method": 8678,
      "ai": 8679,
      "tar": 8680,
      "took": 8681,
      "above": 8682,
      "ots": 8683,
      "iday": 8684,
      "ief": 8685,
      "features": 8686,
      "Austr": 8687,
      "gest": 8688,
      "concer": 8689,
      "lege": 8690,
      "augh": 8691,
      "iter": 8692,
      "respons": 8693,
      "Per": 8694,
      "host": 8695,
      "half": 8696,
      "ES": 8697,
      "ilar": 8698,
      "cuss": 8699,
      "Cal": 8700,
      "23": 8701,
      "begin": 8702,
      "fast": 8703,
      "iate": 8704,
      "mid": 8705,
      "tax": 8706,
      "spir": 8707,
      "professional": 8708,
      "film": 8709,
      "reco": 8710,
      "angu": 8711,
      "nal": 8712,
      "lease": 8713,
      "break": 8714,
      "various": 8715,
      "uses": 8716,
      "By": 8717,
      "youn": 8718,
      "actually": 8719,
      "address": 8720,
      "content": 8721,
      "Serv": 8722,
      "lat": 8723,
      "utions": 8724,
      "recomm": 8725,
      "results": 8726,
      "problem": 8727,
      "inc": 8728,
      "among": 8729,
      "posed": 8730,
      "atic": 8731,
      "aken": 8732,
      "fill": 8733,
      "\".": 8734,
      "School": 8735,
      "pict": 8736,
      "sci": 8737,
      "fall": 8738,
      "door": 8739,
      "sound": 8740,
      "cou": 8741,
      "complete": 8742,
      "minutes": 8743,
      "City": 8744,
      "technology": 8745,
      "size": 8746,
      "North": 8747,
      "lex": 8748,
      "cop": 8749,
      "environment": 8750,
      "taking": 8751,
      "Bar": 8752,
      "tware": 8753,
      "areas": 8754,
      "months": 8755,
      "ott": 8756,
      "chall": 8757,
      "five": 8758,
      "icy": 8759,
      "duct": 8760,
      "went": 8761,
      "style": 8762,
      "States": 8763,
      "wall": 8764,
      "ows": 8765,
      "phys": 8766,
      "fit": 8767,
      "sport": 8768,
      "issues": 8769,
      "training": 8770,
      "customers": 8771,
      "sho": 8772,
      "ancial": 8773,
      "games": 8774,
      "history": 8775,
      "table": 8776,
      "ony": 8777,
      "active": 8778,
      "draw": 8779,
      "account": 8780,
      "human": 8781,
      "Cor": 8782,
      "ene": 8783,
      "thought": 8784,
      "ledge": 8785,
      "select": 8786,
      "Jan": 8787,
      "performance": 8788,
      "beautiful": 8789,
      "didn": 8790,
      "mom": 8791,
      "version": 8792,
      "While": 8793,
      "provides": 8794,
      "Cr": 8795,
      "Ge": 8796,
      "print": 8797,
      "init": 8798,
      "function": 8799,
      "tomer": 8800,
      "seen": 8801,
      "idence": 8802,
      "watch": 8803,
      "deter": 8804,
      "engine": 8805,
      "2017": 8806,
      "yet": 8807,
      "ently": 8808,
      "AL": 8809,
      "ples": 8810,
      "tour": 8811,
      "Bu": 8812,
      "xim": 8813,
      "management": 8814,
      "Brit": 8815,
      "assist": 8816,
      "dig": 8817,
      "further": 8818,
      "moder": 8819,
      "OR": 8820,
      "ibility": 8821,
      "itor": 8822,
      "Reg": 8823,
      "term": 8824,
      "word": 8825,
      "Am": 8826,
      ",\"": 8827,
      "exist": 8828,
      "color": 8829,
      "women": 8830,
      "represent": 8831,
      "doesn": 8832,
      "please": 8833,
      "located": 8834,
      "pair": 8835,
      "pret": 8836,
      "simple": 8837,
      "relation": 8838,
      "property": 8839,
      "living": 8840,
      "improve": 8841,
      "Comp": 8842,
      "questions": 8843,
      "download": 8844,
      "everything": 8845,
      "mun": 8846,
      "rate": 8847,
      "York": 8848,
      "ches": 8849,
      "energy": 8850,
      "cast": 8851,
      "glo": 8852,
      "designed": 8853,
      "required": 8854,
      "meas": 8855,
      "pick": 8856,
      "His": 8857,
      "Che": 8858,
      "necess": 8859,
      "aving": 8860,
      "Canad": 8861,
      "ming": 8862,
      "king": 8863,
      "mor": 8864,
      "ering": 8865,
      "paper": 8866,
      "friends": 8867,
      "either": 8868,
      "Fl": 8869,
      "close": 8870,
      "popular": 8871,
      "lands": 8872,
      "whether": 8873,
      "resident": 8874,
      "systems": 8875,
      "rad": 8876,
      "paren": 8877,
      "ining": 8878,
      "2019": 8879,
      "pecially": 8880,
      "Qu": 8881,
      "Sc": 8882,
      "ention": 8883,
      "approach": 8884,
      "uter": 8885,
      "particip": 8886,
      "uation": 8887,
      "signific": 8888,
      "Don": 8889,
      "ufact": 8890,
      "oud": 8891,
      "Par": 8892,
      "media": 8893,
      "Dis": 8894,
      "common": 8895,
      "Her": 8896,
      "docu": 8897,
      "especially": 8898,
      "Austral": 8899,
      "ges": 8900,
      "issue": 8901,
      "discuss": 8902,
      "cir": 8903,
      "Will": 8904,
      "mess": 8905,
      "Apr": 8906,
      "related": 8907,
      "idea": 8908,
      "prob": 8909,
      "Now": 8910,
      "vert": 8911,
      "Pe": 8912,
      "High": 8913,
      "Su": 8914,
      "State": 8915,
      "ication": 8916,
      "bir": 8917,
      "built": 8918,
      "ham": 8919,
      "third": 8920,
      "heart": 8921,
      "percent": 8922,
      "pen": 8923,
      "staff": 8924,
      "natural": 8925,
      "whole": 8926,
      "pose": 8927,
      "sugg": 8928,
      "irl": 8929,
      "suggest": 8930,
      "Part": 8931,
      "sen": 8932,
      "Ed": 8933,
      "office": 8934,
      "sem": 8935,
      "aged": 8936,
      "writing": 8937,
      "includes": 8938,
      "match": 8939,
      "itted": 8940,
      "provided": 8941,
      "2016": 8942,
      "vision": 8943,
      "nov": 8944,
      "travel": 8945,
      "sent": 8946,
      "struction": 8947,
      "TH": 8948,
      "super": 8949,
      "iple": 8950,
      "Pol": 8951,
      "hope": 8952,
      "gain": 8953,
      "email": 8954,
      "entire": 8955,
      "white": 8956,
      "says": 8957,
      "black": 8958,
      "amount": 8959,
      "Just": 8960,
      "asing": 8961,
      "tit": 8962,
      "aur": 8963,
      "196": 8964,
      "28": 8965,
      "equip": 8966,
      "likely": 8967,
      "IC": 8968,
      "crib": 8969,
      "Park": 8970,
      "resh": 8971,
      "eter": 8972,
      "party": 8973,
      "mix": 8974,
      "happen": 8975,
      "Please": 8976,
      "hair": 8977,
      "langu": 8978,
      "cks": 8979,
      "Eng": 8980,
      "held": 8981,
      "dy": 8982,
      "bank": 8983,
      "sat": 8984,
      "oil": 8985,
      "ape": 8986,
      "text": 8987,
      "Sun": 8988,
      "eral": 8989,
      "song": 8990,
      "ided": 8991,
      "however": 8992,
      "Mic": 8993,
      "created": 8994,
      "sites": 8995,
      "ule": 8996,
      "mach": 8997,
      "27": 8998,
      "star": 8999,
      "aver": 9000,
      "itional": 9001,
      "ators": 9002,
      "selves": 9003,
      "mob": 9004,
      "ned": 9005,
      "bon": 9006,
      "similar": 9007,
      "needed": 9008,
      "taken": 9009,
      "ishing": 9010,
      "sun": 9011,
      "wer": 9012,
      "fire": 9013,
      "achie": 9014,
      "potential": 9015,
      "unique": 9016,
      "Engl": 9017,
      "events": 9018,
      "collect": 9019,
      "continu": 9020,
      "ison": 9021,
      "became": 9022,
      "protect": 9023,
      "added": 9024,
      "role": 9025,
      "English": 9026,
      "worth": 9027,
      "someone": 9028,
      "century": 9029,
      "associ": 9030,
      "West": 9031,
      "Cent": 9032,
      "character": 9033,
      "software": 9034,
      "From": 9035,
      "26": 9036,
      "comfort": 9037,
      "wonder": 9038,
      "dou": 9039,
      "sequ": 9040,
      "ification": 9041,
      "aft": 9042,
      "emp": 9043,
      "AM": 9044,
      "words": 9045,
      "Ju": 9046,
      "bi": 9047,
      "ouch": 9048,
      "Sep": 9049,
      "ensure": 9050,
      "ables": 9051,
      "tre": 9052,
      "hom": 9053,
      "feature": 9054,
      "previous": 9055,
      "regard": 9056,
      "six": 9057,
      "usually": 9058,
      "almost": 9059,
      "Ho": 9060,
      "born": 9061,
      "official": 9062,
      "exc": 9063,
      "final": 9064,
      "stor": 9065,
      "quite": 9066,
      "Rep": 9067,
      "ires": 9068,
      "significant": 9069,
      "reet": 9070,
      "forward": 9071,
      "question": 9072,
      "cook": 9073,
      "customer": 9074,
      "believe": 9075,
      "ama": 9076,
      "80": 9077,
      "ana": 9078,
      "plement": 9079,
      "original": 9080,
      "changes": 9081,
      "War": 9082,
      "Dep": 9083,
      "lic": 9084,
      "financial": 9085,
      "iam": 9086,
      "choose": 9087,
      "diffic": 9088,
      "resour": 9089,
      "April": 9090,
      "idge": 9091,
      "simply": 9092,
      "urance": 9093,
      "etc": 9094,
      "jour": 9095,
      "rodu": 9096,
      "Cont": 9097,
      "weight": 9098,
      "saf": 9099,
      "request": 9100,
      "general": 9101,
      "favor": 9102,
      "Stud": 9103,
      "veh": 9104,
      "hor": 9105,
      "user": 9106,
      "soon": 9107,
      "anim": 9108,
      "tegr": 9109,
      "thern": 9110,
      "throughout": 9111,
      "Act": 9112,
      "force": 9113,
      "knowledge": 9114,
      "received": 9115,
      "problems": 9116,
      "points": 9117,
      "AP": 9118,
      "hind": 9119,
      "young": 9120,
      "tries": 9121,
      "aging": 9122,
      "pet": 9123,
      "bill": 9124,
      "production": 9125,
      "acc": 9126,
      "modern": 9127,
      "err": 9128,
      "2015": 9129,
      "manufact": 9130,
      "options": 9131,
      "ises": 9132,
      "Im": 9133,
      "security": 9134,
      "regular": 9135,
      "played": 9136,
      "via": 9137,
      "lower": 9138,
      "click": 9139,
      "ands": 9140,
      "wish": 9141,
      "sed": 9142,
      "death": 9143,
      "education": 9144,
      "application": 9145,
      "Mark": 9146,
      "included": 9147,
      "subject": 9148,
      "har": 9149,
      "attr": 9150,
      "park": 9151,
      "respect": 9152,
      "ague": 9153,
      "bad": 9154,
      "ays": 9155,
      "uss": 9156,
      "Oc": 9157,
      "March": 9158,
      "former": 9159,
      "EN": 9160,
      "ze": 9161,
      "rather": 9162,
      "adem": 9163,
      "news": 9164,
      "ED": 9165,
      "tt": 9166,
      "total": 9167,
      "corpor": 9168,
      "ideas": 9169,
      "ends": 9170,
      "ometimes": 9171,
      "learning": 9172,
      "recogn": 9173,
      "plant": 9174,
      "screen": 9175,
      "ecut": 9176,
      "wel": 9177,
      "fee": 9178,
      "appear": 9179,
      "rect": 9180,
      "hon": 9181,
      "crit": 9182,
      "deliver": 9183,
      "ler": 9184,
      "Aug": 9185,
      "wed": 9186,
      "rown": 9187,
      "code": 9188,
      "ules": 9189,
      "blog": 9190,
      "relationship": 9191,
      "yourself": 9192,
      "actions": 9193,
      "anced": 9194,
      "Afr": 9195,
      "gress": 9196,
      "bum": 9197,
      "Fin": 9198,
      "Here": 9199,
      "Mc": 9200,
      "else": 9201,
      "players": 9202,
      "books": 9203,
      "everyone": 9204,
      "astic": 9205,
      "treatment": 9206,
      "Air": 9207,
      "29": 9208,
      "store": 9209,
      "risk": 9210,
      "object": 9211,
      "Ab": 9212,
      "ference": 9213,
      "elt": 9214,
      "covered": 9215,
      "log": 9216,
      "orts": 9217,
      "Char": 9218,
      "mas": 9219,
      "late": 9220,
      "reading": 9221,
      "increase": 9222,
      "era": 9223,
      "ert": 9224,
      "firm": 9225,
      "anything": 9226,
      "ume": 9227,
      "cil": 9228,
      "standard": 9229,
      "famil": 9230,
      "effic": 9231,
      "currently": 9232,
      "2014": 9233,
      "option": 9234,
      "Sm": 9235,
      "location": 9236,
      "prim": 9237,
      "spr": 9238,
      "agre": 9239,
      "ps": 9240,
      "higher": 9241,
      "sle": 9242,
      "wanted": 9243,
      "fail": 9244,
      "receive": 9245,
      "OS": 9246,
      "suit": 9247,
      "seem": 9248,
      "private": 9249,
      "loss": 9250,
      "County": 9251,
      "announ": 9252,
      "takes": 9253,
      "labor": 9254,
      "Fir": 9255,
      "amaz": 9256,
      "core": 9257,
      "fig": 9258,
      "TV": 9259,
      "cup": 9260,
      "outside": 9261,
      "details": 9262,
      "skin": 9263,
      "practice": 9264,
      "enced": 9265,
      "na": 9266,
      "ministr": 9267,
      "users": 9268,
      "clients": 9269,
      "additional": 9270,
      "ging": 9271,
      "\",": 9272,
      "record": 9273,
      "Har": 9274,
      "spect": 9275,
      "introdu": 9276,
      "Mus": 9277,
      "ases": 9278,
      "center": 9279,
      "ban": 9280,
      "Art": 9281,
      "drop": 9282,
      "moved": 9283,
      "plat": 9284,
      "parts": 9285,
      "tran": 9286,
      "ental": 9287,
      ".”": 9288,
      "June": 9289,
      "commer": 9290,
      "ee": 9291,
      "speak": 9292,
      "hib": 9293,
      "sess": 9294,
      "according": 9295,
      "opportunity": 9296,
      "ille": 9297,
      "image": 9298,
      "continue": 9299,
      "35": 9300,
      "artment": 9301,
      "Gre": 9302,
      "UK": 9303,
      "maintain": 9304,
      "ux": 9305,
      "running": 9306,
      "tee": 9307,
      "sales": 9308,
      "insurance": 9309,
      "dog": 9310,
      "appl": 9311,
      "respon": 9312,
      "matter": 9313,
      "written": 9314,
      "45": 9315,
      "probably": 9316,
      "Dav": 9317,
      "dle": 9318,
      "base": 9319,
      "upon": 9320,
      "contribut": 9321,
      "network": 9322,
      "stant": 9323,
      "forms": 9324,
      "ID": 9325,
      "accept": 9326,
      "activities": 9327,
      "autom": 9328,
      "King": 9329,
      "prep": 9330,
      "icated": 9331,
      "growth": 9332,
      "difficult": 9333,
      "longer": 9334,
      "credit": 9335,
      "fix": 9336,
      "section": 9337,
      "Em": 9338,
      "international": 9339,
      "happy": 9340,
      "legal": 9341,
      "integr": 9342,
      "70": 9343,
      "sens": 9344,
      "ri": 9345,
      "uge": 9346,
      "ses": 9347,
      "lock": 9348,
      "ceed": 9349,
      "90": 9350,
      "extra": 9351,
      "behind": 9352,
      "International": 9353,
      "variety": 9354,
      "shows": 9355,
      "January": 9356,
      "Mr": 9357,
      "speed": 9358,
      "soft": 9359,
      "true": 9360,
      "izing": 9361,
      "Lon": 9362,
      "computer": 9363,
      "file": 9364,
      "prior": 9365,
      "projects": 9366,
      "necessary": 9367,
      "skills": 9368,
      "Val": 9369,
      "drive": 9370,
      "2013": 9371,
      "inside": 9372,
      "began": 9373,
      "feed": 9374,
      "smo": 9375,
      "allows": 9376,
      "rench": 9377,
      "Au": 9378,
      "trying": 9379,
      "cannot": 9380,
      "worked": 9381,
      "leading": 9382,
      "sil": 9383,
      "mod": 9384,
      "served": 9385,
      "Ber": 9386,
      "aily": 9387,
      "gas": 9388,
      "setting": 9389,
      "career": 9390,
      "BC": 9391,
      "Most": 9392,
      "2012": 9393,
      "More": 9394,
      "easily": 9395,
      "itchen": 9396,
      "excell": 9397,
      "atter": 9398,
      "mov": 9399,
      "items": 9400,
      "impact": 9401,
      "San": 9402,
      "stain": 9403,
      "Add": 9404,
      "links": 9405,
      "House": 9406,
      "CO": 9407,
      "appoint": 9408,
      "icles": 9409,
      "uk": 9410,
      "America": 9411,
      "apan": 9412,
      "Are": 9413,
      "effective": 9414,
      "gets": 9415,
      "acts": 9416,
      "floor": 9417,
      "Center": 9418,
      "choice": 9419,
      "proved": 9420,
      "British": 9421,
      "tember": 9422,
      "tober": 9423,
      "separ": 9424,
      "July": 9425,
      "heav": 9426,
      "uff": 9427,
      "suf": 9428,
      "aves": 9429,
      "explo": 9430,
      "istic": 9431,
      "placed": 9432,
      "First": 9433,
      "mobile": 9434,
      "tele": 9435,
      "squ": 9436,
      "told": 9437,
      "Black": 9438,
      "cool": 9439,
      "lay": 9440,
      "swe": 9441,
      "quar": 9442,
      "exact": 9443,
      "Day": 9444,
      "contract": 9445,
      "Je": 9446,
      "kids": 9447,
      "language": 9448,
      "isn": 9449,
      "ysis": 9450,
      "recommend": 9451,
      "August": 9452,
      "September": 9453,
      "qual": 9454,
      "October": 9455,
      "attack": 9456,
      "cru": 9457,
      "Dev": 9458,
      "cam": 9459,
      "apply": 9460,
      "inj": 9461,
      "avo": 9462,
      "limited": 9463,
      "types": 9464,
      "occur": 9465,
      "inste": 9466,
      "club": 9467,
      "released": 9468,
      "quickly": 9469,
      "terms": 9470,
      "weeks": 9471,
      "mass": 9472,
      "leaders": 9473,
      "bot": 9474,
      "summer": 9475,
      "leave": 9476,
      "mic": 9477,
      "ades": 9478,
      "pretty": 9479,
      "iet": 9480,
      "marketing": 9481,
      "safe": 9482,
      "Ear": 9483,
      "ees": 9484,
      "affect": 9485,
      "earch": 9486,
      "article": 9487,
      "rooms": 9488,
      "medical": 9489,
      "save": 9490,
      "195": 9491,
      "birth": 9492,
      "nia": 9493,
      "2010": 9494,
      "cele": 9495,
      "ension": 9496,
      "ferences": 9497,
      "policy": 9498,
      "player": 9499,
      "Book": 9500,
      "hit": 9501,
      "lin": 9502,
      "iction": 9503,
      "published": 9504,
      "lives": 9505,
      "inary": 9506,
      "Japan": 9507,
      "ns": 9508,
      "cases": 9509,
      "rain": 9510,
      "Thanks": 9511,
      "Gener": 9512,
      "mine": 9513,
      "launch": 9514,
      "conditions": 9515,
      "bud": 9516,
      "ties": 9517,
      "programs": 9518,
      "playing": 9519,
      "materials": 9520,
      "London": 9521,
      "ountain": 9522,
      "van": 9523,
      "correct": 9524,
      "countries": 9525,
      "sched": 9526,
      "ring": 9527,
      "prevent": 9528,
      "Every": 9529,
      "ware": 9530,
      "developed": 9531,
      "express": 9532,
      "giving": 9533,
      "lif": 9534,
      "student": 9535,
      "Inter": 9536,
      "celebr": 9537,
      "El": 9538,
      "aul": 9539,
      "hood": 9540,
      "groups": 9541,
      "AD": 9542,
      "IP": 9543,
      "kill": 9544,
      "dry": 9545,
      "providing": 9546,
      "ran": 9547,
      "piece": 9548,
      "Sal": 9549,
      "iqu": 9550,
      "atory": 9551,
      "ience": 9552,
      "2011": 9553,
      "collection": 9554,
      "graphy": 9555,
      "source": 9556,
      "ological": 9557,
      "Sch": 9558,
      "yl": 9559,
      "expected": 9560,
      "shall": 9561,
      "SE": 9562,
      "costs": 9563,
      "ST": 9564,
      "sis": 9565,
      "solution": 9566,
      "lines": 9567,
      "Many": 9568,
      "See": 9569,
      "immed": 9570,
      "ctions": 9571,
      "equipment": 9572,
      "album": 9573,
      "ung": 9574,
      "nes": 9575,
      "Up": 9576,
      "Dece": 9577,
      "levels": 9578,
      "iers": 9579,
      "asked": 9580,
      "Sat": 9581,
      "saw": 9582,
      "formed": 9583,
      "mis": 9584,
      "rout": 9585,
      "amazing": 9586,
      "Wind": 9587,
      "cand": 9588,
      "December": 9589,
      "ram": 9590,
      "bert": 9591,
      "deep": 9592,
      "Health": 9593,
      "2006": 9594,
      "India": 9595,
      "ogle": 9596,
      "org": 9597,
      "patients": 9598,
      "goal": 9599,
      "except": 9600,
      "wise": 9601,
      "vember": 9602,
      "purchase": 9603,
      "Also": 9604,
      "ublic": 9605,
      "Let": 9606,
      "couple": 9607,
      "influ": 9608,
      "itself": 9609,
      "cert": 9610,
      "dest": 9611,
      "consist": 9612,
      "sold": 9613,
      "histor": 9614,
      "instead": 9615,
      "November": 9616,
      "ellow": 9617,
      "latest": 9618,
      "cross": 9619,
      "compl": 9620,
      "sets": 9621,
      "cul": 9622,
      "uel": 9623,
      "answer": 9624,
      "izes": 9625,
      "involved": 9626,
      "Red": 9627,
      "nothing": 9628,
      "itary": 9629,
      "attle": 9630,
      "Then": 9631,
      "condition": 9632,
      "considered": 9633,
      "hear": 9634,
      "arden": 9635,
      "places": 9636,
      "explain": 9637,
      "Associ": 9638,
      "cret": 9639,
      "recently": 9640,
      "China": 9641,
      "cture": 9642,
      "cription": 9643,
      "clus": 9644,
      "highly": 9645,
      "lost": 9646,
      "ington": 9647,
      "moving": 9648,
      "device": 9649,
      "31": 9650,
      "touch": 9651,
      "Home": 9652,
      "Great": 9653,
      "div": 9654,
      "looks": 9655,
      "average": 9656,
      "seems": 9657,
      "aign": 9658,
      "mention": 9659,
      "challeng": 9660,
      "commercial": 9661,
      "//": 9662,
      "iding": 9663,
      "anyone": 9664,
      "document": 9665,
      "tools": 9666,
      "ender": 9667,
      "glass": 9668,
      "erous": 9669,
      "fresh": 9670,
      "hous": 9671,
      "La": 9672,
      "detail": 9673,
      "green": 9674,
      "36": 9675,
      "yal": 9676,
      "region": 9677,
      "gold": 9678,
      "acqu": 9679,
      "nice": 9680,
      "scal": 9681,
      "plans": 9682,
      "decision": 9683,
      "aware": 9684,
      "ease": 9685,
      "sec": 9686,
      "implement": 9687,
      "emer": 9688,
      "President": 9689,
      "Sim": 9690,
      "path": 9691,
      "bath": 9692,
      "hour": 9693,
      "ternal": 9694,
      "Gl": 9695,
      "hab": 9696,
      "sense": 9697,
      "ifor": 9698,
      "tic": 9699,
      "execut": 9700,
      "Sci": 9701,
      "established": 9702,
      "Get": 9703,
      "construction": 9704,
      "commit": 9705,
      "girl": 9706,
      "fair": 9707,
      "minim": 9708,
      "traditional": 9709,
      "fre": 9710,
      "Off": 9711,
      "Russ": 9712,
      "agement": 9713,
      "themselves": 9714,
      "meeting": 9715,
      "digital": 9716,
      "olution": 9717,
      "rich": 9718,
      "church": 9719,
      "Pat": 9720,
      "trip": 9721,
      "College": 9722,
      "ae": 9723,
      "essential": 9724,
      "write": 9725,
      "describ": 9726,
      "sale": 9727,
      "remember": 9728,
      "trust": 9729,
      "French": 9730,
      "multiple": 9731,
      "inner": 9732,
      "complex": 9733,
      "Sk": 9734,
      "asons": 9735,
      "rock": 9736,
      "parents": 9737,
      "encour": 9738,
      "Since": 9739,
      "safety": 9740,
      "Sam": 9741,
      "Web": 9742,
      "successful": 9743,
      "bab": 9744,
      "deb": 9745,
      "anc": 9746,
      "suppl": 9747,
      "bruary": 9748,
      "directly": 9749,
      "morning": 9750,
      "wit": 9751,
      "Cour": 9752,
      "aces": 9753,
      "Well": 9754,
      "tle": 9755,
      "mm": 9756,
      "resources": 9757,
      "political": 9758,
      "February": 9759,
      "moment": 9760,
      "ston": 9761,
      "fa": 9762,
      "coach": 9763,
      "PC": 9764,
      "charge": 9765,
      "500": 9766,
      "rup": 9767,
      "serve": 9768,
      "reng": 9769,
      "umb": 9770,
      "ifornia": 9771,
      "release": 9772,
      "orge": 9773,
      "block": 9774,
      "atives": 9775,
      "gives": 9776,
      "Bel": 9777,
      "solutions": 9778,
      "pool": 9779,
      "Rev": 9780,
      "excellent": 9781,
      "promot": 9782,
      "benefits": 9783,
      "Direct": 9784,
      "task": 9785,
      "194": 9786,
      "imm": 9787,
      "jud": 9788,
      "European": 9789,
      "decided": 9790,
      "East": 9791,
      "expert": 9792,
      "stock": 9793,
      "mother": 9794,
      "organization": 9795,
      "broad": 9796,
      "sometimes": 9797,
      "sam": 9798,
      "prem": 9799,
      "daily": 9800,
      "Hist": 9801,
      "Pre": 9802,
      "court": 9803,
      "estern": 9804,
      "Bus": 9805,
      "Canada": 9806,
      "erson": 9807,
      "Sup": 9808,
      "imate": 9809,
      "bag": 9810,
      "display": 9811,
      "advant": 9812,
      "preci": 9813,
      "owners": 9814,
      "empt": 9815,
      "rights": 9816,
      "note": 9817,
      "strate": 9818,
      "Pal": 9819,
      "thus": 9820,
      "chance": 9821,
      "global": 9822,
      "Once": 9823,
      "distribut": 9824,
      "images": 9825,
      "RO": 9826,
      "tur": 9827,
      "send": 9828,
      "upd": 9829,
      "onto": 9830,
      "favorite": 9831,
      "ny": 9832,
      "lots": 9833,
      "ibr": 9834,
      "Ital": 9835,
      "heat": 9836,
      "Google": 9837,
      "Even": 9838,
      "chan": 9839,
      "Design": 9840,
      "www": 9841,
      "frequ": 9842,
      "helps": 9843,
      "ivity": 9844,
      "Over": 9845,
      "Phil": 9846,
      "Commun": 9847,
      "htt": 9848,
      "Any": 9849,
      "conduct": 9850,
      "gree": 9851,
      "attention": 9852,
      "ements": 9853,
      "standing": 9854,
      "kitchen": 9855,
      "vey": 9856,
      "32": 9857,
      "bey": 9858,
      "iment": 9859,
      "MS": 9860,
      "Group": 9861,
      "innov": 9862,
      "2005": 9863,
      "Hol": 9864,
      "analysis": 9865,
      "ato": 9866,
      "campaign": 9867,
      "dependent": 9868,
      "California": 9869,
      "ker": 9870,
      "Ke": 9871,
      "restaur": 9872,
      "repair": 9873,
      "requirements": 9874,
      "Service": 9875,
      "streng": 9876,
      "ville": 9877,
      "2008": 9878,
      "named": 9879,
      "During": 9880,
      "temper": 9881,
      "anch": 9882,
      "idents": 9883,
      "Free": 9884,
      "Rom": 9885,
      "machine": 9886,
      "Ma": 9887,
      "blood": 9888,
      "categ": 9889,
      "://": 9890,
      "award": 9891,
      "nature": 9892,
      "Str": 9893,
      "erc": 9894,
      "prices": 9895,
      "stream": 9896,
      "Mod": 9897,
      "depart": 9898,
      "achieve": 9899,
      "Ben": 9900,
      "completely": 9901,
      "Law": 9902,
      "ulations": 9903,
      "stage": 9904,
      "Why": 9905,
      "nut": 9906,
      "spo": 9907,
      "nation": 9908,
      "goes": 9909,
      "decor": 9910,
      "tick": 9911,
      "obtain": 9912,
      "Best": 9913,
      "appropr": 9914,
      "furn": 9915,
      "OT": 9916,
      "creating": 9917,
      "towards": 9918,
      "activity": 9919,
      "igation": 9920,
      "guest": 9921,
      "fan": 9922,
      "itation": 9923,
      "LE": 9924,
      "surpr": 9925,
      "2009": 9926,
      "75": 9927,
      "serious": 9928,
      "syn": 9929,
      "cry": 9930,
      "target": 9931,
      "Mem": 9932,
      "register": 9933,
      "cat": 9934,
      "scr": 9935,
      "PS": 9936,
      "physical": 9937,
      "sn": 9938,
      "altern": 9939,
      "drug": 9940,
      "planning": 9941,
      "ken": 9942,
      "Ang": 9943,
      "ico": 9944,
      "Indian": 9945,
      "station": 9946,
      "fed": 9947,
      "bs": 9948,
      "initial": 9949,
      "99": 9950,
      "vill": 9951,
      "craft": 9952,
      "33": 9953,
      "Rem": 9954,
      "football": 9955,
      "population": 9956,
      "Australia": 9957,
      "largest": 9958,
      "positive": 9959,
      "ampion": 9960,
      "huge": 9961,
      "ength": 9962,
      "”.": 9963,
      "gradu": 9964,
      "Net": 9965,
      "David": 9966,
      "interesting": 9967,
      "ox": 9968,
      "plate": 9969,
      "Out": 9970,
      "reser": 9971,
      "pm": 9972,
      "rough": 9973,
      "apt": 9974,
      "Although": 9975,
      "partners": 9976,
      "liter": 9977,
      "although": 9978,
      "applications": 9979,
      "ester": 9980,
      "drink": 9981,
      "UN": 9982,
      "vehicle": 9983,
      "client": 9984,
      "entry": 9985,
      "ibly": 9986,
      "Each": 9987,
      "starting": 9988,
      "useum": 9989,
      "ivil": 9990,
      "haps": 9991,
      "carry": 9992,
      "za": 9993,
      "viol": 9994,
      "growing": 9995,
      "Other": 9996,
      "warm": 9997,
      "copy": 9998,
      "ites": 9999,
      "??": 10000,
      "economic": 10001,
      "iture": 10002,
      "schools": 10003,
      "supply": 10004,
      "father": 10005,
      "2007": 10006,
      "cel": 10007,
      "fish": 10008,
      "sus": 10009,
      "Prof": 10010,
      "Church": 10011,
      "bul": 10012,
      "storage": 10013,
      "Cam": 10014,
      "individuals": 10015,
      "hop": 10016,
      "picture": 10017,
      "CA": 10018,
      "rew": 10019,
      "thinking": 10020,
      "west": 10021,
      "iles": 10022,
      "hands": 10023,
      "sou": 10024,
      "administr": 10025,
      "neigh": 10026,
      "abs": 10027,
      "purpose": 10028,
      "determin": 10029,
      "progress": 10030,
      "urs": 10031,
      "states": 10032,
      "Port": 10033,
      "culture": 10034,
      "stitute": 10035,
      "icip": 10036,
      "pite": 10037,
      "iff": 10038,
      "myself": 10039,
      "Christmas": 10040,
      "mail": 10041,
      "zer": 10042,
      "chair": 10043,
      "isions": 10044,
      "Techn": 10045,
      "origin": 10046,
      "spot": 10047,
      "consult": 10048,
      "paid": 10049,
      "beha": 10050,
      "Gover": 10051,
      "transfer": 10052,
      "enh": 10053,
      "German": 10054,
      "CE": 10055,
      "organiz": 10056,
      "iately": 10057,
      "aries": 10058,
      "produced": 10059,
      "indic": 10060,
      "ida": 10061,
      "88": 10062,
      "Mag": 10063,
      "Play": 10064,
      "letter": 10065,
      "Department": 10066,
      "response": 10067,
      "venue": 10068,
      "fab": 10069,
      "MP": 10070,
      "Jes": 10071,
      "blue": 10072,
      "Good": 10073,
      "gave": 10074,
      "reported": 10075,
      "race": 10076,
      "assess": 10077,
      "marr": 10078,
      "igr": 10079,
      "changed": 10080,
      "understanding": 10081,
      "capt": 10082,
      "views": 10083,
      "instit": 10084,
      "trade": 10085,
      "lack": 10086,
      "Tod": 10087,
      "strateg": 10088,
      "stone": 10089,
      "frame": 10090,
      "businesses": 10091,
      "IL": 10092,
      "wear": 10093,
      "itely": 10094,
      "enge": 10095,
      "pattern": 10096,
      "Inc": 10097,
      "Tur": 10098,
      "ening": 10099,
      "bol": 10100,
      "photos": 10101,
      "aste": 10102,
      "consum": 10103,
      "friendly": 10104,
      "William": 10105,
      "eye": 10106,
      "finish": 10107,
      "interested": 10108,
      "arily": 10109,
      "beginning": 10110,
      "decl": 10111,
      "degree": 10112,
      "slow": 10113,
      "Mid": 10114,
      "fight": 10115,
      "Mac": 10116,
      "dark": 10117,
      "chem": 10118,
      "System": 10119,
      "Company": 10120,
      "Wash": 10121,
      "pressure": 10122,
      "stress": 10123,
      "healthy": 10124,
      "lier": 10125,
      "profession": 10126,
      "Mal": 10127,
      "wid": 10128,
      "Gold": 10129,
      "Bro": 10130,
      "structure": 10131,
      "UR": 10132,
      "dol": 10133,
      "According": 10134,
      "employees": 10135,
      "enty": 10136,
      "capital": 10137,
      "satis": 10138,
      "surround": 10139,
      "irt": 10140,
      "iced": 10141,
      "analy": 10142,
      "hosp": 10143,
      "title": 10144,
      "Wo": 10145,
      "felt": 10146,
      "ivery": 10147,
      "unit": 10148,
      "associated": 10149,
      "34": 10150,
      "effects": 10151,
      "impress": 10152,
      "ov": 10153,
      "References": 10154,
      "Face": 10155,
      "Spe": 10156,
      "Friday": 10157,
      "compon": 10158,
      "neg": 10159,
      "iring": 10160,
      "bow": 10161,
      "CD": 10162,
      "cash": 10163,
      "pages": 10164,
      "normal": 10165,
      "ads": 10166,
      "situation": 10167,
      "surface": 10168,
      "Wal": 10169,
      "dream": 10170,
      "2000": 10171,
      "goals": 10172,
      "Sol": 10173,
      "damage": 10174,
      "diag": 10175,
      "spend": 10176,
      "rank": 10177,
      "Street": 10178,
      "investment": 10179,
      "Distr": 10180,
      "meaning": 10181,
      "transport": 10182,
      "increased": 10183,
      "advis": 10184,
      "completed": 10185,
      "Hel": 10186,
      "industr": 10187,
      "difference": 10188,
      "People": 10189,
      "produce": 10190,
      "definitely": 10191,
      "demand": 10192,
      "arant": 10193,
      "wrong": 10194,
      "iant": 10195,
      "posted": 10196,
      "grade": 10197,
      "message": 10198,
      "families": 10199,
      "fine": 10200,
      "master": 10201,
      "platform": 10202,
      "Council": 10203,
      "exactly": 10204,
      "effort": 10205,
      "highest": 10206,
      "General": 10207,
      "brought": 10208,
      "rates": 10209,
      "holiday": 10210,
      "increasing": 10211,
      "counts": 10212,
      "Business": 10213,
      "sports": 10214,
      "operation": 10215,
      "Down": 10216,
      "38": 10217,
      "Jer": 10218,
      "lying": 10219,
      "olf": 10220,
      "offered": 10221,
      "opportunities": 10222,
      "benefit": 10223,
      "gency": 10224,
      "science": 10225,
      "basis": 10226,
      "length": 10227,
      "Del": 10228,
      "numbers": 10229,
      "guide": 10230,
      "particularly": 10231,
      "shown": 10232,
      "advert": 10233,
      "duc": 10234,
      "reli": 10235,
      "spent": 10236,
      "stick": 10237,
      "wait": 10238,
      "vot": 10239,
      "maxim": 10240,
      "exerc": 10241,
      "White": 10242,
      "existing": 10243,
      "stra": 10244,
      "Cur": 10245,
      "demon": 10246,
      "wonderful": 10247,
      "gun": 10248,
      "aspect": 10249,
      "ications": 10250,
      "pictures": 10251,
      "Club": 10252,
      "ror": 10253,
      "Read": 10254,
      "afford": 10255,
      "aker": 10256,
      "comment": 10257,
      "plus": 10258,
      "avoid": 10259,
      "respond": 10260,
      "accur": 10261,
      "devices": 10262,
      "announced": 10263,
      "sych": 10264,
      "Services": 10265,
      "ously": 10266,
      "patient": 10267,
      "Dan": 10268,
      "experienced": 10269,
      "resist": 10270,
      "39": 10271,
      "grand": 10272,
      "overall": 10273,
      "proced": 10274,
      "ios": 10275,
      "Sen": 10276,
      "offee": 10277,
      "fant": 10278,
      "sleep": 10279,
      "scient": 10280,
      "imag": 10281,
      "Bank": 10282,
      "Green": 10283,
      "college": 10284,
      "reduce": 10285,
      "extrem": 10286,
      "offering": 10287,
      "comfortable": 10288,
      "carr": 10289,
      "Hot": 10290,
      "seven": 10291,
      "shot": 10292,
      "budget": 10293,
      "ocr": 10294,
      "bound": 10295,
      "ander": 10296,
      "responsible": 10297,
      "Dem": 10298,
      "Paul": 10299,
      "eat": 10300,
      "smart": 10301,
      "appropriate": 10302,
      "oring": 10303,
      "Association": 10304,
      "tag": 10305,
      "president": 10306,
      "dress": 10307,
      "hotel": 10308,
      "sav": 10309,
      "tor": 10310,
      "Sto": 10311,
      "37": 10312,
      "double": 10313,
      "ET": 10314,
      "farm": 10315,
      "CH": 10316,
      "allowed": 10317,
      "prefer": 10318,
      "basic": 10319,
      "teams": 10320,
      "rid": 10321,
      "Super": 10322,
      "efficient": 10323,
      "zz": 10324,
      "Mor": 10325,
      "internet": 10326,
      "pred": 10327,
      "Bay": 10328,
      "aling": 10329,
      "omen": 10330,
      "relig": 10331,
      "porary": 10332,
      "istics": 10333,
      "Christian": 10334,
      "odes": 10335,
      "umn": 10336,
      "thous": 10337,
      "England": 10338,
      "payment": 10339,
      "reve": 10340,
      "clin": 10341,
      "dead": 10342,
      "Flor": 10343,
      "Research": 10344,
      "Post": 10345,
      "Sw": 10346,
      "aughter": 10347,
      "ashion": 10348,
      "concept": 10349,
      "iation": 10350,
      "ING": 10351,
      "spirit": 10352,
      "Sunday": 10353,
      "Cap": 10354,
      "reflect": 10355,
      "loved": 10356,
      "anti": 10357,
      "vest": 10358,
      "Jesus": 10359,
      "annual": 10360,
      "argu": 10361,
      "Satur": 10362,
      "Whe": 10363,
      "adjust": 10364,
      "Pho": 10365,
      "south": 10366,
      "followed": 10367,
      "join": 10368,
      "abin": 10369,
      "feet": 10370,
      "Ob": 10371,
      "Oh": 10372,
      "Jack": 10373,
      "finished": 10374,
      "mitted": 10375,
      "Arch": 10376,
      "regarding": 10377,
      "Met": 10378,
      "woman": 10379,
      "military": 10380,
      "cape": 10381,
      "stories": 10382,
      "measure": 10383,
      "turned": 10384,
      "homes": 10385,
      "studies": 10386,
      "lam": 10387,
      "brow": 10388,
      "Class": 10389,
      "ost": 10390,
      "beyond": 10391,
      "ara": 10392,
      "chann": 10393,
      "tried": 10394,
      "48": 10395,
      "owned": 10396,
      "Press": 10397,
      "candid": 10398,
      "Trans": 10399,
      "iber": 10400,
      "north": 10401,
      "apy": 10402,
      "bottom": 10403,
      "Educ": 10404,
      "mechan": 10405,
      "atively": 10406,
      "Sur": 10407,
      "optim": 10408,
      "feeling": 10409,
      "tren": 10410,
      "easier": 10411,
      "heard": 10412,
      "Tex": 10413,
      "continued": 10414,
      "Windows": 10415,
      "gent": 10416,
      "push": 10417,
      "MA": 10418,
      "listed": 10419,
      "Sub": 10420,
      "rote": 10421,
      "stuff": 10422,
      "immediately": 10423,
      "Year": 10424,
      "encies": 10425,
      "himself": 10426,
      "generally": 10427,
      "profit": 10428,
      "central": 10429,
      "Spr": 10430,
      "River": 10431,
      "SS": 10432,
      "evidence": 10433,
      "Bal": 10434,
      "income": 10435,
      "delivery": 10436,
      "eyes": 10437,
      "auto": 10438,
      "Rich": 10439,
      "Fil": 10440,
      "electric": 10441,
      "appreci": 10442,
      "eval": 10443,
      "advice": 10444,
      "weather": 10445,
      "Chin": 10446,
      "James": 10447,
      "Internet": 10448,
      "larger": 10449,
      "alone": 10450,
      "rol": 10451,
      "useful": 10452,
      "ronic": 10453,
      "rules": 10454,
      "unk": 10455,
      "Today": 10456,
      "models": 10457,
      "movie": 10458,
      "abilities": 10459,
      "Court": 10460,
      "gift": 10461,
      "ored": 10462,
      "certainly": 10463,
      "wasn": 10464,
      "Ter": 10465,
      "collabor": 10466,
      "sort": 10467,
      "cards": 10468,
      "yle": 10469,
      "guarant": 10470,
      "mental": 10471,
      "suffer": 10472,
      "Devel": 10473,
      "55": 10474,
      "Facebook": 10475,
      "Because": 10476,
      "disease": 10477,
      "wife": 10478,
      "Miss": 10479,
      "Click": 10480,
      "protection": 10481,
      "ships": 10482,
      "background": 10483,
      "owner": 10484,
      "Washington": 10485,
      "finally": 10486,
      "util": 10487,
      "ager": 10488,
      "greater": 10489,
      "methods": 10490,
      "died": 10491,
      "ideal": 10492,
      "compared": 10493,
      "cit": 10494,
      "capac": 10495,
      "nearly": 10496,
      "controll": 10497,
      "cin": 10498,
      "archite": 10499,
      "imin": 10500,
      "academ": 10501,
      "primary": 10502,
      "insp": 10503,
      "surv": 10504,
      "Program": 10505,
      "iques": 10506,
      "agree": 10507,
      "garden": 10508,
      "ju": 10509,
      "files": 10510,
      "expand": 10511,
      "vant": 10512,
      "TO": 10513,
      "forts": 10514,
      "brain": 10515,
      "Yes": 10516,
      "emot": 10517,
      "Mer": 10518,
      "Saturday": 10519,
      "selection": 10520,
      "absol": 10521,
      "fru": 10522,
      "ibe": 10523,
      "occas": 10524,
      "teen": 10525,
      "dat": 10526,
      "dish": 10527,
      "wrote": 10528,
      "nel": 10529,
      "undred": 10530,
      "threat": 10531,
      "eth": 10532,
      "straight": 10533,
      "Sing": 10534,
      "ado": 10535,
      "fat": 10536,
      "sco": 10537,
      "edge": 10538,
      "truly": 10539,
      "Look": 10540,
      "circ": 10541,
      "identify": 10542,
      "Star": 10543,
      "cycl": 10544,
      ".)": 10545,
      "Make": 10546,
      "wedding": 10547,
      "gam": 10548,
      "hael": 10549,
      "THE": 10550,
      "multi": 10551,
      "powerful": 10552,
      "Ret": 10553,
      "counter": 10554,
      "affic": 10555,
      "League": 10556,
      "Blue": 10557,
      "inde": 10558,
      "PA": 10559,
      "middle": 10560,
      "ube": 10561,
      "strict": 10562,
      "pieces": 10563,
      "extremely": 10564,
      "beach": 10565,
      "partner": 10566,
      "instruct": 10567,
      "winning": 10568,
      "lights": 10569,
      "itar": 10570,
      "establish": 10571,
      "earlier": 10572,
      "2004": 10573,
      "ption": 10574,
      "Alex": 10575,
      "micro": 10576,
      "baby": 10577,
      "yn": 10578,
      "conven": 10579,
      "ona": 10580,
      "placement": 10581,
      "tract": 10582,
      "plants": 10583,
      "IV": 10584,
      "exhib": 10585,
      "da": 10586,
      "sustain": 10587,
      "elements": 10588,
      "vin": 10589,
      "IG": 10590,
      "Wed": 10591,
      "estival": 10592,
      "director": 10593,
      "Mil": 10594,
      "mir": 10595,
      "whose": 10596,
      "Mart": 10597,
      "ius": 10598,
      "dance": 10599,
      "Vol": 10600,
      "thanks": 10601,
      "ultim": 10602,
      "Found": 10603,
      "batter": 10604,
      "quarter": 10605,
      "Lab": 10606,
      "Road": 10607,
      "advantage": 10608,
      "ament": 10609,
      "earn": 10610,
      "described": 10611,
      "iar": 10612,
      "dro": 10613,
      "iance": 10614,
      "billion": 10615,
      "icing": 10616,
      "steps": 10617,
      "ologies": 10618,
      "cip": 10619,
      "species": 10620,
      "helped": 10621,
      "scale": 10622,
      "communication": 10623,
      "Another": 10624,
      "Care": 10625,
      "names": 10626,
      "Check": 10627,
      "reasons": 10628,
      "helping": 10629,
      "window": 10630,
      "44": 10631,
      "secure": 10632,
      "Top": 10633,
      "notice": 10634,
      "Life": 10635,
      "chain": 10636,
      "pul": 10637,
      "estate": 10638,
      "metal": 10639,
      "cars": 10640,
      "rupt": 10641,
      "Que": 10642,
      "EL": 10643,
      "stead": 10644,
      "Sou": 10645,
      "switch": 10646,
      "elling": 10647,
      "weekend": 10648,
      "connection": 10649,
      "Africa": 10650,
      "pal": 10651,
      "strategy": 10652,
      "assign": 10653,
      "Bur": 10654,
      "Fed": 10655,
      "atically": 10656,
      "Develop": 10657,
      "opened": 10658,
      "movement": 10659,
      "novel": 10660,
      "2002": 10661,
      "map": 10662,
      "ta": 10663,
      "opening": 10664,
      "65": 10665,
      "wash": 10666,
      "poor": 10667,
      "nic": 10668,
      "Office": 10669,
      "tree": 10670,
      "estim": 10671,
      "Fol": 10672,
      "Sum": 10673,
      "Find": 10674,
      "ancing": 10675,
      "challenge": 10676,
      "Chinese": 10677,
      "attempt": 10678,
      "thank": 10679,
      "loan": 10680,
      "server": 10681,
      "sharing": 10682,
      "Vis": 10683,
      "fem": 10684,
      "looked": 10685,
      "saying": 10686,
      "burg": 10687,
      "Ty": 10688,
      "rac": 10689,
      "Use": 10690,
      "police": 10691,
      "Board": 10692,
      "critical": 10693,
      "constant": 10694,
      "item": 10695,
      "approxim": 10696,
      "vac": 10697,
      "PM": 10698,
      "sey": 10699,
      "kept": 10700,
      "technical": 10701,
      "):": 10702,
      "maybe": 10703,
      "ba": 10704,
      "Under": 10705,
      "winter": 10706,
      "writer": 10707,
      "creative": 10708,
      "rom": 10709,
      "Power": 10710,
      "hus": 10711,
      "Ann": 10712,
      "bridge": 10713,
      "contains": 10714,
      "Mill": 10715,
      "CC": 10716,
      "peace": 10717,
      "rael": 10718,
      "District": 10719,
      "Mary": 10720,
      "ault": 10721,
      "Texas": 10722,
      "knew": 10723,
      "FL": 10724,
      "arrang": 10725,
      "ulated": 10726,
      "ula": 10727,
      "requires": 10728,
      "ields": 10729,
      "furniture": 10730,
      "coffee": 10731,
      "sym": 10732,
      "Div": 10733,
      "hundred": 10734,
      "subs": 10735,
      "Music": 10736,
      "Micro": 10737,
      "pa": 10738,
      "therefore": 10739,
      "closed": 10740,
      "Elect": 10741,
      "reports": 10742,
      "tenance": 10743,
      "Two": 10744,
      "Open": 10745,
      "strength": 10746,
      "dete": 10747,
      "reviews": 10748,
      "BA": 10749,
      "efforts": 10750,
      "ya": 10751,
      "Institute": 10752,
      "http": 10753,
      "roof": 10754,
      "keeping": 10755,
      "heavy": 10756,
      "seeing": 10757,
      "organizations": 10758,
      "corporate": 10759,
      "AND": 10760,
      "Call": 10761,
      "Love": 10762,
      "sea": 10763,
      "IM": 10764,
      "session": 10765,
      "lose": 10766,
      "clud": 10767,
      "Its": 10768,
      "connected": 10769,
      "cells": 10770,
      "95": 10771,
      "rap": 10772,
      "voice": 10773,
      "lov": 10774,
      "cold": 10775,
      "Lu": 10776,
      "Michael": 10777,
      "Florida": 10778,
      "journey": 10779,
      "eds": 10780,
      "Big": 10781,
      "memory": 10782,
      "iling": 10783,
      "cancer": 10784,
      "valu": 10785,
      "famous": 10786,
      "virt": 10787,
      "relax": 10788,
      "eight": 10789,
      "ald": 10790,
      "ga": 10791,
      "parties": 10792,
      "190": 10793,
      "values": 10794,
      "unte": 10795,
      "bour": 10796,
      "Hy": 10797,
      "miles": 10798,
      "Germany": 10799,
      "List": 10800,
      "icious": 10801,
      "shared": 10802,
      "reek": 10803,
      "CT": 10804,
      "expensive": 10805,
      "Thom": 10806,
      "irection": 10807,
      "Work": 10808,
      "wine": 10809,
      "orial": 10810,
      "Pan": 10811,
      "nd": 10812,
      "operations": 10813,
      "NA": 10814,
      "button": 10815,
      "usion": 10816,
      "maz": 10817,
      "mentioned": 10818,
      "passed": 10819,
      "Who": 10820,
      "characters": 10821,
      "oph": 10822,
      "Tom": 10823,
      "leader": 10824,
      "tend": 10825,
      "balance": 10826,
      "300": 10827,
      "slight": 10828,
      "spl": 10829,
      "64": 10830,
      "IR": 10831,
      "iverse": 10832,
      "dedicated": 10833,
      "minute": 10834,
      "PD": 10835,
      "isation": 10836,
      "ahead": 10837,
      "format": 10838,
      "atever": 10839,
      "fashion": 10840,
      "sole": 10841,
      "traffic": 10842,
      "actual": 10843,
      "shoot": 10844,
      "anger": 10845,
      "Israel": 10846,
      "Water": 10847,
      "Ver": 10848,
      "Market": 10849,
      "testing": 10850,
      "flex": 10851,
      "manufactur": 10852,
      "ened": 10853,
      "History": 10854,
      "Cons": 10855,
      "Have": 10856,
      "Mex": 10857,
      "istry": 10858,
      "standards": 10859,
      "Rel": 10860,
      "selling": 10861,
      "selected": 10862,
      "spring": 10863,
      "libr": 10864,
      "aled": 10865,
      "External": 10866,
      "fortun": 10867,
      "lymp": 10868,
      "Central": 10869,
      "opin": 10870,
      "Lou": 10871,
      "steel": 10872,
      "Lake": 10873,
      "perhaps": 10874,
      "iger": 10875,
      "competition": 10876,
      "Plan": 10877,
      "sweet": 10878,
      "Pet": 10879,
      "ordin": 10880,
      "Ham": 10881,
      "Sil": 10882,
      "statement": 10883,
      "mountain": 10884,
      "status": 10885,
      "2003": 10886,
      "trial": 10887,
      "vit": 10888,
      "teaching": 10889,
      "manage": 10890,
      "presented": 10891,
      "performed": 10892,
      "sand": 10893,
      "figure": 10894,
      "changing": 10895,
      "lets": 10896,
      "Olymp": 10897,
[...]
